[PAD]
[UNK]
[START]
[END]
[SEP]
!
"
#
$
%
&
'
(
)
*
+
,
-
.
/
0
1
2
3
4
5
6
7
8
9
:
;
<
=
>
?
@
[
\
]
^
_
`
a
b
c
d
e
f
g
h
i
j
k
l
m
n
o
p
q
r
s
t
u
v
w
x
y
z
{
|
}
~
¤
§
«
®
°
±
·
»
×
æ
ð
ø
þ
ı
œ
ə
ɛ
ː
α
β
γ
δ
ε
η
θ
ι
λ
μ
ν
ο
π
ρ
σ
τ
υ
φ
χ
ω
а
б
в
г
д
е
ж
з
и
к
л
м
н
о
п
р
с
т
у
ф
х
ц
ч
ш
щ
ъ
ы
ь
э
ю
я
і
ا
د
ر
ل
م
ن
ی
த
ந
ன
ப
ம
ற
ா
ி
ு
ூ
ก
ค
ด
ต
ท
น
บ
ย
ร
ว
ส
ห
อ
า
เ
ᄀ
ᄂ
ᄃ
ᄅ
ᄆ
ᄇ
ᄉ
ᄋ
ᄌ
ᄎ
ᄏ
ᄐ
ᄑ
ᄒ
ᅡ
ᅢ
ᅣ
ᅥ
ᅦ
ᅧ
ᅨ
ᅩ
ᅪ
ᅬ
ᅭ
ᅮ
ᅯ
ᅲ
ᅳ
ᅵ
ᆨ
ᆫ
ᆭ
ᆯ
ᆷ
ᆸ
ᆻ
ᆼ
–
—
‘
’
“
”
•
′
→
∂
∈
−
√
∪
≡
≤
≥
⊗
⊙
⋅
⎜
⎟
⎡
⎢
⎣
⎤
⎥
⎦
─
│
┌
┐
└
┘
├
┤
┬
┼
═
║
╔
╗
╚
╝
▇
█
▒
●
✓
✗
、
。
【
】
か
し
す
ち
て
に
の
は
ひ
ゃ
ゅ
ょ
る
を
シ
ト
フ
ー
一
万
三
上
下
不
与
专
且
业
东
两
个
中
丰
串
临
为
主
举
久
么
义
之
乐
也
书
买
了
事
二
于
云
五
亚
些
交
产
享
京
人
仁
仅
今
从
仓
他
付
代
令
以
们
件
价
任
份
企
众
优
会
传
似
但
位
低
体
何
余
作
你
佳
使
例
供
保
信
修
倍
候
值
做
停
储
傳
像
價
允
元
充
先
光
入
全
公
共
关
兴
其
具
典
内
册
再
写
况
准
减
几
出
击
函
分
划
列
则
创
初
删
判
利
别
到
制
刷
券
前
剩
功
加
务
动
包
化
北
匹
区
千
升
华
协
单
卖
南
占
卡
印
即
历
压
原
厦
去
县
参
及
反
发
取
变
口
句
只
可
台
史
号
合
吉
同
名
后
向
否
含
启
告
员
周
命
和
品
响
唯
商
器
四
回
因
围
国
图
在
地
场
址
均
坐
块
型
城
域
基
填
增
声
处
备
复
外
多
大
天
失
头
夹
好
如
始
委
媒
子
字
存
学
它
安
完
宏
定
宝
实
客
室
家
容
宽
密
对
导
封
将
小
少
尔
尝
就
尾
层
屏
展
属
山
州
工
左
巨
差
己
已
币
市
布
帐
带
常
幅
幕
平
年
并
广
庆
序
库
应
店
度
康
建
开
异
式
引
弘
当
录
形
影
往
径
待
得
循
微
德
心
必
志
快
忽
态
性
总
恒
息
您
情
意
成
我
或
戳
户
所
手
才
打
托
执
扩
批
找
把
投
抛
报
拉
拟
择
括
拼
持
指
按
换
据
捷
授
掉
排
接
控
推
描
提
插
搜
撤
播
操
支
收
改
放
效
教
数
整
數
文
料
断
新
方
无
日
时
旺
昌
明
易
春
昨
是
显
晶
曲
更
替
最
月
有
服
期
未
本
机
权
材
束
条
来
板
构
析
果
某
查
标
校
样
根
格
案
档
检
模
次
欣
款
歌
止
正
此
步
段
母
每
比
毫
永
求
汇
汉
江
没
法
注
泰
洪
流
测
浩
海
消
润
淘
添
清
港
源
满
滤
点
為
然
照
父
片
版
牌
物
特
状
率
环
现
班
球
理
瑞
生
用
由
申
界
留
略
登
白
百
的
皇
盈
益
监
盖
盘
盛
目
直
相
省
看
真
知
矩
短
码
确
示
祥
票
禄
福
离
种
秒
称
移
程
空
窗
窝
立
章
端
笔
符
第
等
答
策
签
简
算
管
类
精
系
素
索
红
约
级
纬
纯
线
组
细
终
经
绑
结
绘
给
绝
统
继
续
维
缀
缓
编
缩
网
置
美
群
考
者
而
耗
聊
联
股
能
自
至
致
般
色
节
若
英
茂
范
荣
获
藏
行
街
补
表
被
装
西
要
覆
见
规
视
解
触
言
計
訊
计
订
认
议
记
许
论
设
访
证
评
识
词
试
话
询
该
详
语
误
说
请
读
课
调
谦
象
資
负
败
账
货
购
贵
费
资
起
超
足
跌
距
跟
路
跳
身
转
轮
软
载
较
辉
辑
输
达
过
运
近
返
还
这
进
远
连
述
退
送
选
逐
递
通
速
造
道
那
邮
部
都
配
里
重
量
金
钟
银
链
销
锁
错
键
长
間
门
闭
问
间
阅
队
防
阳
际
陆
降
限
除
隆
随
隔
集
雪
需
非
面
音
韵
页
项
顺
须
预
频
题
颜
额
风
飞
饰
首
验
高
默
🛠
self
the
if
in
to
return
for
is
of
name
none
def
not
and
get
data
type
id
path
list
value
or
file
else
param
be
key
from
true
str
this
with
as
format
false
args
set
raise
dict
len
string
kwargs
np
that
returns
default
all
an
append
int
url
by
config
on
##s
result
add
new
it
time
object
index
values
are
error
size
request
info
elif
try
class
will
user
except
output
os
line
text
node
method
log
start
response
array
function
model
number
print
isinstance
we
message
parameters
state
max
version
params
code
create
use
input
obj
no
field
json
update
check
query
join
out
item
can
filename
float
given
shape
only
current
group
read
instance
range
logger
status
end
api
source
keys
image
optional
write
table
dir
target
debug
used
files
one
valueerror
event
which
context
run
at
client
names
content
length
options
token
ret
num
items
msg
split
must
command
count
func
bool
import
exception
match
cls
first
has
filter
any
should
base
parse
module
map
date
each
row
label
session
have
when
tuple
block
mode
results
element
header
find
min
tag
load
parent
http
open
remove
fields
val
root
column
call
port
specified
address
timeout
last
found
order
server
action
resource
cache
make
axis
headers
re
##2
prefix
service
types
arguments
template
into
cmd
directory
metadata
process
dtype
search
valid
argument
host
level
you
parser
using
color
idx
offset
task
other
next
pass
df
##1
res
copy
callback
bytes
dictionary
lines
entry
parameter
then
page
objects
continue
record
where
delete
datetime
title
numpy
arg
python
example
replace
project
do
variable
app
sys
so
handle
ids
stream
description
body
exists
connection
send
columns
matrix
width
plot
assert
10
build
settings
db
job
raw
but
nodes
see
point
sample
local
required
test
salt
location
pos
while
tf
device
like
save
same
attr
post
convert
rtype
graph
lower
password
limit
container
html
ip
attribute
batch
col
env
note
full
case
logging
sum
network
pop
errors
was
sequence
form
dataset
lambda
ref
option
empty
returned
store
child
step
namespace
total
labels
opts
help
##d
yield
strip
var
mask
up
single
after
hash
does
uri
points
random
channel
tree
left
there
schema
more
profile
invalid
raises
handler
position
utils
init
close
com
py
link
frame
layer
tags
##error
old
exc
sub
show
before
already
system
access
meta
auth
include
right
attributes
stop
package
configuration
section
view
information
defaults
xml
encoding
username
doc
than
spec
ax
break
comment
samples
reference
queue
pattern
mean
failed
fn
word
sort
provided
per
##r
err
warning
generate
paths
src
may
available
created
##e
op
also
grid
need
https
database
feature
passed
now
sorted
extra
typeerror
account
properties
interface
payload
whether
rows
indices
height
variables
##id
part
dataframe
getattr
non
stats
region
unit
its
unicode
top
thread
hasattr
timestamp
containing
ndarray
tmp
cli
buffer
between
##t
two
elements
scale
validate
integer
conn
otherwise
mapping
missing
identifier
domain
ignore
compute
verbose
unique
stdout
series
##0
req
groups
called
register
decode
seconds
requests
wait
remote
style
window
change
edge
global
collection
##a
site
loop
features
based
##ed
encode
email
execute
operation
startswith
endpoint
ctx
defined
models
force
##ing
property
document
math
enumerate
script
select
zip
keyword
async
distance
todo
depth
##name
proxy
some
chunk
strings
flag
flags
##type
main
##list
exit
either
parts
existing
display
stack
repo
conf
original
dest
alpha
cluster
expected
apply
been
events
interval
temp
units
tokens
folder
cell
signal
running
##3
rule
report
scope
term
inputs
et
seq
score
weights
connect
extend
changes
rate
helper
storage
cannot
component
attrs
exist
maximum
custom
cursor
common
plt
utf
memory
delta
##c
iter
vector
skip
socket
##file
active
here
##l
over
##n
stderr
times
upper
route
rest
contains
symbol
tensor
boolean
application
parsed
just
messages
role
manager
space
transform
matches
##i
entity
##x
100
initial
addr
work
supported
environment
details
extract
##p
core
dim
org
structure
exceptions
loc
don
could
dt
axes
children
keyerror
multiple
del
weight
policy
resp
added
bucket
insert
contents
##y
iterable
diff
zeros
ext
binary
done
download
zero
them
second
disable
allow
csv
volume
fit
examples
signature
metric
they
dist
calculate
char
these
put
instead
##er
pd
methods
##m
plugin
want
factor
day
fname
language
year
chain
expression
edges
states
specific
callable
filters
auto
summary
success
##o
merge
following
classes
reset
six
long
img
lock
threshold
since
entries
alias
my
sets
abs
private
possible
images
generator
ns
pool
bin
public
functions
retry
uuid
because
cfg
generated
keep
txt
protocol
extension
byte
present
commit
both
unknown
##f
train
allowed
best
master
center
records
without
verify
final
ensure
setup
period
updated
regex
fmt
wrapper
clear
##b
instances
sql
within
resources
category
suffix
opt
relative
##data
components
pid
mod
branch
warn
ok
gene
brocade
your
lookup
member
arr
fill
cur
filepath
yang
setting
null
fetch
definition
util
control
modules
previous
angle
agent
dot
slice
v1
destination
coordinates
usage
12
different
additional
users
secret
await
complete
kind
internal
subject
subelement
commands
clean
such
matching
##4
enabled
bits
condition
backend
segment
algorithm
norm
through
standard
super
specify
exp
duration
docs
exclude
login
vm
analysis
render
their
flow
bar
indent
how
transaction
channels
git
variant
counts
back
reverse
colors
direction
io
yaml
checks
history
prop
install
counter
what
zone
steps
cloud
being
struct
about
dimension
pre
actions
future
amount
support
progress
layers
cols
pandas
uid
pairs
removed
ex
meth
operator
minimum
changed
upload
real
selected
words
box
repository
figure
lists
until
expr
vars
ind
corresponding
16
github
vals
##g
coords
library
distribution
release
desc
sigma
engine
partition
lat
trace
kernel
decorator
rec
retrieve
##exception
tasks
bit
always
fp
normal
outputs
##5
creates
##h
01
doesn
registry
area
dump
environ
needed
widget
contain
##info
20
pair
sure
most
shell
origin
metrics
move
pi
blocks
net
many
pkg
radius
normalize
provider
enable
head
bounds
subprocess
equal
calls
month
attributeerror
extensions
dst
packet
off
click
product
sep
loads
dirname
actual
credentials
dev
requested
sources
targets
safe
determine
associated
hostname
kw
export
frequency
rules
means
disk
links
fail
##6
dumps
asset
seed
modified
layout
argv
sqrt
sent
uses
via
override
please
pad
sign
fig
encoded
validation
starting
would
ast
hparams
nan
notes
lib
tx
warnings
program
foo
take
dimensions
span
fd
reply
characters
archive
character
factory
arrays
stored
topic
prev
##v
numbers
cb
google
worker
padding
bound
correct
cert
ratio
##k
compile
repr
representation
packages
loss
our
admin
sleep
sp
platform
sid
eval
##8
##path
bins
stat
pipe
etc
runtimeerror
reason
scheme
serialize
endswith
simple
days
pipeline
short
cached
power
failure
elem
marker
representing
basename
absolute
reshape
##key
perform
font
draw
buf
windows
deleted
freq
union
every
selection
down
gets
scalar
services
reads
##7
ds
sig
received
mesh
ts
low
catalog
currently
media
needs
static
statement
installed
resolve
wrap
ctypes
ssh
dims
reader
phase
partial
loaded
identity
pk
refresh
##es
1000
drop
noqa
inner
cpu
mu
beta
st
round
machine
epoch
alt
rel
el
initialize
tuples
multi
phi
aws
training
hidden
owner
pylint
jobs
requires
indexes
##able
lon
scan
codes
home
updates
bad
ssl
primary
high
##dict
calling
prepare
theta
unable
orig
versions
tables
least
processing
were
iterator
too
sync
tr
patch
finally
ascii
begin
named
gen
side
200
urls
go
ignored
terms
##ly
redirect
driver
keywords
sequences
certificate
prompt
accept
positions
15
execution
bash
above
nested
tile
##ize
atom
course
references
ones
security
takes
obs
directly
related
const
desired
author
mag
echo
fs
magic
special
priority
way
known
average
background
11
saved
external
dec
once
lineno
delay
problem
connected
writer
scores
hex
fixed
annotation
choice
##z
linear
another
proc
negative
dependencies
expand
##et
v2
mac
s3
reg
track
those
overwrite
blob
matplotlib
00
nb
dirs
formatted
mass
adds
iteritems
got
forward
look
unpack
members
##9
family
segments
descriptor
rank
##u
geometry
closed
pixel
constant
temperature
notification
2d
fix
urn
constants
solution
included
cos
permission
operations
hook
snapshot
place
std
chunks
im
30
hosts
devices
django
implemented
frames
outfile
issue
latest
creating
frac
positive
comments
www
bottom
shift
runtime
precision
written
filtered
processed
registered
curve
traceback
below
pdf
sparse
iteration
surface
workflow
glob
32
attempt
ioerror
editor
raised
basic
double
extmethods
us
pointer
construct
##value
tab
separator
remaining
well
noise
price
reduce
ndim
menu
docker
working
energy
necessary
automatically
provide
25
astype
inspect
authorization
ms
quote
collections
during
define
handlers
sock
avoid
flush
en
permissions
prior
virtual
scipy
60
transport
did
feed
along
trigger
threads
age
pages
bind
inst
pack
pending
##map
lang
stage
levels
under
subset
##dir
comp
plugins
redis
rpc
normalized
selector
calc
button
coord
runs
according
controller
builder
density
authentication
converted
less
supplied
shared
edit
ordered
##w
candidate
experiment
inside
limits
escape
transition
recursive
decimal
filenames
compare
formatter
gamma
md5
cast
vertex
logical
##node
coordinate
push
pretty
nothing
numeric
cells
osid
cookie
mark
deprecated
symbols
transfer
wrapped
isfile
implementation
peer
slug
sizes
formats
flatten
sender
curr
patterns
exec
finished
vlan
choices
vertices
configure
web
might
video
switch
pred
processes
proto
constraints
reading
tc
setdefault
useful
cat
50
free
require
against
adapter
evaluate
locations
sin
even
align
loader
objective
##al
setattr
mapped
country
pull
png
speed
applied
makes
abspath
timezone
console
x1
strict
digest
##time
annotations
ch
##in
mgmt
sites
rgb
255
tool
completed
assign
yet
1d
relation
arange
documentation
intervals
sections
cost
parsing
chars
serial
audio
difference
flux
matched
timedelta
resolution
connections
logs
roles
categories
ordereddict
flat
sentence
something
parallel
rb
pixels
legend
detail
genes
utc
ll
dates
stmt
de
e501
bundle
td
alignment
directories
sampling
vec
ports
bias
oserror
##on
neighbors
ops
configs
requirements
dicts
definitions
supports
hit
cases
team
##index
con
collect
##tr
statistics
templates
specification
ra
visible
still
cover
vectors
percent
props
schedule
considered
queryset
addresses
rc
inf
sec
tar
div
seek
syntax
enum
conversion
ca
configured
rv
ranges
entities
seen
generic
suppress
degrees
allows
returning
fasta
css
later
tail
pub
ready
cycle
co
latitude
compatible
activity
clusters
complex
24
1e
calculated
started
basestring
around
grad
major
assume
rho
converts
general
revision
dc
adding
dx
delimiter
keyid
appropriate
screen
minutes
##count
rename
lengths
parents
ii
dep
red
isdir
fh
longitude
pickle
iterations
##class
router
cc
validator
js
mat
conditions
quantity
versionadded
rev
href
encoder
stdin
due
rotation
duplicate
executable
boundary
dynamic
merged
specimen
probability
datasets
slot
attrib
pt
docstring
criteria
gradient
specifies
iso
bot
constraint
locals
##model
walk
signed
degree
defining
dns
cmap
including
monitor
atoms
prob
##q
maps
greater
individual
starts
tools
modify
float32
works
rect
qt
hour
checking
issues
fun
##url
small
regions
es
##item
bbox
mount
large
leaf
tz
clone
predict
deepcopy
indexerror
checked
equivalent
timer
bam
statements
subnet
##object
yes
clip
populate
translate
completion
ss
panel
##config
three
fraction
ui
subscription
cwd
regular
projection
backup
sensor
mx
effect
cutoff
wx
successful
ipv6
minion
terminal
cov
ps
potential
dd
locale
projects
chat
gateway
good
mem
##field
measurement
x0
prediction
inc
iterate
publish
constructor
tests
##array
mm
ut
vocab
manifest
##obj
critical
md
retries
disabled
actually
64
overlap
band
turn
offsets
estimate
dependency
itself
##context
hours
emit
x2
xy
pdb
indicates
plots
again
nn
creation
consumer
asarray
cross
histogram
##at
basis
separated
cp
assignment
wrong
detect
tb
sym
checksum
##line
receive
pragma
made
loading
sim
inplace
etree
maybe
world
assigned
caller
wraps
square
conv
oauth
solver
pressure
answer
population
##text
question
contract
responses
argparse
sc
tau
hist
species
submit
extended
spaces
14
p1
exact
fragment
pillar
whose
interfaces
icon
datatype
handles
##out
##table
bank
canvas
initialized
queries
contact
digits
binding
vs
resulting
concat
inverse
##manager
translation
observation
median
nx
rstrip
blank
notimplementederror
azure
seg
unless
##tate
zoom
transpose
intersection
eq
refs
optionally
prog
dat
attempts
mv
notebook
quiet
direct
includes
tick
inv
gz
cl
waiting
##request
##val
13
neighbor
visit
base64
unset
callbacks
expect
poll
cancel
fits
candidates
repeat
shutil
dry
finish
asynchronous
share
trans
##group
peak
predicate
xs
encrypted
guess
timeseries
rdf
subclass
native
topology
successfully
temporary
90
notify
whitespace
formula
tcp
attachment
watch
processor
coefficients
##tring
isn
indicating
actor
computed
win
polygon
##en
fails
er
##code
variance
vpc
perm
quality
writing
ylabel
border
importerror
aliases
avg
errno
routing
inline
looking
restore
workers
##len
generates
similar
lst
##mode
globals
jid
thing
nu
recent
vcf
utf8
klass
serializer
pin
accepted
particular
yields
th
attention
strftime
learning
rs
scaling
lv
ttl
verbosity
let
flask
serialized
cut
dictionaries
qs
extracted
capacity
tailf
fallback
comma
card
extent
plus
y1
writes
bus
exposure
game
wb
##um
xlabel
plane
resolved
coverage
asyncio
minor
act
##instance
know
namespaces
plain
unexpected
##j
##or
give
correlation
##ion
light
uniform
removes
##00
tol
encryption
fw
cleanup
pip
findall
calculation
s1
##filter
abort
servers
observed
concatenate
bg
attach
room
##num
very
java
linalg
nearest
genome
separate
##result
pb
xpath
player
depending
cond
pmag
restart
own
si
ident
shutdown
combine
05
xrange
likelihood
##client
variants
adjust
enter
nr
##base
compound
literal
pc
customer
derived
submission
vertical
##ar
acl
rm
taken
describe
clients
everything
##it
compress
poly
presence
runner
unused
epsilon
cause
decoded
distances
cores
sa
unsupported
##response
executed
fast
hits
ws
solve
dag
setter
relationship
browser
never
executor
magnitude
predictions
recv
choose
anything
daemon
gate
apps
02
specs
embedding
geo
t1
makedirs
activation
float64
figsize
parses
wallet
backends
compression
eps
however
estimator
r1
reaction
mappings
percentage
ct
qubits
combined
pr
represents
par
assumed
aggregate
dispatch
ls
measure
##ate
bp
cm
overrides
tolerance
splitext
vrf
reversed
outer
classification
ver
green
readline
allele
bases
license
outside
sending
strategy
instruction
shapes
charset
newline
specifying
##ic
3d
anchor
utype
hide
trim
comparison
groupby
geom
na
gaussian
estimated
unix
usually
whole
behavior
endpoints
accounts
calculates
minute
tp
bulk
signals
af
masked
nc
popen
deps
built
bed
decoder
typing
transcript
dialog
exchange
kill
recursively
tries
yangdynclass
##func
artifact
ipv4
dy
chrom
int32
getting
indicator
integers
testing
pp
assessment
replacement
fully
routes
##event
1024
nd
arch
wiki
physical
better
fpath
prefixes
fg
##args
compressed
interpolation
500
listener
lt
nt
omega
star
article
fontsize
partitions
##tree
chr
nonce
optimizer
explicit
deg
capture
chart
trying
margin
p2
plan
problems
boto
letter
splitlines
c1
tenant
explicitly
preview
station
sh
fft
scripts
entire
hierarchy
human
dummy
handling
proj
streams
follow
deployment
resolver
passing
performed
positional
simulation
containers
confidence
overlay
##an
ins
documents
increment
checkpoint
alert
spin
##db
weighted
mandatory
##view
nl
2f
gap
cd
orientation
shard
gui
defines
gpu
mime
ends
simply
##us
slices
40
sudo
ac
broker
imported
consider
scheduler
datastore
exactly
placeholder
ips
spectrum
svg
gt
ve
live
white
enough
boot
##os
accepts
beginning
##ts
downloaded
retcode
404
converter
branches
duplicates
predicted
splits
residue
stride
scopes
purpose
chosen
readable
bytearray
mp
subplot
issuer
##format
expires
typ
hashes
deserialize
dp
ix
reload
defaultdict
itertools
identifiers
pars
##version
replaced
workspace
big
18
alternative
bootstrap
measurements
probably
organization
longer
detected
est
book
acc
rather
doi
applies
evaluation
d1
computes
frequencies
board
mapper
r2
bug
forms
horizontal
uint8
attached
adata
scene
catch
eta
256
protein
sr
expanded
grains
half
across
ordering
views
aggregation
observations
rr
infer
br
provides
person
registration
topics
resize
tm
aux
cookies
factors
ord
renderer
together
cf
coefficient
fc
fastq
##params
hooks
theme
##ation
ec2
determines
arn
broadcast
radians
normalization
upgrade
imports
dl
exe
receiver
xmin
pem
##handler
aa
periods
iface
s2
vol
doctest
logic
currency
t2
400
ticks
##pos
chan
floats
angles
accuracy
listdir
diag
generation
encrypt
volumes
180
arc
hazard
mid
covariance
proper
balance
depends
relevant
closing
pl
week
batches
mail
cleaned
pick
pot
se
instrument
ma
compatibility
ini
wcs
plotting
psd
##lib
requirement
retrieved
indexed
indicate
deploy
me
hint
##ref
crop
80
outdir
previously
transformed
dimensional
shutit
objs
ylim
byref
2015
sha1
bounding
equation
bold
circuit
infile
scatter
assets
rsa
crypto
clause
raster
removing
linux
smooth
markup
xyz
##ids
##message
hdf5
kwarg
31
palette
17
timestamps
embed
transformation
c2
tempfile
adj
rx
skipping
sheet
bs
closest
consts
l2
published
tgt
verb
higher
ev
kwds
trajectory
calendar
decorated
inds
things
y0
contained
ticket
reduced
authenticated
leading
elapsed
gzip
alive
immediately
scaled
aligned
locator
derivative
moment
entropy
canonical
authenticate
initializer
expressions
sm
trailing
updating
tell
xxx
operators
xx
##op
credential
fixme
userid
spacing
stopped
filesystem
languages
certain
cs
retval
velocity
perms
reserved
sessions
dn
dom
sha
meas
##width
incoming
ipython
design
22
expired
amazon
identify
##le
rad
synchronous
copied
markers
reports
payment
inp
##tag
excluded
preserve
trial
compat
functools
comps
interactive
tok
##parser
further
launch
mysql
logits
linked
corpus
lc
rt
dense
getter
modes
classname
incomplete
samp
##image
black
##ist
23
skipped
going
prevent
profiles
##max
##names
blue
retrieves
2016
underlying
coeffs
gp
##is
xlim
torch
fact
legacy
dependent
xmax
tolist
128
mkdir
urllib
compliance
ar
secondary
x00
##range
market
nonzero
face
##io
validationerror
able
enc
rhs
matrices
opened
pts
logfile
optimize
mpls
filtering
lr
tzinfo
##number
py3
transactions
preferred
agg
##el
mol
obtain
tensors
thresh
produce
widgets
##ity
disconnect
rotate
y2
backward
confirm
ep
transforms
##length
destroy
px
dropout
expiration
gid
slots
terminate
interp
utool
getlogger
chains
lattice
determined
blocking
issubclass
much
gas
today
transformer
rep
smaller
wave
deep
larger
clock
compiler
eg
grant
oid
sentences
##pec
handled
thumbnail
policies
reached
probs
corresponds
hello
lstrip
markdown
boxes
iv
latex
networks
artist
cn
correctly
##header
21
filled
neg
phone
buckets
manage
managed
gain
highest
rst
zipfile
hdr
expanduser
invoke
looks
mediator
rendered
leave
tls
domains
ptr
##point
fcoe
having
metavar
digit
latent
bc
sha256
hard
mimetype
performs
notifications
int64
logged
##block
xmlns
1f
properly
##form
ln
front
strain
treat
##nt
##box
daily
bindings
correction
soup
ci
pg
t0
consistent
##tatus
performance
##values
ping
focus
helpers
moving
camera
##log
##py
dic
structures
##str
kv
computation
centers
embedded
##date
generators
authors
bb
faces
similarity
diagonal
lexer
repos
qubit
shuffle
d2
cumulative
cnt
padded
others
sel
voltage
asynchronously
ctrl
pprint
urlparse
saltenv
twilio
cipher
formatting
bond
integration
sampler
hgnc
coroutine
deviation
cycles
decrypt
lazy
##set
detection
localhost
seqs
arbitrary
printed
httperror
won
recipient
##ip
represent
##keys
displayed
hashlib
listen
nargs
mouse
assumes
builds
ldap
registers
ack
##end
tup
19
##files
##ns
##entry
##size
sends
making
grouped
multiplier
beam
crs
developer
ij
alg
modname
vcs
manually
widths
jwt
v3
m1
really
callpoint
funcs
rng
discrete
inventory
classifier
argumentparser
happen
xi
heading
commandexecutionerror
impl
fileobj
relpath
grp
sampled
saving
sqlalchemy
consumed
listed
floating
signing
wildcard
datacenter
##ir
calibration
away
building
portal
middle
ir
snapshots
percentile
subtype
activate
relations
ceil
csr
categorical
increase
strand
stringio
evidence
possibly
cred
described
fake
li
products
bgp
etag
inserted
##action
tip
linspace
listing
##api
hardware
##input
play
compiled
ask
optimization
assertionerror
det
folders
quit
algo
recipe
ymax
outcome
##state
rand
cr
macro
shortcut
probabilities
##ot
ascending
posterior
##im
transitions
f1
spatial
dists
gl
composition
roll
colorbar
mutation
thus
finds
recurse
boundaries
##ec
far
hold
deletes
##label
##to
##all
evaluated
stops
acquire
wd
heat
identical
ints
stores
jump
management
song
##record
m2
roots
spark
##ile
stopiteration
styles
cid
fingerprint
newly
silent
wind
##query
##64
occurred
deferred
dpi
intf
aspect
jar
pa
swap
##port
pause
combination
creds
student
alarm
pat
gs
##ode
stable
##method
ymin
independent
py2
exclusive
##ify
sink
queues
several
##options
likely
stock
75
declaration
##types
abstract
lo
dfs
03
indexer
firmware
##level
exponent
onto
pitch
pkt
##flags
extras
recommended
filetype
secure
appear
expire
heads
##ine
kb
impact
wheel
idxs
interpolate
l1
discard
kmip
lw
generating
codec
sf
undefined
reward
scenario
randint
sg
##ata
2018
floor
orm
snmp
alphabet
effective
##element
occurs
feat
letters
ending
##ent
fullname
rid
migration
conj
incorrect
##min
colour
hz
iam
operand
throw
##ror
important
pieces
a1
photo
prints
truncate
doing
follows
intensity
observer
crit
elt
describing
controls
prod
gc
pe
represented
instructions
various
cmp
convenience
mtime
##te
log10
pkgs
continuous
locked
usr
assembly
charge
isnan
slave
circle
##ol
epochs
lag
symlink
##ap
citation
netloc
quotes
blueprint
lp
sl
contig
bridge
directive
paired
##col
arrow
h1
da
health
##graph
ap
##32
##ies
bands
tt
caption
##rs
ravel
##ype
corner
sd
namespaced
al
##plot
paragraph
returncode
parsers
3f
routine
subclasses
lhs
validated
##utils
peaks
rh
detector
triggered
gives
notfound
sorting
colormap
filt
qualifier
##ex
getcwd
restriction
cmds
operationfailed
stypes
mixed
##var
hexdigest
pb2
symmetric
largest
overall
distinct
uint32
2017
idle
loglevel
threading
##color
##flag
attachments
unsigned
04
distributions
foreign
gather
baseline
dirty
##hash
km
gps
grab
win32
ann
mb
manual
appended
squeeze
azimuth
corr
iloc
initialization
ld
mgr
providers
keras
vmax
encountered
therefore
configurations
di
vt
dialect
past
ys
##order
##token
##tools
##widget
buff
effects
verification
learn
software
linewidth
suitable
ab
rates
vmin
2014
years
grade
inference
traffic
##mask
2000
journal
quoted
crc
mc
printer
restrict
scheduled
cont
coef
longest
executing
omitted
websocket
hop
blacklist
startup
ml
regexp
scroll
sess
tokenize
traverse
##string
##tart
grammar
stripped
ad
obtained
convention
nm
zones
##st
fieldname
produced
drive
instantiate
cv
i1
checker
highlight
piece
study
300
ff
flip
third
visual
implement
##ter
middleware
amp
conflict
dr
orbit
le
ie
invoked
opcode
who
ans
stuff
scales
x509
consensus
cdf
egg
dm
dtypes
intermediate
subs
##ff
mock
utility
whitelist
polynomial
rbridge
sdk
##ind
hi
la
marked
glyph
molecule
sphinx
dna
identified
respect
##ness
pod
shown
wsgi
psf
lab
lens
collector
faster
visited
##ict
127
communicate
lb
tot
indexing
medium
cube
declared
ffi
##up
##ch
campaign
28
enterprise
nick
translations
##user
einsum
##fn
tablename
95
strptime
tpl
stopping
am
##cache
##ment
typically
coerce
ray
slope
why
referenced
enums
discovery
trip
123
amplitude
cartesian
primitive
subplots
infos
remainder
stmts
45
##frame
implicit
getvalue
evt
saves
annotate
multiply
##idx
builtin
numerical
##notfound
brain
friendly
p0
prepend
tunnel
addition
questions
cap
fault
little
losses
material
curves
endian
city
failures
gpg
proxies
ec
passes
pore
tiles
##ef
coeff
packed
plaintext
42
protected
cidr
##ut
delim
subparsers
occur
fire
invoice
orders
passphrase
pf
elasticsearch
rsplit
trees
spans
agents
pyplot
systems
fluxes
phrase
traj
decay
joint
press
texts
vault
principal
modifier
##page
upstream
qtcore
sv
wire
##ext
astropy
##01
##factory
realm
rmtree
tax
##ame
contour
hdu
conditional
pypi
community
fitting
setlevel
10000
hmac
invert
##nd
abc
moves
txn
prime
chip
rot
sframe
ensures
readlines
360
##fs
##ive
creator
titles
water
##re
dashboard
plural
upon
dct
multiprocessing
uploaded
weather
##age
ftp
quad
##bytes
atomic
gradients
rdd
rectangle
configparser
stroke
stub
a2
analyze
album
nullargument
care
pubkey
void
touch
defs
mechanism
episode
pm
preprocess
smart
##no
33
permutation
modification
diameter
tweet
##row
keyboardinterrupt
tornado
matcher
indentation
refer
subj
fa
networkx
solar
east
expects
subscribe
##ng
n1
newaxis
optimal
rfc
subsequent
chunksize
guest
had
qualified
za
correspond
symbolic
triggers
un
compose
reuse
lease
institute
resume
##ervice
debugging
##as
reject
eof
publisher
deleting
residual
##ll
computing
facet
aes
hand
mismatch
##connection
cg
chdir
deletion
thisobj
##lines
ks
mags
sector
z0
sz
##root
cim
connecting
followed
ignoring
qos
assignments
composite
ring
decl
ne
nic
soft
inferred
masks
protobuf
tier
subjects
artifacts
finite
particle
patches
provenance
review
stackoverflow
thresholds
months
schemas
##ps
authorized
elementtree
sensitive
stddev
equals
hunt
rf
##results
combinations
slow
##ig
finding
online
bel
minions
sense
##layer
consume
javascript
trade
visibility
escaped
pil
##ad
##res
em
verified
hub
blocksize
dispatcher
multipart
namedtuple
participant
roi
alleles
assoc
association
ha
serialization
pairwise
plate
##th
exported
milliseconds
squared
persistent
preference
##grid
instr
msgs
secs
inject
utcnow
##int
multiline
pseudo
sun
capabilities
k1
##ers
##est
##link
##offset
replica
svc
couldn
parseerror
repeated
##rc
tracker
h5
inet
starttime
affected
graphs
proof
translated
lowest
opening
assuming
f2
quick
reactions
udf
recipients
##command
cx
prep
analyses
tracks
objectid
extractor
leaves
ti
ctype
pathname
att
cpus
savefig
segmentation
applicable
applications
rollback
tracking
fid
respectively
subdomain
##match
affine
validators
wavelength
kws
##de
interpreter
##me
qry
##ource
compact
divide
ro
treated
timing
codon
membership
##eq
35
brief
qa
##policy
99
fork
draft
pix
##man
bytesio
minus
packets
workdir
weld
clustering
recall
acceptable
futures
happens
runas
finder
replication
sometimes
disks
##fields
fluid
lowercase
seems
places
hp
meaning
##matrix
qtgui
fold
stanza
##ure
webhook
##reader
tumor
prune
sky
finalize
fr
mi
tl
##metadata
connectivity
##function
varname
vc
nest
framework
resample
smoothing
breakpoint
delivery
yy
adjacency
collected
tabs
flash
mongodb
overridden
commits
four
guide
toggle
intended
baz
season
signatures
spawn
unrecognized
##msg
copies
timestep
ax1
realpath
deal
stem
didn
v0
wikipedia
inclusive
##2d
vtk
certs
inter
pagination
treatment
elevation
periodic
adjusted
areas
normally
stamp
##10
contexts
posix
##ms
26
codecs
gaps
swagger
freqs
guid
mt
vid
automatic
mult
vim
coll
regression
udp
##ow
counters
interest
kl
lvl
statuses
early
ensemble
nrows
bigquery
heartbeat
mongo
n2
respond
mul
though
analysistype
triangle
ub
chromosome
tmpdir
central
vocabulary
kg
modifiers
lost
tensorflow
envelope
integral
readme
##address
27
listeners
urlopen
##ort
attempting
rendering
sat
backwards
datum
gtk
corrected
hack
wf
cart
joined
minimal
pow
ifo
ndims
moved
stages
ansi
grouping
orb
imp
repl
shows
##collection
expansion
publication
loops
taking
##job
errmsg
intent
quadratic
blockchain
detailed
gates
spectral
passwd
vendor
dead
monitoring
converting
disp
releases
fee
triple
0x
applying
descriptors
dip
ground
cron
dynamodb
availability
secrets
twitter
##check
fout
reach
locus
propagate
implements
challenge
broken
few
differences
occurrence
pv
statistic
tagged
polygons
##only
##ue
lcdict
snr
##container
##ized
asc
lam
searches
smtp
forecast
internally
##om
emails
extracts
submitted
##cmd
lista
sphere
##ting
fnmatch
phenotype
specimens
newlines
argmax
asn
extraction
pct
06
altitude
checkout
mavlink
notation
mo
singular
calculating
versionchanged
enumeration
fatal
interaction
recording
##ag
##of
changing
estimation
fromstring
zonefile
buffers
genotype
locally
slash
urlencode
wide
buttons
directed
streaming
contacts
distributed
mpl
serve
sn
fragments
k2
north
##12
##am
closure
intersect
##ite
approximate
cv2
throat
diffs
posts
##button
dirpath
fitness
##ry
##pt
mav
sanitize
vstack
zmq
confirmation
mirror
normpath
##net
dh
insertion
located
myminion
polling
readonly
collapse
fl
mods
voice
##def
hs
supply
##buffer
##tyle
decoding
sanity
##handle
fabric
flows
natural
pw
sqlite
relationships
strength
onset
##builder
met
nums
substitute
ed
recursion
isdigit
##content
##oc
3600
rms
expectation
fetched
searching
assertion
hat
interactions
purge
apikey
##prefix
0xff
downloading
mtf
subtract
##parameters
contrib
decorate
plotted
sam
tokenizer
minimize
rsp
sw
trunk
yellow
anonymous
h2
rp
##rule
ny
ol
produces
belongs
burn
flattened
imt
randomly
advanced
claims
##tats
chemical
footer
holder
##writer
ancestor
boto3
imag
production
##erver
overlapping
convergence
objectinfo
##ble
downloads
persist
scons
answers
energies
chi
libraries
probe
tk
enforce
nice
aren
come
directions
motor
smallest
truncated
decision
reqs
tested
playlist
rpm
unchanged
##ls
blast
defer
installation
##ep
fall
timed
vote
variation
abbreviation
authority
performing
##arr
09
coro
experimental
microsoft
datasource
ft
toc
##se
bracket
rgba
subscriptions
yaxis
associate
xaxis
##wrapper
caching
credit
lm
##output
say
b1
classpath
generally
hh
tid
truth
allocate
brightness
##df
environments
limited
##profile
dataarray
subcommand
wt
locate
trust
giving
kappa
gov
##location
sx
##json
001
declare
rating
diagram
centroid
connector
particles
simulated
older
experiments
foreground
inactive
##ge
naif
##window
texture
uris
##filename
easy
excludes
fine
interpreted
##16
executes
po
risk
validity
processors
##ian
microseconds
residuals
virtualenv
##ds
wp
fitted
goal
hstack
##call
algorithms
inherit
subdir
tmpl
misc
pst
08
separators
consistency
whatever
argspec
descriptions
errs
outgoing
absent
nans
b2
##tags
##tion
measured
significant
##doc
audit
pylab
uint
uncertainty
fileno
reconnect
becomes
kept
succeeded
appears
combo
conflicts
paper
34
requester
##column
##points
annotated
behaviour
occurrences
tex
##rt
frozen
goes
often
rup
lng
silently
comm
nor
serializable
##cs
##ur
basedir
delimited
ioloop
enrollment
intercept
motion
pca
terminated
uint16
permissiondenied
prepared
soap
solid
az
grads
identities
stations
liquid
lmax
argsort
voxel
cal
dropped
isoformat
preset
##description
gender
hot
inasafe
functional
ncols
reactor
reported
##queue
worksheet
ensembl
neither
uoa
##ted
draws
frozenset
keyboard
regardless
softmax
##items
ellipsis
extents
placement
sibling
simulate
02d
consecutive
slack
snps
unwrap
viewer
votes
unlink
##em
catalogue
fresh
patient
purposes
##core
##ne
become
librosa
##ime
fullpath
pwd
##ant
potentially
validates
cas
fi
ic
substitution
##ia
feedback
operational
venv
wise
##bar
##limit
prices
databases
functionality
integrate
progressbar
allocated
cancelled
naming
unlock
anisotropy
criterion
ntp
shot
circular
marginal
##factor
breaks
duplicated
pymongo
remain
##ml
prefixed
quota
ratios
29
der
completely
va
512
acceptance
flavor
offline
##ization
b64encode
drawn
logout
##11
##ce
fin
gb
leader
##hape
atleast
optionparser
te
##ey
prt
repositories
voxels
delegate
benchmark
drawing
fb
preds
pywbem
xarray
##by
##meta
elastic
ciphertext
prefer
sol
thumb
procedure
subtree
jvm
maxiter
marks
meters
relu
##ide
##unit
bandwidth
excel
peers
contribution
descending
immediate
machines
surf
hue
syslog
successors
##ra
##vals
isis
nom
estimates
eye
hashed
rd
ax2
modifications
##module
dos
teams
abi
exon
opener
rna
tilt
hasher
jinja
para
precedence
compared
meter
##warning
conversation
costs
restricted
connectionerror
migrate
offer
replaces
spline
##configuration
backoff
hints
division
edu
mutations
weekday
holds
forced
punctuation
000
192
atol
heap
shards
expiry
getenv
angular
buses
efficient
lead
remember
tbl
tostring
motif
qname
queued
satellite
scalars
severity
pivot
##bin
colon
tsv
alternate
approach
detach
redirects
##status
ck
syntaxerror
accessible
dotted
near
balancer
sq
suite
sy
animation
erase
micro
openid
printing
toolkit
centered
ent
multiindex
storing
fieldnames
nat
yyyy
ram
retrieving
vartype
dv
linestyle
mn
reduction
party
arp
causes
memo
newer
symmetry
timesteps
##mod
##reference
dll
grain
trimmed
envs
gradebook
certificates
debugger
httpresponse
typed
ph
suffixes
##art
alignak
fobj
##od
bare
bio
ele
removal
07
constructed
##3d
##uri
dash
locs
orient
pkey
ftype
gray
##mp
claim
sensors
colored
differ
dup
providing
sentinel
visitor
##ee
oprot
tqdm
attack
dicom
sls
convolution
discover
representative
##iter
deserialized
i2
snap
vert
##un
aware
frontend
infinite
placeholders
replacements
wav
##ath
##char
##rate
##xml
dbus
eos
expecting
optimized
##000
placed
triangles
usb
courses
lxml
maxsize
normals
projected
snippet
36
eth
knowledge
simplify
stars
subgraph
##pool
hashable
oper
yml
##less
##ty
delayed
fqdn
tight
pth
tabular
allocation
anchors
forum
geojson
ietf
##ession
comes
sound
sweep
ticker
lemma
sympy
zs
pointing
fuzzy
scanner
##template
lim
shouldn
trips
operating
splitted
residues
##conf
ipaddress
2012
cmdline
fetches
filelist
temporal
bypass
overlaps
tried
hr
spherical
ants
opacity
rewrite
signer
strides
wish
alter
construction
moments
movie
symlinks
##mixin
approx
concrete
reindex
##day
genus
libs
atlas
sarray
lons
smoothed
##pattern
imshow
vehicle
apis
hull
traces
waveform
aln
conv2d
cumsum
python3
continuation
importlib
outliers
parm
spot
##ial
##timeout
filestore
trainable
##tream
2013
##nce
##proxy
reboot
saltinvocationerror
securityhandler
##ated
hl
notset
regs
##property
ge
pyfunceble
scoped
ancestors
deprecationwarning
forever
##addr
telegram
2nd
jpg
twice
approximation
astroid
concept
caught
vms
##ax
dryrun
napalm
penalty
recognized
sb
contenttype
fetching
s0
##groups
notice
##rm
annot
sas
401
ambiguous
cpd
hparam
doesnotexist
##resource
reasons
rejected
##attr
##mat
alternatives
vr
lxc
naive
transcripts
##bits
##generator
arm
caches
gpio
##ck
##helper
##tack
##ve
aggregated
ai
sms
##desc
bonds
mon
explanation
keyname
pexpect
##height
##ities
calculations
changelog
dset
exponential
odd
tempdir
##tore
traversal
uuid4
concurrent
constructs
raising
shifted
##tuple
company
tarfile
thrown
timeline
ul
##err
chmod
clicked
overwritten
ridge
subscriber
btn
figures
quantile
shadow
userdata
##ack
gw
ontology
pores
writable
capability
directives
magrec
preferences
robot
##descriptor
##ped
insensitive
isnull
disease
momentum
speech
unimplemented
bars
firewall
lstm
xdata
##param
bag
getitem
qual
recovery
sk
wrapping
des
fo
gd
##let
##vars
frag
measrec
substring
toolbar
transit
increasing
pypsa
rebuild
inherited
trained
undo
lats
underscore
##50
##parameter
##word
mix
renamed
##gen
chunked
commandline
mathbf
pn
pools
radii
wall
##arg
dual
malformed
pbar
gallery
hydpy
lu
splitting
##ix
fopen
jj
##ab
##position
denom
beat
copying
jobid
ranks
verifier
people
proposed
xticks
gandi
secho
adapters
avatar
bovy
consumption
gapic
ser
##from
banner
descr
fetchall
hosting
kargs
populated
spike
pval
retain
west
##ma
##rr
##server
mw
perc
subnets
xxxx
##ac
##app
depend
earlier
migrations
respective
w3
contrast
dropna
fut
i2c
openssl
psi
svd
cname
dataframes
derivatives
invalidargument
prof
vip
##failure
ce
linesep
substitutions
cards
derive
superclass
taxon
##if
##pace
aff4
phases
typename
denominator
indicated
holding
cy
interpret
sns
income
addrs
e2
portion
stringutils
##task
exports
linenum
summaries
tracer
##ator
architecture
assemble
elems
iters
maxlen
owned
70
decrypted
existence
plotter
searched
urllib2
##ise
activated
ellipse
nv
paste
##run
decomposition
fourier
hw
kde
platforms
psutil
subsystem
##20
##ie
accessed
arcsec
cdata
kafka
120
cachedir
dbname
submissions
##lock
##vector
fld
fnames
structured
##off
##rows
demand
dur
ee
plist
among
hosted
onnx
tty
##80
##folder
omit
calledprocesserror
fore
issued
turns
##title
deque
isfinite
ngrams
##earch
instruments
keypair
shp
complement
completions
convex
digraph
osp
##diff
h5py
reporter
uninstall
weeks
##auth
##js
##role
authorize
contiguous
inheritance
pkl
selectors
singleton
sqlite3
tri
##cript
gaia
mention
adjacent
macros
##target
easier
inserts
xp
bokeh
interpolated
website
android
heatmap
nf
rw
settext
sklearn
spanning
##ke
compounds
expressed
keyring
overflow
qq
gh
polar
profiler
south
##cells
digital
##loader
##ta
1st
coding
ion
iterables
okay
separately
tmax
wanted
033
cairo
hence
receiving
sos
unspecified
##identifier
##ze
dw
itervalues
solutions
trials
yr
jpeg
priv
rock
decide
decorators
panels
rnn
triples
tube
##per
dark
rerun
##ub
int16
chassis
dask
merging
pathlib
##ver
bid
equality
mxnet
hostport
painter
saturation
snp
urljoin
filenotfounderror
parms
c0
glyphs
poisson
shares
contigs
eff
eigenvalues
exiting
keyfile
prec
qr
rhol
rolling
unavailable
##ystem
cds
nvml
rem
disconnected
gca
beautifulsoup
depths
endtime
filepaths
##ib
q1
stp
coarse
dont
termination
masses
operands
strong
vmware
desktop
embeddings
hourly
lifetime
nullable
ob
stacked
unicodedecodeerror
keyed
pyramid
##ay
addhandler
chk
monthly
ngram
reflect
universal
uv
walker
##izing
##service
belong
deltas
maintenance
blocked
contracts
disposition
srv
syn
##pr
bytecode
development
mins
zorder
##der
segs
uppercase
##read
2019
59
fonts
##one
##top
bfd
sides
##na
anyway
demo
dscp
exceeded
grids
wants
##changed
##now
48
ansible
loci
peptide
saltcloudsystemexit
##nodes
measures
microsecond
zenith
blk
converged
nio
##variable
efficiency
freeze
opens
transformers
pmagplotlib
slide
systemexit
##ys
85
brackets
bw
preprocessing
vz
##ok
ignorecase
protocols
##body
##chain
pure
stacks
nickname
specie
ty
##opt
403
arg1
feats
ldp
overriding
permutations
reporting
adv
earth
forbidden
gtf
individuals
wc
deriv
g1
seeds
trusted
##cell
##down
##thread
builtins
fm
revisions
sci
sockets
upsert
blockstack
curl
deadline
indicators
mib
rounded
##rd
octet
tracked
vel
##40
##chema
##fit
alignments
slab
splunk
adjustment
dvs
editable
illegal
ry
u1
utilities
writerow
##notfounderror
##update
ctxt
fractional
##ro
56
hyperedge
quantiles
##90
changeset
##and
##space
bearer
covered
declarations
unquote
##ary
##cols
##ct
##device
##tat
clienterror
gpus
jinja2
markov
##rror
cuda
miss
overview
players
preorder
subkey
throws
ways
billing
geno
heights
invocation
keystone
mr
scratch
splitter
strs
##loc
##tool
advance
crash
dedent
ecc
gsi
noinspection
##failed
##interface
##labels
visualization
argmin
descendants
pdu
receipt
verts
yticks
ase
datas
oauth2
requesting
xr
201
clipboard
durations
internet
libvlc
partner
##back
##control
approval
binascii
evaluates
programs
screenshot
##ance
acquisition
apierror
fractions
handshake
peek
proceed
seqid
stacklevel
thin
##ally
##il
breakpoints
contours
nodelist
##norm
cardinality
cgi
hessian
pytz
##ass
ethernet
outline
pref
shlex
wv
bi
inverted
replay
stepsize
##ss
aid
jd
vi
##ping
204
celery
displays
rcparams
##ect
clf
organism
arxiv
entered
ignores
iq
rescale
##02
##part
aiohttp
almost
thickness
##formatter
attribs
vtype
x1b
extends
facets
indptr
##son
e1
excluding
logo
capitalize
importing
lbl
replacing
retention
showing
uploads
##ets
41
datetimes
enables
inches
led
modulus
turicreate
##ettings
##util
coefs
copyright
decompress
dots
semantic
shipping
thermal
##eg
b64decode
detections
ni
remotes
zabbix
2010
infinity
nw
pole
tour
broad
clauses
completer
indx
namedtemporaryfile
vary
apt
bn
lf
r0
trajectories
02x
exts
formset
funcname
rval
siblings
##arn
##env
##parse
##tor
deposit
##bed
facecolor
mavlink1
ordinal
blobxfer
enqueue
getattribute
gfile
jsonify
usable
##attribute
reservation
sigint
##host
locks
##stream
##xt
asm
complexity
mixture
mutually
proposal
rhog
eid
ledger
predicates
rl
standalone
unregister
##rec
binned
decimals
lsm
requestexception
##cale
##get
crl
pwm
refers
tweets
##dim
globs
guaranteed
jac
nameserver
pressed
travis
rg
songs
srs
##ql
2011
provisioning
trainer
configobj
matmul
##headers
4d
initializes
##objects
observable
sagemaker
##counts
appending
gold
nii
successor
##ore
subparser
tuning
##can
interrupt
latin
oracle
syllable
##lat
##uid
1j
he
paused
pids
transformations
quaternion
tensorboard
##spec
engines
kk
rtol
activities
concurrency
land
maxval
pycdlibexception
##rect
edited
euclidean
fk
githubobject
lsp
mini
setuptools
taxonomy
toks
unpacked
65
abf
gff
jacobian
merges
prov
rounding
systemd
vis
waits
##feature
shortest
sigclip
wbem
##unc
elife
imap
printable
puts
timeouterror
tn
invite
mutate
stddevs
168
idp
music
gauss
integrity
spi
uptime
39
bugs
divmod
english
scoring
converters
dg
iterates
x86
xt
budget
classify
etype
forwarded
semi
separation
w1
apache
discount
equations
perf
##ount
37
dhcp
entrypoint
postgresql
roc
shifts
solr
timeperiod
##ain
##ast
##layout
beats
lane
videos
##dataset
##dr
concern
labeled
man
ranking
sums
yielded
##ev
cutout
logl
pname
radio
reachable
##account
##ase
abbr
dpath
gf
paginator
5000
c3
centre
curses
datetime64
dbg
indirect
z1
articles
php
spectra
boost
cdn
rapid
switches
xref
controllers
dk
eigenvectors
guard
npy
pauli
summarize
##kit
##source
accordingly
finditer
learner
listening
lot
nside
##bit
cython
pulse
##tab
bisect
bump
fe
randomstate
receives
sensitivity
specifically
specifications
##plugin
exits
divisor
incr
msgid
nasa
partially
150
appid
python2
uc
##columns
##hi
bitmap
discarded
##da
f0
hdfs
keeping
postgres
redundant
ri
robust
##dist
beyond
bundles
decrease
groupname
vs30
55
labelsize
stdev
terminator
transient
vcenter
wildcards
##protocol
brokers
dfa
groupdict
pathway
##60
##ible
999
chord
corners
district
varargs
##definition
blobs
resized
##fmt
##rad
buffered
conjugate
dsn
permitted
catalogs
utterance
cors
gu
netcdf
sharing
##process
imgs
pmid
replicas
rights
uids
uniq
vk
##v2
closes
pathspec
tooltip
##test
avail
fastafile
origins
qualifiers
selections
tagname
v4
vowel
csrf
encodings
grr
##iff
fetchone
genomic
attempted
cats
ctrlpts
five
protect
targeted
unhandled
##do
affinity
formatters
mpi
pidfile
blog
instantiated
matter
kms
pane
concatenated
nameerror
nominal
provisioned
subtitle
succeed
##21
##ring
describes
isin
safely
amino
devnull
selects
dynamically
inputfile
payloads
txid
##ling
classical
drag
eol
evals
incompatible
q0
soon
spread
##report
confirmed
downstream
saml
spam
tmin
v5
xc
##22
##attributes
allowing
bqm
errorcode
halt
lg
omim
vhost
whenever
##option
##red
affect
air
hmm
itemgetter
replies
revoke
satisfied
g2
kinds
netmask
nexus
recs
restrictedclasstype
rts
covar
ecdsa
filesize
meant
worst
yi
##vm
cable
cum
distro
graphql
hd
levelname
loopback
popup
recorded
revocation
##ous
##req
appname
au
barcode
clr
computer
filehandle
hg
##cc
##term
bottleneck
colorize
gcs
qc
##equence
52
formed
fq
hc
identifies
importer
schemes
##child
acquired
analyzer
chrome
hyperparameters
mass1
slc
viscosity
zf
##operations
##start
adjoint
bt
horizon
isclass
procs
##tep
sandbox
sed
##transaction
600
exposed
skeleton
##25
nk
saml2
stochastic
trail
workaround
##proto
ljust
scp
simplex
tails
bson
datafile
easily
localize
quarter
##freq
analog
multiplicity
portfolio
rewards
setformatter
staff
##ew
##flow
aborted
additionally
datatypes
sentry
tv
drift
pan
preserved
seealso
##expr
##hdr
##price
cyan
fluent
radial
slightly
triangular
x3
yaw
communication
ei
motifs
neuron
ospf
planes
readers
gte
magsarefluxes
national
taskid
watcher
ydata
##ability
casrn
cms
distribute
hdulist
indep
lookups
vx
prefetch
think
4096
appends
dimensionality
ever
gauge
hasn
mobile
outs
tone
##30
agreement
ang
divided
flds
hive
passive
0000
ages
debugplot
fx
matlab
pep
predefined
ran
uniprot
yielding
zlib
51
countries
qqqq
regularization
released
stale
ufo
##encoder
darwin
improve
incl
lldp
mutable
nbytes
sequential
sprite
workunit
ami
camel
med
subsets
38
resampling
vpn
##dt
dz
moc
rotated
conns
dynamics
mostly
spectrogram
##directory
##pi
applet
geometries
mf
textwrap
tracing
##ave
coin
dfvfs
squares
##operator
96
bookmark
cash
comparing
gatk
mathrm
relay
webdriver
##70
##use
initializing
univ
##metrics
circ
datetimeindex
fps
initiate
mdata
ng
shortcuts
extracting
3e
denied
edgecolor
mtype
restrictions
sids
vnetwork
cwl
drivers
fillna
gr
identifying
loggers
supporting
wavelengths
##channel
##lt
archived
cobra
dbsession
exif
fmin
h2o
specifier
value1
##paths
##session
101
accession
addwidget
conda
coo
w2
##cat
##gs
associations
auxiliary
cosine
kpc
mnist
negate
patched
permanent
producer
trading
um
archives
begins
gmt
managers
mut
navigation
newest
numerator
odl
opaque
survey
##orm
av
guild
intensities
pycbc
sex
transparent
##interval
##prop
auc
consists
dlg
exceeds
predictive
##ask
pipes
tpu
twisted
wasn
##rg
positives
pq
querying
revert
submodule
weak
dq
keyspace
mass2
nodeid
userinfo
##buf
##oid
caps
deterministic
fetcher
grpc
knot
mission
readthedocs
backups
cand
intro
iri
nav
##75
111
250
53
7554
allclose
ideal
onelogin
##controller
##ified
alloc
developers
graphics
hpo
pyc
referer
ta
artists
falls
flu
##mass
##properties
aperture
participants
predictor
primitives
##units
although
argparser
assistant
lin
prevents
sip
idea
inode
jupyter
pager
picard
sliced
z2
zfill
edition
ended
fromtimestamp
fwd
leap
operate
ot
typical
biases
consul
dockerfile
fds
pex
querystring
##hook
devops
iso8601
nmax
forget
getpass
gram
legal
redraw
retrying
saver
##mark
intersections
modpath
race
recover
setvalue
tan
##axis
##ft
##left
activations
election
hexlify
injection
pose
shorter
spyder
stash
attrname
battery
hexadecimal
jlink
knn
namelist
unlike
##document
binds
expose
getsize
playing
samtools
satisfy
witness
ago
discovered
esc
estimators
histograms
mixing
mro
queried
reddit
rva
su
unsubscribe
uploading
##ating
ag
ccd
customize
node1
vp
xor
arg2
bigger
cbar
concentration
connects
families
jpl
mpc
nbr
renders
tmpfile
##15
##24
##ock
collision
eig
gdal
i3
mkdtemp
privileges
pushed
rtn
securesystemslib
ubuntu
weighting
273
baseexception
bunch
harmonic
idf
teardown
yanglisttype
chromosomes
cleared
clipped
datadir
diffuse
int8
nbins
rabbitmq
resets
snake
vv
bitstream
fixes
los
voronoi
cij
pipelines
temporarily
toil
2001
ctr
icmp
ipa
shall
streamhandler
tower
whois
##details
##ld
d0
ffmpeg
forces
m3
throughput
##99
azurearm
percentiles
##tar
ae
b64
bd
committed
consisting
qmessagebox
tarball
tokenized
determining
metaclass
occured
proximal
quantities
zendesk
##og
acts
conversions
garbage
inconsistent
lets
mounts
strike
velocities
dstore
kern
simplified
##angle
##ical
##store
alerts
binning
declination
key2
kubernetes
latter
maintain
nodata
nth
nz
oldest
##callback
##ish
mad
mounted
mst
networkapi
openstack
ptype
redshift
value2
##area
##li
##provider
actors
ahead
asked
identification
lal
modifies
pretrained
reorder
vd
##enabled
genotypes
international
remap
subfields
##iterator
carry
chaospy
collation
humidity
indel
invenio
resampled
subscribers
##bs
##ign
##ks
appropriately
assumption
confusion
facebook
house
icons
pybel
skew
accessing
bios
bright
bz2
concepts
irradiance
ly
norms
paragraphs
proportion
serving
stretch
suggested
unitary
##kwargs
##nfo
##operation
basicconfig
colname
compartment
conc
cropped
crt
hostgroup
i0
instant
invalidation
itemsize
poller
serializers
stype
uk
went
##23
##95
##board
0f
business
chance
hid
lint
postprocess
raid
seem
subreddit
##new
##nn
ba
elb
gm
libspice
##odel
indra
magnetic
markersize
##pe
##rid
##vec
47
cubic
expectations
invalidate
probes
setenabled
signs
stringtocharp
vecs
##expression
##ops
44
bkg
correlations
grading
illegalstate
key1
picture
0m
argumenterror
authn
fieldtype
iterating
keepalive
mk
stress
##bot
0xffffffff
kt
reversible
##analysis
checkpoints
gif
isabs
verifies
4f
ability
clipping
cspice
hyper
scans
tif
##ang
licenses
linkage
qemu
resolves
rfind
slashes
uncompressed
##ean
##geometry
a0
coupling
cpc
deprecation
intern
kwd
paging
##mb
fac
implementations
lte
nlp
notfounderror
shallow
vect
xz
##wise
##zone
1000000
58
accurate
happened
integrated
pyxb
translator
vn
##14
##cursor
##password
badge
exons
fills
il
projections
##xception
aggregations
asctime
carrier
colnames
prot
selenium
sigterm
trunc
unzip
val1
##go
iterkeys
perfect
pformat
rich
stripe
sublist
vo
##eries
configurable
haven
killed
passwords
##weight
2009
63
constrained
localtime
logdir
uint64
##links
2048
aaa
acceleration
accessor
analytes
btc
coming
exceed
opname
recid
shapefile
totals
usual
vowels
##card
configfile
descendant
games
niter
noaa
nonetype
pay
##ange
##init
adb
f4
nodename
subpath
synset
##ci
##dx
##its
46
composed
ecef
ecg
kernels
overwriting
restype
##ner
guarantee
idd
importance
personal
recognize
##dialog
adapted
established
immutable
outcomes
sdp
basically
cdot
initialise
scm
ajax
gevent
log2
nesting
buy
frontier
galaxy
interact
netconf
persisted
reconstruct
suggestions
zhmcclient
##lo
98
analyzed
explain
grep
isolated
urlencoded
valued
cascade
den
deployed
jira
john
relaxation
##13
##events
##volume
dog
iff
lsb
nova
rslt
xlsx
browse
ht
kegg
lims
rounds
sanitized
1e6
byteorder
clears
cloned
counting
gtfs
incremental
kp
newton
plat
reps
subscript
torrent
##ised
##words
chimera
greenlet
missed
p3
##28
##fy
##network
backing
gdf
npts
postfix
staging
tld
##78
disc
fortran
pri
scikit
callables
exitcode
fcntl
magnitudes
mentions
mqtt
rdflib
sha512
##26
##cd
ace
callers
peptides
redo
##change
##lice
##registry
##ync
beacon
communities
frags
hdf
mine
om
sized
val2
viz
##copy
##esult
checkplot
die
gist
lat1
pants
scheduling
supposed
vagrant
wid
##processor
dbconn
getargspec
gi
lex
receivers
representations
tcod
2008
esxi
foobar
keepdims
newname
pol
research
responsible
succ
##case
##uffix
0x00
alternatively
cons
euler
node2
onsets
profiling
revoked
tcex
##md
0e
belonging
blacklisted
editing
internals
pruned
repeats
reraise
sname
sqs
temperatures
##component
centroids
fewer
prj
satrec
sorts
stim
tips
transmit
##cls
##ess
comparator
filling
hashing
keeps
linking
logg
pooling
populations
sufficient
throats
##18
##ash
equipment
hmc
httpresponseredirect
jitter
modulename
neural
prf
stationary
baseinteger
displacement
divergence
dum
hole
mcmc
msgpack
ndarrays
rxn
science
unmapped
xpos
##loop
failing
figs
joins
semantics
##ative
##dd
##endpoint
##sum
acid
bcc
codename
molecular
proba
street
trimesh
##la
##region
##transform
##v1
averages
captcha
cryptography
deviations
expert
implies
needle
npoints
sis
sue
##byname
##eta
##pass
##ri
##xy
cleaning
lh
pks
popleft
setitem
shapely
sparql
story
zi
##0000
##17
datapoints
dis
discord
dsp
latency
leaderboard
octave
pic
reviews
##indices
##metric
##seq
125
65535
corrections
eigen
improperlyconfigured
insecure
randn
retried
roster
superuser
##condition
##track
captured
facts
fwhm
hypervisor
neutron
persistence
subst
suggest
topo
trait
universe
hm
reasonable
regexes
turned
##ace
##act
##fo
##menu
72
dimod
photos
ranked
swarm
##33
##times
axs
bl
delimiters
granularity
hadoop
id1
satellites
threaded
##depth
accel
comparisons
decompose
fabs
gdb
retryable
anndata
aug
bearing
cam
linter
courseid
deletions
dsa
exprs
held
lut
milestone
ned
strictly
took
##56
##ard
##entity
consumers
magcol
nowait
outpath
protection
umi
vrn
##lr
43
alts
bytestring
getpid
interpretation
supercell
tiff
whence
##ger
##lab
##ler
##lon
caused
graphviz
groupid
mountpoint
survival
weird
##ables
##onfig
addon
csvfile
dem
monitors
scaffold
streamer
tap
validating
workbook
8601
beg
citations
installing
outputfile
routers
uuids
vcard
zeta
##admin
##indent
##matches
##tive
bill
cooling
data1
encodes
eopatch
updater
v2010
##izer
1970
curse
docstrings
eventually
footprint
granted
hdx
historical
lx
modifying
pygame
shorthand
typecode
vy
argname
ia
ncol
news
picks
rrset
subdirs
svn
##font
##pl
apiexception
dbs
deck
diffusion
ea
grouper
mg
publishing
sparsity
straight
vname
##fd
fisher
movement
pconfig
river
sigmoid
situation
slower
underscores
##isation
##mapping
bots
hdd
linestring
opposite
paginate
pkgname
ptrm
pubmed
qtextcursor
searchsorted
topk
waiter
##03
##build
##member
##ndex
6f
agency
cnf
foundations
gss
perhaps
rdfvalue
tango
toplevel
towards
##cloud
##co
##props
78
97
arcs
conference
controlled
dxpy
empirical
multiplied
orthogonal
pickled
preceding
subfield
uni
conflicting
healpix
mdf
tg
themselves
wkt
yum
baseurl
commas
compares
exited
finfo
globally
literals
spider
synonyms
trig
##bool
##center
##records
##valueerror
brand
exposures
op2
rels
##finder
##history
belgraph
brok
dateutil
dof
##ink
##next
bh
classified
ellipsoid
enrich
fns
installer
kvstore
mir
molecules
quant
selecting
virt
insertions
primer
rds
scenarios
datapath
distutils
downtime
ifos
recurrence
statistical
throttled
deny
eager
gitlab
italic
kn
nts
unary
##44
augment
grow
necessarily
resid
ses
xticklabels
bpmn
debian
evaluating
ligand
serie
tangent
u2
understand
warmup
##ca
##ree
adapt
borders
compliant
differential
interested
mismatches
wr
##1d
##hex
##lass
##txt
cloudwatch
hsv
implied
mkstemp
passage
rn
vxlan
##first
##ice
##pts
alone
checkbox
col1
deserializer
designed
dirnames
fan
multicast
nid
ofs
surname1
bams
coloring
libvirt
logit
meshes
recovered
thrift
trend
##icon
1234
copyfile
du
implicitly
isbn
mapreduce
ncbi
slim
wm
##dc
##pars
54
barrier
fifo
octets
sched
someone
##access
##mt
##opts
##period
doping
effectively
launched
locales
restored
typedef
xl
##domain
##iv
adjustments
checksums
eoferror
ownership
phased
quite
tee
versioned
##05
##77
##ection
consent
holes
inputed
pythonpath
son
spacer
subfolder
##float
##ui
dyn
gettext
observe
ptc
q2
que
renderers
sigmas
sse
subscribed
taper
unauthorized
##chars
audience
builders
compilation
data2
emitted
f3
firefox
monotonic
pcs
##86
##extension
##kw
##lient
alphanumeric
atype
iqr
nets
nfft
##dev
addcallback
retained
strerror
unsafe
##atch
##batch
apple
ball
chroot
colours
cpe
mixin
reciprocal
zipped
##html
ell
hla
nifti
nucleotide
nxt
sftp
summed
##load
averaged
chem
jcvi
keychain
mjd
prefs
submodules
uninitialized
##65
##cope
0x0
49
approved
differs
influence
laplacian
paramiko
pen
rectangular
rjust
unmatched
codons
lookuperror
looseversion
transposed
##filters
##ilter
##roup
amax
basepath
errback
getmembers
getname
greedy
nameop
refine
skips
tpm
unnecessary
zappa
##ea
##sh
##typeerror
combobox
downloader
dut
edits
electrode
eng
engineering
index2
lcformat
objectname
op1
##engine
accumulator
bf
broks
cuts
donor
irsb
newpath
surfaces
xsd
##pan
##rl
9a
configurationerror
folds
inbound
injected
issparse
jsonschema
leaving
noun
nsamples
plates
resolving
sizeof
startdate
throttle
tune
##gram
##reg
bv
earliest
miller
pins
rake
shear
unescape
##erializer
##ions
##methods
##pp
incident
ingest
students
##entries
##ov
anno
birth
ding0
hkey
impossible
n0
official
promise
shrink
anywhere
cloudformation
expensive
id2
iid
osm
overhead
pmf
pubsub
solved
tie
##gn
assertions
drain
dts
eligible
epub
hdrs
originally
playbook
pu
rooms
spaced
transfers
##67
##adapter
##ert
##right
coordinator
hierarchical
httprequest
naxis1
replicate
sell
shut
transmission
webhooks
cpp
crawler
inclination
kelvin
outbound
ramp
readings
structs
v2018
wrt
##bl
##edit
##tic
accepting
cz
lat2
mpstate
newvalue
says
shade
tsk
##ition
##ool
##usage
collapsed
fileinfo
graphic
ru
rupture
slicing
social
tells
unmasked
zmax
##comment
##for
##ield
##lot
##mag
cherrypy
dcm
iopts
pyrogram
rss
sinks
tw
visualize
writers
yticklabels
##ient
##runner
arbiter
collisions
datastream
ef
margins
pint
prototype
rets
rotations
viewport
##aa
##comp
##pack
61
acls
busy
classmethod
dcnm
ema
explore
indy
islice
proteins
telnet
##08
##ky
##proc
autocorrelation
bezier
careful
evaluations
grey
interrupted
j1
maximal
meshgrid
mfa
mimetypes
minval
pipette
stylesheet
xdr
##88
##ier
##write
capable
coded
great
indented
money
nature
pmagspecrec
programerror
tarinfo
yc
zz
##ars
##cl
##converter
##features
##oot
##parseerror
##ual
dependents
emb
fv
multiplication
nameid
plug
##dex
##lookupsession
67
amqp
asdict
characteristic
decodes
detached
dimensionless
displayname
federation
inform
loaders
regularizer
underline
v1beta1
##als
adaptive
curdir
droplet
epilog
inet6
rz
sectors
sourcecode
srid
anymore
curie
df2
initially
keystore
rdata
rnd
vbox
##over
##torage
365
aggregates
antsimage
bob
callsign
departure
mitogen
monkey
neighborhood
periodogram
polarity
refund
roughness
softlayer
uncertainties
violation
##attrs
##credentials
##nr
##ors
##trace
aioxmpp
breaking
ofile
owners
pika
pointers
##ell
##par
adam
arrival
commanderror
documented
justify
menage
proxied
spines
##dec
##les
##ols
##onf
extname
getelementsbytagname
joliet
kpoints
serv
ttfont
##04
##open
2004
enclosed
frequencyseries
libxml2mod
lun
metabolites
noaccess
speaker
##cluster
##parent
calib
ctime
damping
elts
ga
globaltt
hpars
neighbours
neutral
redirected
##ging
bodies
closer
destroyed
jenkins
lags
mavutil
outlet
syms
tabulate
asnumpy
datapoint
goids
growth
indexers
nginx
notimplemented
reserve
sma
variogram
varnames
##36
##classifier
##coords
genesis
maximize
noisy
orbital
registering
themes
calculator
dacl
delays
localized
mutex
presented
recurrent
shutting
thr
zh
adc
batched
bitcoind
capital
chans
clobber
completes
ed25519
excess
fwdl
npix
orphan
repeating
safety
sps
variability
xf
##31
##like
bcbio
cholesky
constructing
exclusion
j2
loadtxt
lockfile
r3
rollout
runnable
scanning
silence
sts
subsequence
synchronize
xdg
##package
##pc
##plit
balanced
buffering
edisgo
falling
geometric
jumpkind
leg
lz
propagation
qtwidgets
tname
unresolved
##rk
##temp
accumulate
ads
bom
chroma
convolve
differently
dname
forcing
index1
prepended
timeit
uriref
##ations
##validator
##ym
bm
clazz
decryption
emitter
hsp
ib
nodetype
nsigma
nsmap
organizations
precomputed
variances
##curve
##ress
accum
aff
clique
iops
materials
mof
##19
##algorithm
##category
1016
afterwards
equipamento
heuristic
implementing
libcloud
maf
messaging
privkey
spc
tensorshape
vnic
##62
##idth
9999
destinations
diagnostic
entirely
excl
imgaug
mktime
neurite
paid
pops
prepares
signum
strategies
synapses
yscale
##elect
##memory
##ptr
##tx
2007
argtypes
asymmetric
cri
dumper
guarantees
idlist
mailbox
mdl
quiz
recommend
unbound
waypoint
##89
##found
##td
conform
enoent
episodes
exporter
helpful
optim
phenotypes
referred
ss1
succeeds
##45
##img
crawl
csc
dumped
getid
pagesize
phonetic
smi
workflows
zarr
##85
##ha
##ins
annual
crd
cylinder
enrichment
fastaccess
fmax
forwarding
magn
newnode
objecttype
pathsep
till
tipo
xscale
##71
##children
aniso
atts
charm
executables
getmtime
holiday
interesting
posted
publickey
subdirectory
sup
usernames
##fasta
##repo
apdu
blend
fileserver
h5file
helps
kdims
unc
unreachable
upd
uu
vers
##chunk
##import
##pair
##rgs
amt
arctan2
behind
d3
dae
goid
isclose
lnk
midi
nml
otu
privilege
serializes
standardize
tds
timeouts
##classes
##inds
##ole
administrator
bids
customization
defn
ebs
errormessage
exhausted
layouts
recently
requestcontext
synthetic
tiled
vectorized
##byte
##fun
##information
##rame
brace
elm
htm
invokes
list2
magenta
overwrites
potentials
shortname
sortby
statuscode
tic
vb
##ctl
##lim
##logger
##umber
chisq
comb
combining
covers
jquery
knots
practice
programming
ur
##34
##bject
##dump
##mm
100000
flight
isvalid
millis
plenary
qualname
readout
sqlquery
toml
tournament
##ding0
##ence
##ied
##threshold
altered
argin
cbfun
e0
his
normed
npz
recipes
skycoord
subcommands
uns
##ram
aggregator
classifiers
col2
denotes
feeds
inbox
multivariate
ntu
preamble
readdatainstance
recorder
scraper
tor
vgp
##entifier
##ines
##ments
##ummary
evolution
insufficient
lev
ou
repetition
scf
suggestion
tanh
##ost
canceled
configures
cql
dashes
decreasing
fu
i18n
inlet
instanceid
linode
mentioned
quantum
sitemap
undirected
unread
##nc
##project
##ray
clientid
counted
disables
kml
name2
openquake
otp
quickly
repetitions
targ
timerange
trm
##cert
##codes
##settings
##step
allowable
cone
curvature
hpx
mse
mutated
oc
phys
preprocessor
protocolerror
recreate
reducer
timeperiods
verifying
##locator
##ulation
blanks
clockwise
derivation
especially
gyro
junos
openflow
oqparam
realms
seqres
##66
##bj
##mer
dbsexception
neurons
prox
pypy
##84
aka
eggs
essentially
introduced
iterative
nucleotides
observers
posixpath
relativepath
semester
sigs
sourcetime
sticker
stringify
ud
visualizer
wrappers
##ton
1e3
anti
cylindrical
jbody
listify
multicolor
mutual
pyemma
yp
##ache
##bins
art
c4
dock
intel
minmax
outlier
pac
privatekey
samplerate
surname2
terminating
wepay
zk
##dirs
##eader
##filepath
##jobs
##nk
##potential
##stats
79
aead
bandpass
booleans
friction
ilx
lcs
obsolete
oriented
outdated
quorum
redundancy
sizer
threat
timetuple
vni
##maps
##mem
##ws
66
bedfile
electrodes
jumps
m0
phrases
refactor
sdist
slider
tagger
tops
##55
##alignment
##counter
establish
nrow
physics
alarms
announce
augmented
cnn
dilation
dj
doctype
dropping
elev
ingress
kmeans
masters
notebooks
renew
squish
##94
##eed
##exp
##ord
32bit
completeness
deactivate
evenly
filehandler
heroku
law
lexicon
rootdir
sea
trie
varbinds
##ates
##lc
##ned
america
anime
b0
bboxes
chi2
matchers
pixmap
psycopg2
stay
subcategory
subdirectories
uname
urlerror
ylab
yt
##06
##09
##92
##datetime
68
aborting
acs
bookmarks
conventions
effort
increments
interior
iobject
offered
parallelism
pulls
sasl
setsockopt
##81
a3
clc
concordance
fam
heavy
hover
keycode
m2m
modality
opc
sticky
wake
##const
##constraint
##ful
##way
##wrap
avoids
bai
bitmask
came
conjunction
latch
mets
outdict
paginatedlist
rely
rq
shorten
sku
specfile
##42
##48
##59
##ormat
##put
##ul
bufsize
csu
dispersion
eccentricity
eni
environmenterror
epsg
mds
paginated
rings
scsi
sect
simulations
subnode
veto
0xffff
anchore
chown
datalab
gem
npm
qout
radec
ss2
transparency
##be
##ead
##lag
2002
dipole
existent
fdr
inherits
invalidparametererror
isscalar
jobgraph
mq
nfc
preserving
ties
tobytes
violations
youtube
##cal
##elements
##ii
##lm
asanyarray
assumptions
dft
equivalence
fillvalue
fusion
hess
looked
meaningful
operationclass
println
surname
##ba
##fc
##graphic
##ill
##parts
##ward
bubble
cif
explained
explorer
ipaddr
junction
late
logz
negated
oq
pyhpeimc
seaborn
slugify
soil
stimulus
usecols
##dtype
##errors
##lags
##pad
##search
##site
apparent
bail
ceph
delivered
fly
geographic
gssha
gwpy
inclusion
logstore
propagated
spreadsheet
unified
##cfg
##ute
57
eb
eliminate
enddate
isns
reftrack
trivial
ua
v6
vsan
wizard
anomaly
assigns
catchment
cdelt1
cmdargs
coinid
datablock
dict1
dni
goals
hasfield
ifile
inspector
jail
latents
lifecycle
metabolite
pdata
trap
uniquely
warp
wordlist
##96
batchsize
docgraph
esp
frm
issubset
kid
list1
msb
pmap
predecessors
priors
ruby
somewhere
##ber
##join
##ning
225
8080
assigning
cdr3
chained
commented
displaying
inveta
ioc
knows
reconstruction
traits
unsuccessful
##duration
##ero
##local
##tt
bleu
circuits
conductivity
confd
evaluator
fedora
initiator
maker
mle
rdtype
t3
vargs
varying
wgs84
workbench
##amount
##px
##tes
8000
anim
committer
crossover
etl
hamming
interpolator
lua
mpfr
pulled
pygments
winner
wrote
x01
xff
classic
classifications
nxm
provision
stft
synonym
upgrades
welcome
bugzilla
httplib
iterators
kerberos
meet
skos
##ose
##own
##ues
cu
elsewhere
gnu
hypothesis
ipyclient
islink
lacp
lan
messagetype
packing
pvals
pyspark
rowcount
scaletype
slaves
temps
##93
##sing
##validationerror
2e
autocommit
binaries
discharge
encoders
fil
helpme
hier
influxdb
inserting
jars
k0
l3
qty
semicolon
substr
testcase
vapor
werkzeug
windll
##cr
##ibility
##sa
##schema
##tation
cigar
circles
dealing
dmax
intra
lon1
ndx
oh
subcmd
topological
trades
zfs
##distance
##led
##ud
110
alphas
braces
cod
crypt
ctl
ddof
factories
forks
imu
intrinsic
metal
pgmpy
qcolor
qp
spf
urllib3
##ification
##mo
0001
coordination
eventtype
iy
joining
kitchen
parsestring
promote
riak
solvers
telemetry
tidy
unicodedata
##83
##conn
##default
##partition
##tz
bo
chapter
districts
divider
existed
followers
freedom
in1
inj
las
logp
nameservers
neo
nuc
redirection
vpcs
yesterday
##actor
##truct
cor
cryptographic
dfdatetime
discussion
http404
kick
mmax
mute
srcdir
swift
##82
##namespace
0x01
addaction
approve
binder
bottle
bwa
detects
eigenvalue
fptr
jsonrpc
lookback
neighbour
outname
rho0
uniques
##edges
##outs
##rank
approximately
arcname
bgcolor
densities
expnum
flt
hybrid
normalise
renaming
retrieval
somatic
##apierror
##hell
##ht
##note
##payload
##ymbol
3x3
arithmetic
checkers
ext1
fpr
fy
h3
nics
nlive
outstanding
pga
pty
pytorch
resistance
scanned
shells
skill
syscall
turbulent
##87
##detail
##els
##resolver
##used
##win
botocore
daemons
denote
enrollments
mef
mfcc
ndimage
onerror
regarding
spl
textual
weekly
##68
##har
##rules
##ux
admins
amin
diagnostics
standardized
tied
ypos
##application
000000
concatenation
dedicated
evpn
findtext
grayscale
heating
holidays
loglike
odict
ont
qwidget
radiation
retinotopy
rsync
templatesyntaxerror
unicodeencodeerror
urlsafe
##35
##43
##ka
##pairs
##wcs
84
analyte
demag
experts
genetic
genomes
h2oframe
hyp
kernel32
wl
##gth
##oint
##rp
backslash
datatable
ig
iterrows
itr
randomize
selinux
tiny
##score
abundance
composer
customized
databaseerror
digests
enhanced
julian
mtu
parens
sdb
sqla
subtoken
svm
userwarning
vrrp
##72
##enum
62
aggr
behave
csp
fancy
nmr
repeatedly
seqio
xmlrpc
##74
##dl
##mapper
amounts
arglist
betas
bitcoin
coalesce
iou
isatty
quantized
redefined
responder
skydir
tfp
transferred
variations
vswitch
xmpp
##91
##dat
##ics
##low
##raw
##tch
asserts
authenticator
distrib
executors
gce
grace
grants
integrator
menus
netcdf4
pki
synced
truncation
umask
unordered
##arams
##colors
##limits
##listener
##ware
csphase
downsample
hv
i8
inertia
iprot
ligolw
marking
methodname
mus
numobj
ratings
realtime
satisfies
schedules
successive
##27
##backend
##hift
accumulated
bitstring
cbc
dia
drops
hb
lname
negatives
ocsp
pimms
reminder
spikes
##54
##inal
##storage
booster
bounded
carbon
continued
h0
kmax
preprocessed
routines
sbjct
sourcepath
xm
##ips
##lst
##vd
2006
affiliation
alembic
collecting
defect
featuretype
fleet
formaterror
hostnames
invisible
involved
january
mediates
privacy
prompts
quoting
runtimewarning
sdc
singularity
timers
tmux
ucsm
vlans
##cnt
##ni
announcement
bigtable
cgroup
cval
dbsexceptionhandler
flagged
forwards
goto
grams
ind1
intersects
inversion
projectarea
sigma2
stability
tagging
wsdl
##61
##ding
##mi
##phase
3rd
86400
acct
analyse
books
certfile
cog
convenient
copytree
decrement
dice
gone
horiz
joinpath
life
limiting
localpath
pcap
pro
reflection
urlsplit
vf
wmi
xmldoc
##coord
##ecord
##print
##ratio
complicated
geodetic
isolation
kip
latlon
loginfo
pyemu
quadrature
theory
unassigned
unlocked
virtualbox
xso
##driver
##script
##si
88
bibtex
computations
deg2rad
entering
indels
installs
libinput
lrs
lvm
mfd
mmap
payoff
raiden
regime
returner
subsample
symb
tutorial
##38
##style
apk
deliver
entrez
fir
invoking
libcrypto
packaging
payer
postcode
roman
signup
subdomains
syllables
ucs
utterances
##band
##frames
##ki
##login
##ule
##work
91
bfs
childnodes
emission
gnupg
gzipped
matchobj
ras
restarted
toarray
triplet
##69
##ho
##ob
##ration
##tmp
0x80
advice
datos
devid
dict2
distinguish
docopt
fsm
galactocentric
ifield
ilo
increases
invitation
midnight
mis
nodes2
owns
regressor
setname
strips
symm
transitive
wins
##97
##ga
##ight
##plus
##tates
76
afi
attacks
beads
bitwise
bz
callee
corpnum
eu
forecasts
gcp
getroot
homepage
k3
nnabla
pinned
presets
pvalue
rrup
satosa
storm
subtitles
ttype
ugly
uploader
##atable
##eight
##esponse
##hub
##late
analytics
former
gracefully
institution
memoize
parametererror
permute
populates
postdata
rafcon
reliable
uniformly
##dn
##km
##np
##wd
##with
automation
canonicalize
chaining
facility
flexible
functiontype
ipynb
maxx
ns1
parsermediator
pytwis
rigid
skiprows
synapse
technical
##alias
##arch
##cap
aq
constrain
corrupted
fdata
nlines
nose
numbered
ogr
predecessor
qapplication
refined
##equest
##mgr
##timestamp
92
evp
gtr
mcs
midpoint
modulo
name1
od
pads
weixin
##marker
classid
escapes
impute
initializers
memberships
memcache
networking
occupied
originator
pymatgen
wavelet
##39
##diag
##gr
consist
equity
fromfile
inlist
ligo
magseries
maxdepth
nodes1
orange
proficiency
similarly
thellier
timeframe
u0
vaex
vts
web3
##radius
##rint
backbone
bayesian
cts
datefmt
descs
drives
equally
id3
mz
nome
overlays
prefixlen
qgis
uniqueness
##57
##ium
##problem
##sp
69
800
bing
cassandra
competition
destdir
edx
fish
ibis
line1
minx
moe
patt
recompute
rmax
rtr
seqprop
standby
vxvv
weakref
xmlnode
xsi
##alt
##bounds
##des
##instances
##notfoundexception
##phi
##sm
##а
covs
deployments
ext0
fastqc
fileio
freshness
isfunction
jan
mechanisms
parquet
pfp
postal
shader
table1
tempo
vsphere
##29
##ado
##contents
##head
##inf
##mean
##system
##tm
410
aliased
atexit
friends
imgur
ocean
parity
proportional
qsize
quantize
referencing
ruleset
wh
##256
##abel
##create
affects
fval
mate
namedb
pump
quotechar
route53
spacy
validations
##46
##pf
##ser
assembled
averaging
bika
bird
coerced
consonant
emulate
genre
jp
kf
simulator
slit
stimes
tilde
unk
varchar
venue
versioning
##76
##79
##cp
##encode
agp
alice
clicks
cuit
dssp
dtrajs
envvar
exercise
hyphens
lenout
orderby
outfiles
paint
parenthesis
partitioned
pegasus
pyamg
remains
repair
significance
spy
writelines
yo
##edge
##iles
##pa
ambiente
anycast
atr
blink
childs
cite
claimed
crlf
denoting
filler
formated
indexable
interp1d
kube
manner
osx
sgd
translates
##close
##enter
##gate
0x7f
clust
collate
fileid
iis
imc
introspection
javabridge
md5sum
osc
primal
qobj
relabel
sbo
scored
slicer
sorter
sprint
sta
typeid
whereas
zipkin
##ags
##email
##ick
3a
73
decoration
dihedral
dms
extractall
flipped
increased
injections
ios
mobj
netlink
obspy
samprec
socks
stateful
##ats
##bucket
##connectionerror
##defs
##flux
##pid
##rdd
##unt
##и
bulb
datacalculating
gos
heart
ik
ind2
narrow
possibilities
sdr
sorry
##07
##ons
##ontext
##ron
##year
caveat
clk
coconut
functionname
improvement
ipopo
iss
jobstore
lon2
mess
polyline
suspend
##exec
##ries
##scale
acknowledged
attrgetter
causing
kdtree
mind
mutect
nh
outputdir
perturbation
returntype
steady
taobao
volatility
wheels
xid
##41
##days
##rel
##stack
##tem
beta2
bitdepth
coordsys
coupon
ecp
fsize
gemini
individually
integrityerror
invariant
keeper
lti
qargs
recalculate
stencil
wal
##73
##ignal
##month
##normal
443
airmass
animate
assignee
clen
corrupt
develop
docid
elf
evalue
explode
explored
f8
facade
funds
goodlogging
igmp
ijk
isotope
kx
oids
prerelease
restapiid
simbad
structural
tensorfluent
terminals
timescales
utcfromtimestamp
##49
##du
##refs
##shape
160
astr
banks
coltype
inspection
kd
mhc
phy
skipna
steam
surrogate
wild
xa
xlarge
##cion
##com
##pot
##wt
adversarial
airflow
consuming
crc32
dnanexus
feasible
ibm
indication
isspace
looping
mel
mer
renames
taus
trailer
tran
xhtml
##63
##ranges
archiver
ax3
b3
descent
endc
expanding
fai
kj
manufacturer
misses
noop
nx1
owl
path2
pheno
pres
simplefilter
toy
variational
writeable
##ifier
##izable
##zip
77
fed
iterated
jobject
juicer
mpars
o1
preparation
prs
submitter
unregistered
zap
##connections
##ensor
argval
causal
getrowvalue
globus
gvar
horizontalalignment
mp3
popped
rpcerror
rsvp
serieslist
snpeff
timedelta64
unittest
vdp
y3
##after
##exists
##fix
##heck
##iag
##progress
considering
ephemeral
hamiltonian
lid
mainly
nsrc
o2
offers
precip
returnvalue
shaped
solving
ufunc
unmodified
webbrowser
winreg
##actions
##af
##bound
##ture
##vent
acknowledge
argnames
designated
ismethod
produceeventwitheventdata
sketch
spelling
superset
unfortunately
unparsed
xo
##000000
82
babel
bench
bend
confs
cyclic
dendrogram
dword
formulas
gridspec
jam
liq
msgtype
nativestring
overallrc
surrounding
##51
##bp
##cast
##ctx
##editor
##tp
##ving
1999
81
analytic
astimezone
charges
cleaner
iz
memcached
orgs
rtc
sans
sfr
sheets
snow
spent
startpos
transactional
##52
##adminsession
##epoch
##iate
2003
barcodes
electron
equiv
finishes
imm
incorrectly
ising
islitlet
iteratively
jr
koji
launcher
magcols
minlength
mlp
mnemonic
nnz
peng
pysam
segid
shots
strongly
unpacking
##47
##add
##binding
##iable
##lists
##pix
bamfile
cancellation
casting
consolidated
converge
defaulting
dictitem
gravity
l0
lastname
loan
masking
meths
monitored
nsteps
pnl
revoc
scr
teacher
trick
uplink
wo
##alpha
##noise
##tasks
arccos
breadth
caution
clim
delattr
exchanges
insights
kwh
notif
objtype
pods
preload
pytest
reactive
rpartition
unicast
urandom
uwsgi
##ction
##delta
##ear
##functions
##pin
##signature
a4
additions
cands
characteristics
contributions
enabling
failover
filetime
flickr
kmipversion
localization
normalizes
numbering
point2
pulp
pysnmp
serializetostring
setresultsname
shap
stellar
studies
watched
##ball
##bb
##bi
##collector
##dot
##dy
##home
##ites
##rop
comparable
gx
hrf
ioctl
keypoints
keytype
lie
marc
occ
organisation
pycdlibinternalerror
rise
tps
utm
versa
watching
##98
##egments
5f
bfile
cmdlist
cookbook
death
ensuring
extn
inch
og
outstr
picked
sens
smoother
ssm
submenu
usec
valu
zmin
##extractor
ah
cdna
fence
geoms
highly
jws
memoized
nil
pearson
ped
rmse
robots
scorer
sds
tickets
unhexlify
vec2
yn
##align
##ox
3000
abbreviations
brains
caffe
cw
fpars
getchildren
lambdas
leads
manifests
modal
novel
plen
pong
scientific
##active
##arguments
##permission
##section
71
addchild
appointment
bitrate
ckan
datafind
emoji
izip
levenshtein
macos
mono
normalised
opposed
pillarenv
schmidt
speeds
ssbio
travel
understood
walltime
##amp
##kind
apigateway
centres
crval1
enumerated
exptime
extreme
galactic
gg
ghi
jams
leftmost
likelihoods
nbsp
nfa
phot
plink
printf
rtm
tunnels
unixtime
warc
writeln
##worker
ckpt
clouds
extern
fired
forest
island
mlt
oai
phi1
punct
recurring
repertoire
requiring
resetting
restarts
rmag
seasonal
servo
situations
splice
wirevector
workitem
xnew
zerodivisionerror
##distribution
##ings
##lb
##our
##ral
##users
##xs
1e9
apart
cadence
contributor
cursors
gmtime
grph
httpclient
idx2
ischecked
isinf
motors
nearby
paren
payments
smc
w0
##callpoint
##econds
##fail
##iation
##lf
##med
##ove
##ret
##rom
##wave
amplitudes
arcpy
asn1
boxscore
captures
dups
float16
jet
leftover
likes
overload
paramsdict
played
prim
priorities
ptp
pysat
resourcetype
snippets
subdom
subgraphs
timescale
tped
unbind
unlimited
xvals
##archive
##missing
##pkg
bat
choosing
cohort
compressor
etcd
fqn
gsim
logarithmic
mixins
ott
pos1
rsr
sliding
statsd
unnamed
virtualchain
##53
##byid
##emp
409
accounting
arity
colorama
cortex
fees
hrv
lazily
parallelize
resnums
samps
sport
textcursor
tpr
useless
visa
xn
zookeeper
##cut
##database
##models
##release
##vel
08x
2005
74
discr
extrema
highlights
inset
jsonclientvalidated
mediatype
newobj
pbs
putting
sch
segmentlist
upcoming
##58
##bus
##con
##cov
##egment
87
animal
ascontiguousarray
beacons
codigo
continuing
dbsnp
go2obj
ipam
jwks
lru
mps
ourselves
outf
possibility
sampleset
sbml
scout
vasp
writeline
zipcode
##ersion
##fig
##lp
##patch
##reply
##sk
##е
89
94
antecedent
bilinear
bq
climate
cohp
defaultvalue
dphi
dwprocessid
efficiently
eqcorrscan
gam
lineto
lnum
singletons
switched
unstable
##are
##rray
202
93
achieved
aic
bic
cimerror
curly
dens
docstr
fade
fov
fstype
geocode
hyphen
instantiation
kalman
makedir
ncpus
projectname
vectorize
watermark
wifi
##arser
##blocks
##hr
##pages
##peed
changelist
deb
dig
heron
iat
keyval
kpoint
nbits
parameterized
precise
recarray
simultaneously
vl
##eb
##ectory
##istic
##nv
##ory
##python
##vg
appendchild
asking
bridges
experience
fax
fixture
flist
imin
intents
isotopes
ka
mosaic
mrna
osi
papers
precipitation
preparing
pruning
qaction
rare
rectangles
reloader
subseq
suspended
tear
ubridge
useragent
vdata
waypoints
##ignature
##long
##meter
##numbers
##old
axvline
bak
bgzip
file1
firestore
fmtstr
fulltext
iii
issuing
ki
laser
morph
primarily
pset
resultdict
said
spinner
stm
switchport
utcoffset
##ges
##hint
##izes
##ong
8859
amazonaws
antenna
ddl
feeder
gcd
jaccard
nonlocal
rez
starred
substrings
wandb
##elector
##ome
04x
attname
bsr
cant
clientrawresponse
datetimevaluesevent
headings
het
kmer
lies
mako
mot
mug
nin
ortho
param1
partitioning
purview
rfile
rtt
sents
settimeout
sine
stopwords
sweeps
thick
upnp
valve
##9e
##eo
##how
##reason
##rep
##teps
##va
1m
binsize
bls
distortion
farm
kraus
marshal
maxy
oui
samfile
shocks
spdx
tickers
trafo
webelement
x10
##agent
##encoding
##ja
##kg
##library
##lookup
##packet
##r1
##sion
1s
awsclient
baudrate
bitarray
broadcasting
chamber
clearing
dttm
duplication
efermi
fget
joiner
localname
normalizer
nrm
obj1
office
offspring
outprefix
perspective
pinyin
presentation
reinstall
savings
zonefiles
##av
##cf
##eam
##election
##sign
assay
blocksignals
contributors
ctg
eexist
enclosure
hgvs
moveposition
msm
mux
pandoc
persons
pointed
qicon
sline
solves
subgroup
subsection
unprocessed
##ising
##ivity
##l2
##lit
##ound
##vol
adr
aeneas
base58
blit
bnode
clamp
cleans
conll
coreml
crud
cset
dmin
dt2
eqn
ether
grounding
guesses
httpd
hyperparameter
loadbalancer
mom
monomer
rkey
sem
xmlsec
##nm
blankline
blocknumber
cloudfront
conversations
delims
dill
generalized
ipmi
knotvector
lda
mole
permit
refobj
spanner
spawned
stick
subtag
twig
verticalalignment
whitelisted
yerr
##amples
##ept
##gb
##images
##kb
##modules
##urls
##ᆼ
ass
cj
dap
executions
hemi
linearly
migrated
monetary
notified
oo
pmagsiterec
pmtinf
polynomials
precondition
secgroup
tuner
##2e
##density
##gene
##land
ao
chinese
docname
docx
exponents
favorite
flair
guessed
merkle
regenerate
remark
unload
verkey
vg
##ai
##full
##ination
##loss
##ult
acf
beds
camelcase
cfm
dags
department
durable
firstname
frequent
hemisphere
indents
issubdtype
keypath
maxresults
metafile
mozilla
phantom
planet
refreshed
sharex
tlv
trs
txs
##ah
##cb
##identity
##ular
agree
controlling
ephem
fourth
fromlist
getlist
headline
hypergraph
irc
male
maxlength
obj2
osd
ov
rvs
skewness
soma
srcs
treats
vec1
york
##delete
##fill
##grp
##sec
##series
gcf
getters
ias
ideally
kc
kvs
mech
merger
openpnm
parallax
pha
playback
poles
proposals
rconf
reformat
relies
reused
taxa
traditional
ux
verse
zpool
##any
##components
##regex
##rot
270
additem
addons
albums
equilibrium
era
erasures
examine
frameon
knob
nms
path1
seq1
stories
structprop
text1
thumbnails
trimming
##aries
##language
##post
##uuid
bfgs
buildroot
computational
foreignkey
graceful
improved
mlperf
pipfile
powers
relax
sio
supplementary
yubikey
yz
##green
##he
##ision
##prob
##uf
##x2
abcorr
aligner
bim
bother
clustered
covariates
dashed
datacenters
endings
friend
hypotheses
itemtype
labs
macaroon
mathjax
miny
newick
nicely
opcodes
opj
pbkdf2
piper
publications
scansion
sessionid
tfile
timepoints
uow
##7e
##ample
##fault
##mage
##pecs
##sl
##tensor
##tl
##total
##variant
acme
arrs
ary
authorizer
bcrypt
determination
df1
difficulty
elec
hdrgos
imaginary
initiated
langs
marshmallow
mas
monday
nltk
oidc
prio
pynos
quartz
scaffolds
somehow
thisbin
toolbox
unity
unstack
vdi
wires
xtick
##37
##au
##binary
##hare
##indx
##tc
##tions
addrow
apiclient
belief
coil
doy
exporting
harvest
hill
ieee
imax
lineage
modelname
molar
neurites
playlists
proportions
rdfs
requestid
rough
ruptures
stacktrace
storages
switching
taxid
threadpool
##disk
##family
##layers
##mesh
##requests
##resolution
##serializer
##ti
##ulator
##uple
##username
##week
accn
authenticating
batchnorm
credits
dotall
dupe
endianness
getdata
getopt
gpx
idx1
m4
nucmer
orf
parentheses
pathways
pushes
relevance
subid
transaxes
vep
##ake
##dm
##try
##upload
##ython
aname
cfgstr
fcs
jupytext
labelled
launching
line2
mh
nxn
oct
openfile
ovs
randrange
reconstructed
sided
sleeping
subkeys
thanks
unwanted
##ants
##ao
##bg
##ens
##obs
##phone
##rev
##v3
##ytes
bsd
censored
fcp
fignum
fluents
glossary
goobj
homedir
imls
numerically
prm
quals
reactants
sane
servicegroup
skel
slitlet
stdlib
table2
whom
wif
workspaces
xd
##bio
##cm
##her
##pm
1900
arrows
asia
autoscale
bps
burst
cent
combines
dialogflow
dsl
fermi
flo
labfield
openapi
reservations
sar
sparkcontext
stds
sysctl
systematic
thermo
vdev
vega
versus
##ages
##ift
##lang
##mon
##nal
##photo
##product
aspx
bk
chess
diangle
doctree
emailaddress
exclusions
fcn
fmri
informations
iptables
itemid
mip
modelparams
produceextractionwarning
psql
replaceparamfile
resourceid
rmdir
saturated
unicodeerror
windowserror
windowsize
withdraw
xls
yourself
##car
##ded
##di
chroms
cmd2
drug
edgelist
expandvars
gn
healthy
infrastructure
injector
kls
moduletype
ndef
neigh
operationalerror
passthrough
strata
tech
##complete
##exit
##fname
##ik
##inputs
##invalid
##messages
##sequence
bs4
emg
enforced
geturl
logexception
mdp
minimizer
ndk
notnull
ori
otype
popbillexception
preconditions
refseq
rewind
rig
searcher
worth
##1e
##6e
##decode
##ints
##olve
##ph
##reads
ambry
asks
awaitable
barycentric
deco
dictionnary
discriminator
elist
escaping
importances
nyu
odoo
parametric
peering
pvd
resourceversion
tplot
unquoted
walkers
walks
##100
##3e
##ape
##dataframe
##decoder
##docs
##elta
##mags
##master
annotator
bigip
complain
cytoscape
fileobject
generations
independently
ivar
lipd
logx
makefile
n3
negotiate
newdata
orbitals
partials
qrs
reduces
referrer
sitecol
sregistry
ssid
terminates
terrain
trg
vrt
webserver
yards
zc
##corr
##help
##hot
##indexes
##kernel
##oad
##pipe
65536
acids
advantage
calibrated
chebi
chname
collects
commission
dif
gathered
ice
libc
lift
monomial
reynolds
scrape
submitting
suppressed
teff
timings
trt
weldobject
wi
xsl
##future
##resp
##tables
##trs
0s
abbrev
abcd
atime
balances
balancing
columnname
dividend
fastqs
finalized
gethostname
guidance
latin1
league
overflowerror
pyfits
scaler
settle
spa
technology
todos
workingdir
##8e
##cores
##face
##locs
03d
aprocess
autopilot
ctd
elasticache
faker
fct
folded
funct
googleapicallerror
hotkey
ipc
myfile
optical
pianoroll
polydata
restful
sequentially
serves
sonos
ssd
userprofile
##ans
##done
##hs
##ily
##nit
##ocation
##ther
##ume
##uration
##uth
##workers
102
503
attitude
directional
disjoint
docutils
express
getboolean
hilbert
maxima
memmap
minsize
reflected
reqid
simpler
theano
tileset
##ail
##dos
##ny
##oss
##roles
##tamp
##transport
##unicode
analytical
appendix
award
chats
dicoms
ds9
europe
expands
file2
gromacs
handed
highlighted
logname
nq
obo
periodically
requisite
rmsd
sax
sensible
speak
studio
tkinter
unfinished
##browser
##machine
##padding
##r2
##sys
4000
900
accesses
b58
cancellederror
colorspace
curtailment
detectors
intercepted
itype
logerror
mtx
pci
producing
rankings
rasters
react
sizing
startindex
synsets
waittime
##book
##cli
##del
##eval
##hist
##lite
##nts
autosave
bitfield
female
fixtures
gcc
getobject
glue
helical
manipulate
maxes
msdn
napp
naxis2
negotiation
netmiko
nj
nni
oneof
osidsession
packer
pulling
pwr
rasterio
rubric
sass
selectable
setdata
sla
sslcontext
subtracted
swapaxes
thumbprint
vat
zr
##eal
##ene
##era
##gi
##gl
##impl
##merge
##renderer
##ten
##ull
##vs
##yn
##zing
ant
botoservererror
chop
clog
dataloader
definite
eauth
epw
humanize
jsonld
keypress
labware
memoryview
mft
pkgutil
plotly
pydot
reveal
rom
roughly
topologies
treeview
##5e
##annotation
##route
4326
actionpoint
ak
automated
benefit
blah
clips
coral
couple
everest
gssapi
hvap
inputtemplate
integrations
isochrone
moltype
nonlinear
nvidia
ordinary
pmids
polarization
prefactor
qid
qn
qualimap
rpath
tend
variantcaller
waiters
xb
##oken
##ple
##socket
04d
12345
86
agenda
backed
capturing
cpf
cspf
currentindex
cygwin
dss
emits
federated
httpexception
jc
ke
movies
perplexity
qiskiterror
qubo
scenes
sendspec
servererror
slugs
spotify
ten
urwid
verbatim
vice
xloc
##amma
##dge
##oa
##responseerror
##transfer
baseentity
bidirectional
cax
designation
designspace
detuning
essential
featureset
getoutput
huge
ing
kr
learned
mutant
neq
newval
pareto
pss
queryparams
rdict
rsem
subroutine
tocsr
triplets
vent
vertex1
##csv
##stat
##tle
##urn
acceptor
calibrate
cisco
confirmations
consolidate
disabling
extver
fashion
gens
hx
ifname
industrial
lattrib
lights
maintainer
maj
modelid
obtaining
occupancy
portgroup
propname
reals
registries
resolvers
setattribute
setgraphval
vcfutils
vld
watchdog
x11
##activity
##br
##iz
accelerator
aix
atm
cma
cmake
cobj
commonly
cookiejar
epic
errorbar
fst
funding
halo
isc
jco
mirrors
mname
muc
paged
pypetconstants
refid
rlzs
segm
stacker
sunrise
trn
varies
xmlerror
##001
##glyph
##gui
##lay
##que
##sg
254
arcgis
autocomplete
blen
bmp
clientsession
dsc
dtheta
enumerable
fileset
finger
grupo
iframe
iloerror
ima
lfp
lis
metainfo
nstates
objname
orelse
reaches
rightmost
rk
treemodel
valuetype
wn
##fl
##interfaces
##segments
##weights
##xx
1e5
asn1crypto
blur
cdx
cgroups
checklist
cmt
datamodel
disambiguate
excepthook
fvalue
headless
hydrogen
imread
iris
jsondecodeerror
jwk
lparen
modeling
nanmean
ncvar
nones
reloading
rparen
sap
secrethash
semver
seq2
setchecked
subfolders
terraform
tgz
timestr
usd
wa
waveforms
worry
##air
##aw
##connect
##ency
##esc
##gid
##last
##math
##sr
##tile
##witch
203
appearance
bitwidth
boards
browsers
dequeue
diamond
gv
highstate
incremented
k8s
metamodel
myclass
ndmin
numer
objectives
optparse
pyobj
qvariant
sdata
setpoint
snv
staged
standards
stateid
vertically
x4
##dictionary
##ipaddress
##sd
accountid
anon
car
dtd
healthcheck
iden
ino
kron
nro
orcid
param2
pathlist
pmagresrec
raml
regional
reloaded
smiles
##inc
##registration
##ticks
backlog
bigfloat
configuring
cpickle
cutoffs
dtime
electrons
ethereum
fstr
ifd
isupper
itm
lack
nacl
nocover
parentid
powered
printdebug
randomized
relativedelta
remarks
rois
somewhat
spm
stachans
tank
tcs
unnormalized
xlab
##cond
##king
##levels
##required
##s2
##ters
##visitor
advertised
approximant
arrangement
ay
bdf
bx
choosers
compiling
correctness
cqt
customers
detrend
doe
dollar
dumb
getparent
intersecting
iscsi
locking
lsst
lyrics
mgrid
ntu1
pgp
photon
retryerror
segmented
sentiment
soa
subreference
substituted
treeitem
turbine
u4
uniqueid
wbemconnection
wdir
yd
ytick
##matcher
##ools
##rant
##replace
##sq
##tokens
##zer
##ᆫ
240
charts
covariances
datadict
degenerate
dictlist
disallow
factorial
fapi
genv
lmbda
nano
numcolumns
orphaned
oscillator
pardir
pkcs
plasma
purchase
scapy
scrypt
spins
subtypes
synchronously
templ
##ana
##axes
##commit
##ement
##fieldname
##graphy
##imes
##ond
##ontent
##ources
##pacing
analyst
availablemethods
bonus
eclipse
eqarea
functiondef
haystack
htilde
logon
mnl
part1
plans
pushing
restarting
resultset
rname
routemap
siterec
textfsm
ubyte
utr
##agg
##clip
##cost
##eak
##eep
##inator
##keyword
##nl
##utc
##vr
##wait
##yz
arctan
biopython
cardinal
configerror
cpds
eip
endif
extmod
featured
foot
gin
grades
hexsha
hopefully
iot
isa
junk
opengl
parsefromstring
perpendicular
posting
qj
unchecked
urns
##acc
##ark
##atom
##bc
##deg
##ffset
##lus
##move
302
annotationtype
argcount
ecs
externally
extrapolate
interleave
istart
jobstatus
layername
mapfile
mecab
mic
night
nlevels
notifier
nulls
objectdoesnotexist
phantomjs
phoebe
radia
rational
requeue
semaphore
seps
setcolor
srm
strange
talk
text2
thermodynamic
vbm
welch
wnd
##efs
##eqs
##fac
##gger
##nge
##notification
##quote
##timeouterror
##uffer
##zoom
anyone
bgedge
bus0
correlated
countdown
gtype
hdrinfo
languagetypeid
linenumber
maxsplit
modattr
morphology
nop
pageid
poi
qmodelindex
tfd
unpacker
utt
warm
wipe
##bd
##checker
##cv
##decl
##ses
##uting
apex
appdata
bedtool
bring
buffersize
bus1
codepoint
condensed
county
deref
difficult
dmap
edf
frequence
gast
hip
linker
nanmax
nanopub
nanos
ox
pairing
particularly
percentages
qvm
read1
rosetta
savepath
shuffled
slip
specnum
staticmethod
stdio
taskrouter
ulong
unspents
win32security
##eps
##eventdata
##formaterror
##percent
##pop
##qs
##round
##speed
##trip
##zero
atan2
chn
deeper
formattypeid
glance
gns3
histories
hostgroups
i3visio
imageid
instancename
ja
lclist
luminosity
manifold
minidom
overriden
problematic
recency
scripttypeid
sdss
sendcommand
shas
smith
squash
stl
tfam
tmp2
wdl
##authentication
##ower
aside
autostart
combos
deviceid
els
fixing
glances
iana
irm
jsons
juju
katcp
lbls
longitudes
methcodes
pda
qreg
reducing
rrule
schedulers
touched
tu
udb
wet
worked
##arrays
##branch
##lation
##pdf
##sc
amz
chooses
cidx
cirq
consumes
cte
deactivated
dew
eigenvector
fec
ifs
ims
infd
insn
issuers
labeling
lose
minima
moveto
mutablemapping
ner
nonempty
ppm
rejection
significantly
skimage
termios
typevars
##elf
##esults
##fg
##gh
##inv
##napshot
##tracker
##zed
130
astra
behaves
binby
boiling
cnv
datastores
daterange
decls
enclave
enclosing
errorhandler
filedata
icc
inlinekeyboardmarkup
parameterstep
pif
ploidy
poes
quants
quat
recur
resnet
segwit
spmatrix
stc
subquery
tape
todoublevector
varied
voicing
zijdblock
##4e
##ale
##cti
##delay
##logs
##valid
advices
amplification
asd
axhline
backspace
bdist
bib
contribute
csd
datasetid
dupes
filetypes
flavors
hall
lxd
mov
ode
opf
petl
ppf
raslog
reordered
resposta
rooted
shelf
smags
unsaved
vasprun
##hz
##ider
##ism
##mail
##media
##origin
##pdu
##register
##sql
##world
172
aoi
bounce
bss
ciphers
cubes
cutting
devs
domainname
dropbox
fastest
hspace
killing
lahn
lat0
lemmas
lic
maintained
mesg
offs
pricing
purple
regularizers
str1
strains
sysmeta
timezones
truthy
var1
##acket
##console
##ense
##getter
##odes
##rofile
##vc
20000
2xlarge
alongside
cropping
defects
descriptive
dvd
encryptor
ext2
formation
getinfo
gff3
inaccessible
instrs
isenabledfor
libnl
mash
pgen
pie
planar
popular
projectid
qlabel
qtl
rebin
replicated
rstate
sbi
starttls
suppose
swapped
tdb
technically
tspan
viewing
vips
von
##ably
##ector
##environment
##free
##ham
##olor
##prep
##utation
220
comparative
ctor
dao
detecting
editors
germline
getproperty
gitignore
iapws
logistic
mbox
nir
nla
promotion
pyhsm
recommendations
rvalue
sbin
setcurrentindex
setposition
sunset
textfile
transmitted
usererror
yyy
##ane
##cy
##direction
##eration
##middleware
##symbol
addcons
airspeed
allel
blueprints
buyer
colspan
enthalpy
filesystems
fromkeys
gluon
grand
gripper
imtls
interim
irmc
lightcurve
marathon
multipolygon
opencv
orifice
periodicity
readability
reshaped
rhos
runners
shebang
sre
valor
zinfo
##eat
##ening
##feed
005
arr2
catches
chebyshev
clinvar
ew
formulation
gmail
jsondata
kmin
latitudes
loglikelihood
magics
mainloop
minify
minimization
nchan
operates
packs
parcel
pim
restoring
sidebar
slides
timespan
tnet
ttree
unpaired
voter
##ddr
##force
##light
##pg
##reset
4pi
abu
advertise
afw
cities
comprehension
couchdb
currentframe
drv
dsid
occurence
registrations
unichr
var2
##ann
##eys
##relation
700
asfortranarray
cdpp
cleanly
contextlib
falcon
father
ffn
fpkm
frombuffer
gname
hk
isolate
l4
lots
methodtype
nlmsg
nonterminal
parsererror
permalink
phi2
pycdlibinvalidinput
qualification
reaching
resides
reviewing
rfc3339
rmin
rtcclient
scrollbar
subspace
targetpath
uptodate
xe
##lk
##ocket
##ports
##publickey
atmospheric
brute
cacert
compiles
consequence
crystal
dbpath
deflate
divisible
dwave
ens
forums
gettempdir
gy
hazardlib
mbi
mit
plotters
proximity
stan
subname
tickerid
tts
unsorted
vnet
xmrs
z3
zset
##123
##alue
##channels
##clienterror
##div
##many
##ote
##po
##rpc
##selection
##true
##uery
4xlarge
alist
appendleft
astrobase
binomial
chirp
coins
convertible
disallowed
endp
errormsg
esri
img2
instantiating
item2
lcc
mediawiki
numero
popitem
qsl
rain
rouge
rowid
senders
separating
stripping
synchronization
tally
umbra
win32api
ya
##blue
##compiler
##imal
##ined
##itive
##lin
##m1
acos
anova
assess
cntr
cpt
defense
gcm
inputted
mutagen
orbits
orderedset
parsestr
police
returners
signers
tlist
topdown
triangulation
unfolding
varint
##hdu
##statement
224
arrive
bdry
clinical
crossing
daylight
doxygen
edm
fieldsets
geodataframe
gerrit
hexdump
hms
iname
kvm
monomers
mva
nupic
originate
rdy
readwrite
replicates
rpt
sighash
sortable
toxml
utime
xmlschema
xval
##ach
##arm
##bility
##erate
##nf
##so
##ulated
2x
ampal
bmi
breadcrumbs
cosmo
crontab
ddo
ecode
fase
intc
jt
keymap
mor
nanmin
nidm
nxos
oob
parseexception
ply
pretend
pycurl
quicksum
rectify
redhat
resourceattr
sha384
timecols
unlikely
##blob
##chunks
##fied
##ields
##querysession
##rat
##refix
##side
##sub
0x20
83
bullets
cellpy
datagram
emulator
exploration
extremely
freebsd
gridfs
iraf
libname
mar
muted
noresultfound
normcase
ntlm
objid
pgpm
pyparsing
qd
ratelimit
resname
rlp
san
sconf
slist
stocks
summ
tmp1
tomorrow
traversals
vtki
##find
##ged
##typeid
accent
aggs
anc
basemap
birthday
census
cntxt
crpix1
decodeerror
duoa
exogenous
feedin
fnc
gctoo
hdrgo
hermitian
lpd
multiplex
obviously
plays
por
ppa
preserves
pymux
qtype
sasdata
serializing
stridedinterval
turnover
winners
zipline
##avg
##chart
##e3
##ij
##orted
##recs
##vi
apiversion
arg0
attaches
backtrack
cloning
contextual
dumping
errcols
ffill
gym
hline
intercepts
joe
les
logarithm
nproc
oparg
panes
pt1
supervisor
symprec
taskname
tfds
tms
xslt
##empty
##etch
##hold
##inate
##poly
##return
##sed
##sets
##updates
025
126
ave
breaker
cool
dictreader
extinction
filestoreid
gids
homogeneous
interceptor
isos
mp4
nids
pypet
pyside
samplename
scn
srcpath
start1
ticklabels
toggled
trajs
turning
v4c
vtep
##0e
##boot
##changes
##den
##gp
##phere
##star
accessmode
aps
cacheable
calcsize
clickexception
cosmology
crra
curs
died
enriched
enrolled
flood
fset
gml
iex
inception
instantiates
launches
limitations
majority
march
mnt
namedtuples
oauthlib
perl
poss
quil
rdwr
responds
seqrecord
servicename
spicecell
suid
ucsc
windowed
winerror
writeto
##before
##flat
##han
##members
##rb
##rder
angstrom
auths
bools
captions
ccc
competing
conv1
crane
dockwidget
editorstack
flg
fpf
gmn
gre
happy
hostid
hsl
ih
impacted
interests
intr
libref
menuitem
modeled
mth
npred
plg
polls
popt
pos2
progenitor
pytgbot
remapped
suc
swag
syncing
tbody
unconstrained
wspace
##constant
##oints
##urs
##walker
10s
achieve
appliance
authz
bval
canon
cbm
cee
cfn
decided
deflection
deprecate
discretefactor
enhance
extending
fires
flattening
funcinfo
getframe
getuser
haplotype
httpstatus
investigation
lives
quits
realname
restores
rotating
specrec
stand
transcription
unbiased
untouched
urlretrieve
viewbox
viewed
xk
zeroed
##200
##defaults
##evel
##fileentry
##kl
##pen
##raph
50000
avro
bcftools
chef
climlab
convolutional
dmp
ents
escalation
exchanger
geneid
gzipfile
ifft
io5
laminar
lookahead
mmi
netrc
organized
outfilename
peripheral
psm
rootpath
shock
spe
uamqp
xmx
zscore
##current
##equal
##frac
##hole
##ices
##kip
##mg
##notes
##osition
##overlap
##pose
##rial
##segment
##thing
135
5e
adml
alpha95
alphabetical
attenuation
ax0
centrality
chron
classdef
crossref
favorites
geospatial
hysteresis
ipix
isalpha
isreadonly
item1
ligands
lzma
mathematical
nexson
objectids
part2
resumable
scc
scoop
slen
stamps
syntactic
tokentype
turtle
vpcid
wts
zeromq
##fa
##factors
##groupname
##luster
##oll
##panel
##ulate
##yp
5d
algebra
aov
autherror
badrequest
bincount
clones
cpdict
decompressed
deltat
developed
disassemble
hdl
indata
leapfrog
legendre
linkify
maxs
micros
minibatch
nworkers
opp
policyname
ppn
pycdlibinvalidiso
qpi
srt
subgrid
toctree
tstart
unexpectedly
##creen
##ender
##integer
##owner
##positions
##tone
##wn
140
ancestry
ccore
complex64
dashboards
dockerhub
dropdown
errored
exterior
extrapolation
fmts
fulfill
greyscale
hf
initials
ith
jsonencoder
keyvalue
maxwidth
mbar
ols
pep8
polyaxon
poscar
primes
rater
recognition
relatively
revs
skype
spp
stone
str2
subresource
suites
symmetrize
traversing
umap
uniparc
validationexception
voc
wwpn
yearly
##bank
##categories
##hp
##templates
##ways
8192
aldb
avoiding
bbb
boundingbox
covariate
deflated
delu
dependence
dialogs
dir1
favor
fillcolor
fixup
formdata
heapq
leq
loose
mainwindow
mj
moon
negation
poses
res1
retdict
sniff
specfiles
strands
taint
whitespaces
zeroes
##certificate
##drive
##hn
##plan
##rating
##tol
##vertex
4294967295
additive
ancillary
aw
banana
carlo
cord
dests
encounter
followlinks
framebuffer
g0
hardcoded
hls
interpretations
logspace
mlmodel
multiprocess
nbest
ndet
needing
overloaded
parsable
ppo
psr
qb
sendline
serverless
subdata
sunday
uf
usageerror
usearch
vendorspecific
xout
yaku
yb
##ada
##arcsec
##oo
##wargs
alphabetically
arcsin
arg3
bst
copy2
cpts
dataitem
dispatched
extraneous
fab
hname
ide
idstr
jit
ket
manages
monte
multiples
mutator
parentnode
placements
radiance
relate
responsibility
similarities
skills
sourcefile
sushy
throughout
thru
urlunparse
victim
wxdata
##lement
##mc
##mps
##play
304
asp
bwt
bytearraystream
centos
cmd1
coherence
configspec
continues
decides
dir2
discarding
eight
ensembles
epsf
everyone
f90
ffilter
gpd
isite
ldtp
logentry
logtype
multidimensional
ngl
patching
pelix
plc
quotation
quotient
sims
tariff
term1
tlen
trd
w3c
##acion
##ecs
##ken
##lace
##my
##pat
##ric
##strategy
##uite
atom1
backtrace
balancers
biggest
cased
cdd
chg
chol
claripy
consonants
cyc
dangerous
ddb
eitem
errores
filereader
finalizer
fontname
inactivity
keylist
ksize
lems
lumi
maxvalue
mcc
neighboring
omp
oxi
procedures
pyobject
qpimage
qval
refreshing
reinforce
sdl
sourcedir
tomography
tsne
untrusted
vdims
viewname
voucher
webpage
##arse
##bo
##consumer
##e1
##groupid
##imit
##itle
##locations
##trings
502
aad
activecolumns
ax4
cables
checkplotdict
conventional
doesnt
effectiveness
eqs
fhandle
focused
gross
gru
idl
intron
ireq
lk
logu
nameduser
nobs
ontospy
parnme
pendulum
pyglet
qi
resultant
rmon
rootname
sendall
sendmail
simplices
subsampling
tengigabitethernet
thiso
tofile
ttf
verbs
vtxindex
##2str
##ays
##here
##rated
##samples
##select
##sim
##sort
##tatement
announcements
chooser
cmax
codepage
contourf
cpython
daemonize
dbc
decomposed
earthquake
epd
eth0
everywhere
factorization
feh
fitter
fmags
formfield
greek
idempotent
inlets
inputstring
kinetic
kpts
lacks
localfile
longname
manipulation
minlen
msti
myself
numba
nyquist
orthology
out1
outlets
paas
packagename
parseresults
point1
rack
rdfdatetime
requiv
rescaled
setinputdata
skey
term2
voevent
vout
xform
##aram
##background
##dges
##dic
##ents
##gateway
##global
##heet
##sample
1500
333
ani
asg
continent
cpl
cutadapt
dereference
disconnecting
ephemeris
expparams
foreman
gdk
hds
helix
hunk
indefinitely
introduction
iotile
isspmatrix
lcd
mgtkey
modid
optimum
pitches
rar
rbf
shortened
sigkill
stet
sval
theta0
univariate
unspent
##behavior
##choice
##conv
##entities
##esh
##patterns
##tier
##za
amendment
brown
comms
compass
consult
differing
dispatches
fiber
foreach
foundation
getresponse
ifaces
initialised
jz
mchirp
nlm
octal
optimise
pmagsamprec
pointsize
predicting
rcv
rollover
scrub
setopt
stacking
stereo
targetname
tril
triu
una
van
vin
war
wget
winapi
##argument
##break
##coeffs
##convert
##ctor
##definitions
##enc
##ering
##ku
##logy
##orr
##ran
##scores
##viewer
405
dance
discounts
dust
fontweight
happening
infty
interactively
iw
lineedit
minimap
modalitytype
msec
nthreads
promoted
sharded
spare
specificity
sra
sshkey
synchronized
targeting
testio
thead
toolchain
transients
uncertain
withdrawal
zp
##activecells
##cing
##dep
##econd
##epth
##iness
##modified
##monitor
##real
##uc
##unique
absence
accessibility
ascension
beta1
bitbucket
bolt
ciminstancename
clsname
cre
dci
dec1
definitely
differentiate
difflib
dividing
executemany
extendable
gamma0
grandparent
hexstr
hkl
invariants
jacobi
nas
nbestpeaks
netid
nsims
nul
oi
orderid
oversampling
photometry
pluralize
prettify
pytype
rawdata
reservoir
resistor
tabwidget
testn
tiers
vmconfig
watches
winrepo
yarn
yf
yx
##ak
##calls
##etting
##hat
##nb
##org
##pth
##repr
##running
##ump
##verb
##ᅵ
116
301
aesthetics
ariane
arrange
asin
bpars
btype
cftime
clouderror
cosmic
csvs
cvectortopython
delegates
ename
expt
facing
forensic
fro
fstat
hang
irrelevant
jb
kdf
keysym
lod
mme
mol2
nooptionerror
ntrials
opponent
pargp
pfx
pickles
pnames
pytypechecker
recon
relname
sav
serviceinstance
setp
settled
tom
varkw
walking
watershed
xlink
yyyymmdd
##attachment
##fp
##gos
##gz
##lip
##rac
##rag
##servererror
##syntaxerror
##uns
##well
administrative
attn
baud
btrfs
cfunctype
chords
cnpj
coinc
colons
constructors
datasift
dtstart
dynamo
fullscreen
gateways
getaddrinfo
iac
landing
logpdf
lonlat
medians
mongoclient
mui
netstat
numpartitions
photometric
profit
resnum
rowspan
sdssr
sflow
sge
spell
sqr
successes
timegm
tstamp
unwrapped
waves
##configs
##ked
##keyerror
##opy
##pk
##references
##rn
1e7
abund
analyzing
arbitrarily
architectures
chr1
dataone
dbi
ellipses
gosubdag
gpy
highlighting
img1
inferenceerror
insts
interception
iocb
isna
issn
kepler
ko
lcproc
lexical
mdb
metricname
optparser
picking
poor
rebase
rolename
savetxt
sciobj
serrs
slopes
subtraction
taskqueue
transforming
treenode
typecast
uca
vision
xgb
##aps
##bf
##c2
##etric
##nam
##ster
##theta
##urf
##uring
##о
abscissas
arr1
brush
cd2
cho
clm
colorscale
comic
contributing
dataflow
dirichlet
distorted
fluids
fnd
framerate
ji
keypoint
leds
linkname
mathcal
meshcode
mhcii
normalizing
outp
personalization
psat
purged
qsettings
qu
sgf
snooping
spin1z
subtrees
synerror
triggering
tubes
unlabeled
upgraded
urlparts
utilization
vkey
##anager
##forward
##fragment
##hop
##md5
##nx
##offsets
##vectors
##y2
##zo
002
112
adder
addstr
administrators
agi
asterisk
bpm
cancer
carried
cellspercolumn
copyto
datasources
defaulted
ekey
graphkeys
i4
involves
jlinkexception
lfilter
limiter
lon0
mangle
mhz
mlab
mypy
nvals
predix
pyquery
rdclass
shexj
sortorder
stepper
subdivide
superclasses
swallow
tns
wavenumber
xxxxx
##available
##contact
##epr
##nch
##rms
##upport
##video
1996
abbreviated
aspects
asscalar
aud
autodoc
bayes
cartopy
chose
conforms
continuum
copyfileobj
deregister
doubles
eigh
eph
expl
fileformat
footnote
formsets
gage
gaierror
hanging
heater
insight
jsonresponse
kerning
kpars
mantissa
mysqldb
neil
nonexistent
numeration
optimisation
pathtype
pillow
precursor
pyx
representatives
scl
scrolling
shunt
smb
smbus
untl
##abs
##ends
##funcs
##rack
##stop
##xp
acronyms
atom2
attaching
blastfile
cdate
communications
correlate
electric
elimination
evolve
excerpt
fcf
flex
hba
hlapi
imagenet
indicies
j2000
keyserver
kma
linkinfo
magmom
managing
nailgun
ndata
nmb
partname
printc
pyquil
referring
remotely
sj
solvent
taskcluster
tos
tray
vfs
yrange
##balance
##bias
##estimator
##finished
##high
##nput
##observer
##pole
##trans
##urface
##ved
00001
0x10
addvar
ams
biased
bootstrapped
celsius
cents
cifar
cist
cnvkit
complexes
decade
dedup
ey
filething
forcefield
fuzz
glat
gpl
graphite
gsm
highcut
interchange
ip6
isophote
line2d
nexttoken
oem
oname
outfp
polymer
printout
quantization
qv
realizations
reversal
setvisible
sfn
shannon
sodium
splines
strikes
subdict
suptitle
tabularcpd
tagset
taps
traced
unroll
wms
xg
ylims
##atic
##clause
##elected
##gap
##nz
##received
##shift
administration
adu
backfill
bpe
collectors
currencies
dangling
dav
dec2
dhi
dot1ag
handbook
homology
indicatoritem
informative
milestones
nsarg
numpoints
permanently
pfam
r4
representer
rlist
seperated
shortstr
spheres
synchronizer
tabix
tension
tups
ulid
writeglobalfile
xoffset
##adm
##bel
##bundle
##constraints
##ems
##gaps
##hidden
##ims
##lect
##ou
##tail
105
acq
activestate
argd
badges
bang
cand1
cardinalityerror
cfunctions
chips
coroutines
eda
fileutil
graphical
isvisible
ligotimegps
lmda
magmoms
multihead
nerror
objecttools
otus
parensemble
piecewise
read2
redirecting
regressors
reponame
requesthandler
revised
semilogy
sfile
taglist
transports
unstructured
vrfs
wikidata
##capacity
##deriv
##nes
##ommand
##s1
##std
##topic
##vt
##xis
1998
8xlarge
accesstoken
amd64
amr
arduino
backslashes
binaryquadraticmodel
cliques
dbf
estimating
fcm
gpkg
hopopt
icohp
logprob
logy
luigi
lyr
maxv
men
ndb
niall
nibabel
nozzle
orth
oz
primers
protos
ps1
randomness
redeem
ridx
s4
savefile
sdf
serif
subarray
todict
toprequest
traverses
uncomment
vertex2
wfile
wploader
xblock
##atrix
##catalog
##created
##devices
##dimensions
##erms
##ervices
##ship
##unk
##v4
2a
attendee
azimuthal
builddir
callb
cancels
cib
danger
dlen
environmental
flushed
folding
follower
fudge
gcloud
gecos
ghost
inspired
jx
meanings
mems
nucleus
optname
perturb
pyqt5
qualities
rcode
readlink
rising
simultaneous
specialized
spin2z
supplying
ubelt
unverified
v2017
vector2
verbobj
vsi
wgts
wref
xray
yhsm
yoffset
##b1
##cycle
##dest
##dims
##gle
##hase
##iew
##ike
##infos
##iy
##nos
##older
##repository
##rob
adict
anneal
antialias
arctic
attrdict
breakdown
buildout
c5
cfws
direc
fdopen
featurecollection
fftw
flake8
hazmat
hl7apy
httpmethod
image2d
incar
jids
kui
lcfile
leak
lit
logsumexp
lvgd
numline
ofp
oplog
p4
permanence
ra1
scandir
sharey
snip
specifiers
sso
st1
start2
stemmer
sudoers
synccopy
textarea
tfidf
tox
underflow
unpickle
valence
xstep
xv
zlabel
##activation
##alignments
##c0
##doesnotexist
##elem
##esource
##insert
##literal
##requesterror
##ures
##utable
##zi
ats
augmenter
centering
cnames
cnot
coe
complex128
consideration
cprint
dataerror
diversity
dxhttprequest
e3
errstate
eventloop
exac
faa
gta
horizontally
httplib2
indir
informed
instancetype
maxint
maya
nanoseconds
naxis
nbestperiods
newpos
nsites
nwin
oif
operationmode
pickling
psz
pyunresolvedreferences
qf
quot
rawtext
recordings
reopen
resizing
rle
rsakey
sct
sii
smtplib
spiceypy
strokes
subvolume
technique
trun
tvalue
unflatten
variadic
vq
yahoo
##arc
##commands
##completion
##efault
##essage
##fw
##ication
##igma
##ipe
##reporter
##rest
##rgb
##summary
##tructure
##ttr
##ug
##vl
0x02
480
attributevalue
awesome
bigint
chksum
commdct
communicating
counterflow
destroying
dpt
ess
evict
freedesktop
go2nt
heuristics
invalidated
invoices
lig
loglstar
mgi
nanmedian
powershell
projex
ra2
radian
rasterized
readfile
reqd
scattering
servername
setstylesheet
socketio
srcfile
stays
streamed
stubs
synthesize
taskfileinfo
tobj
tredis
vmss
webapp
xrefs
##abels
##ica
##ited
##rch
##tk
##uate
##uit
##xxx
##°
alb
aligns
blame
boxlist
carriage
cbs
cyl
datalist
ddg
dflt
employed
february
fileroot
frmt
galaxies
goea
hbox
heatmaps
jobstoreid
king
libsbml
metas
mismatched
modem
mri
multidigraph
october
pal
pkcs7
plant
pnp
postorder
preliminary
projector
reverted
rewritten
rindex
sfc
simplejson
spw
sshexception
stachan
starter
statusbar
synopsis
thousand
throttling
tojson
vlanid
ww
##canvas
##digits
##ei
##glob
##ios
##lint
##omp
##orts
##payment
##quality
##rain
##registered
##unch
##ursor
##widgets
activates
american
asym
autoscaling
bu
cns
combiner
concurrently
configman
csf
csi
dlist
elided
flowspec
fromarray
fts
grained
h5f
httpserver
jukeboxcore
learners
libfn
lowcut
mapbox
myapp
newid
nodevalue
npars
osa
preproc
pybedtools
querybuilder
reorient
reviewer
seat
sidx
sounds
spring
startp
tapers
testsuite
todoist
tricky
tst
u8
urgent
vif
watchers
##connected
##credential
##filt
##inated
##lbl
##lic
##maker
##ocs
##oi
##optimizer
##tup
##uation
##uccess
##variables
00000000
639
abilities
afile
atlasdb
authoring
bgr
bootstraps
cation
clade
csm
eax
ek
fileng
floyd
fsid
gains
guides
hann
ico
in1d
interop
jsonpath
lexpos
ljava
loglog
obsrvr
oscillators
oscrypto
parseable
polys
portchannel
probable
prometheus
pydata
pyenv
pyqt4
readdata
retail
seqnum
slurm
spd
suppression
t4
tabpost
tdata
tzname
unsqueeze
usergroup
varlist
vdr
winning
xsize
##aster
##game
##httperror
##ji
##lable
##lx
##plotter
##qual
##resources
##soperations
aleph
apparently
aslist
bullet
catalogo
cids
cloudflare
compositions
deals
diameters
dois
dx0
eigvals
endidx
errcode
glyphname
gmsh
guidelines
input2
interleaved
keyvals
leased
msrest
multidict
nagios
nodeng
normalizers
prover
reassign
recognised
rectwv
remind
reparse
resolutions
road
rpccmd
rpcs
splash
storagemodel
toolset
valgrind
visits
voidage
##ames
##arget
##c1
##che
##ini
##irs
##l1
##nic
##oop
##regression
##yte
16bit
299
aggressive
allocations
bigdl
bnd
boosting
cfunction
cimclassname
clus
codeblock
codetype
compartments
dbapi
decor
deduplicate
dewpoint
emcee
fmto
fromrepo
getheader
gobject
htmlelement
hy
icrs
image2
ipfs
jamo
jboss
keybindings
magnification
matters
methcode
modular
nparray
pcm
peewee
poa
pointlist
py23
pys
remover
requestjsonandcheck
resort
rgname
ride
rlz
rollup
sanitizer
schemaerror
setid
subgroups
subprocesses
suspicious
sysid
testnet
translatable
trash
ucsutils
ugali
uoft
websockets
xmlstr
##alization
##alls
##ampler
##ayer
##columnname
##dataerror
##erator
##evice
##grad
##hedron
##ils
##mf
##nii
##onal
##prior
##versions
##water
aspirate
born
ccm
couchbase
ddata
discretized
dones
downgrade
emergency
errorindication
film
fimg
focal
googleapis
iban
ifconfig
indeed
jobname
latt
lengthscale
logvol
lspinfo
mathbb
memb
minvalue
mixer
mkt
nlri
paramname
phonemes
pixeltype
rectified
rects
rfc6749
searchable
sinkhorn
slabs
soundex
specially
statically
synth
tabledata
treshold
unbalanced
unbounded
unscaled
vmadm
volatile
weekdays
##addresses
##closed
##dispatcher
##e2
##eer
##iated
##ious
##ists
##meters
##rap
##rite
##serror
##tml
##uu
acronym
adgroup
applicant
argc
athlete
club
cold
confusing
dac
disconnection
dxid
eastern
errorindex
farthest
friendlyname
fvar
gaf
getchild
getint
idna
imaging
improperly
joints
maintains
memlimit
multisig
muscle
networkid
paleo
pathspecerror
permissionerror
pmt
rangle
rawdir
refreshes
rmagresrec
rsc
showcase
spatialreference
spine
subregion
svr
syns
taskfile
thetas
trits
zonal
##dj
##hadow
##itute
##lication
##nym
##perm
##responses
##self
##tuples
##ugh
##ula
adaptation
africa
arai
armed
authoritative
basecheck
bsp
cameras
coincident
cty
decisions
decr
devel
distinguished
divisions
dsopts
eeg
fat
freesurfer
hypo
icao
iir
imagetype
infoblox
k4
lcformatdir
ltd
modekeys
nmi
pitching
portions
redistribute
res2
riemann
seal
sendto
sur
taxids
todense
usages
vss
word2vec
wrapjobfn
wvfeatures
x5
xcorr
xerr
yres
##dle
##exceptions
##export
##fi
##i1
##itions
##kv
##locks
##plane
##pper
##pu
##tip
##where
113
211
2g
32768
aabb
adjusting
aj
answered
atilde
biom
branching
breeding
cd1
committee
contraction
dmag
epsilonp
fftlength
github3
ham
hdf5storageservice
holderprover
html5
imagename
in6
inefficient
inputhook
lisp
lkey
merchant
msi
multifile
nicer
originating
outmaps
packaged
pdm
prg
probas
productions
qfiledialog
qtr
radix
rdataset
repack
restructuredtext
runoff
sdat
ship
som
taudem
temple
upgrading
ustr
vardict
vmx
vprint
##atory
##ception
##eport
##eventtype
##executor
##itor
##ont
##rocess
##targets
##uous
429
8s
99999999
accidentally
anns
bigchaindb
boxroot
catching
coincidence
commerce
conv2
diam
dominant
gating
hashcode
hertz
infiles
inspected
itunes
kriging
multiset
nsp
operationfailure
overlapped
phonenumber
pitcher
pointwise
ppp
pt2
qm
rend
replykeyboardmarkup
rivid
sales
saveas
smp
totally
tpf
traceroute
vectorizer
versionid
virustotal
wan
wfn
writefile
wtf
xstp
##configurations
##cube
##e0
##erg
##gray
##ley
##once
##other
##pw
##rator
##roc
##sid
1x1
8f
abandoned
abun
appengine
belvoc
besides
butter
cand2
catid
cel
cmaps
cnst
comid
coor
cparams
deserialization
drum
dtm
end1
errstr
exch
exhale
feet
fielddescriptor
fileh
fleetspeak
fstab
grism
harpoon
hwnd
ical
invocations
jimage
keypad
linewidths
messenger
nbformat
notices
numitermax
oov
openbsd
phate
pinv
pyfile
pypyr
qevent
qg
qregs
quasi
raylet
reconfigure
restricts
roomid
set2
setpos
submits
subsequently
symmetrized
tabletype
thermostat
touching
transf
vulnerability
wcsname
##epo
##lambda
##logic
##not
##rates
##states
##uniform
##yntaxerror
121
3to2kwargs
adaptor
argumenttypeerror
assignees
behalf
biomart
cauldron
ciminstance
commonprefix
considers
convection
covars
cublas
databasepath
decomp
dendro
denoted
emu
endpos
filelike
fmap
freed
fsa
gave
glut
id0
imagefile
imcrs
ionic
macs
mcol
mlog
ncv
opensignals
pdb1
penalties
perturbed
pipenv
pyproj
pytplot
ql
retriever
reviewed
scanline
seg1
servicetype
setpen
subsamples
subtracting
subword
theoretical
timeoutexception
viable
volt
webui
whichever
xgboost
##att
##cmp
##configerror
##css
##delegate
##enable
##fast
##ina
##ocument
##vlan
##ye
##zation
1200
122
alexa
ars
century
colormaps
datestring
decoders
despite
elementwise
erroneous
fdict
firstlineno
flightmode
frange
historic
httponly
interrupts
ladder
listname
logevent
lorem
pkcs12
plunge
pymysql
reloc
row1
row2
seperator
sni
statevector
tdf
tesla
unify
unmount
xbrl
xu
##ces
##cn
##igh
##inputerror
##istry
##oy
##requirement
##rit
##ulus
##web
350
40000
666
anomalies
archs
asof
assessments
axon
bol
cdll
conds
decline
dfn
displayrole
equities
esi
fulfillment
fund
gpt
hsps
iec
integrand
junctions
jwe
lvalue
mda
observing
obvious
orientations
packager
parcov
permissive
photutils
picker
prettytable
qgsvectorlayer
refractive
rescaling
rint
rjb
sgraph
sleeptime
snmpengine
stoichiometry
stu
stuck
sunos
tablet
thereof
txns
uncaught
unfiltered
university
unweighted
usa
vocabularies
##00000
##alg
##calc
##clients
##eff
##ez
##freqs
##igs
##initializer
##lex
##ney
##pointer
##pro
##sync
##tn
##tra
##validation
##x1
124
actuator
apiserver
attendees
bedtools
bytesize
cachefile
campos
ccs
cfgnode
coinbase
compensate
corefoundation
cq
cxx
data3d
david
dinv
dismiss
dispatching
emphasis
eventual
exps
filenode
fip
fixer
fuse
generative
grandchild
hooked
internalerror
itemdata
keystoneng
manga
meeting
nack
namespaceuri
nfo
nist
nit
nmap
nosectionerror
nvars
obfuscate
obsensemble
occurences
oe
padx
pady
pet
placeable
plone
pmin
preceded
presenter
proj4
pydoc
qpart
recfracs
reproduce
rex
rope
rotates
rtl
sequencing
sharpe
smax
smt
subtask
tas
templatetype
textiowrapper
tfa
theta1
tokenization
unabletoparsefile
unescaped
unicorn
usrgos
weave
widgetobj
wit
xapi
xdist
zed
##comments
##dom
##erm
##false
##t1
##tage
##tarts
##tatistics
##ust
##ð
1990
5s
airport
blackbox
brew
cfile
chardet
chunk1
constituent
cookiecutter
crashes
descricao
dummies
duty
dvm
eat
errata
forecasted
getfullargspec
gwf
imts
irregular
lamb
lambda1
loudness
modulation
morphological
newshape
observatory
opencensus
paramlist
presses
recommender
shellwidget
shield
shim
snode
sslerror
supp
syndic
tense
tensordot
usearch61
userena
uuid1
workload
workshift
zmat
##argin
##extract
##fer
##hmm
##issue
##mann
##n1
##none
##objs
##prod
##rf
##seconds
##threads
albedo
analyser
assembler
atomically
bernoulli
beware
cachekey
chocolatey
concise
connectors
deployer
digestmod
dispose
dynamical
eh
excp
ez
familyname
field1
genobject
german
hists
imdb
ipproto
jp2
keepanchor
leafs
mach
messageid
multiqc
neighbourhood
noave
nout
outfd
paddings
pkginfo
programmingerror
pycache
rationale
redir
responding
sheetname
snd
sysconfig
templating
trains
traveled
traversed
umlaut
verdict
wfs
worktree
x64
##a2
##een
##ere
##ered
##onimage
##pable
##sz
##uction
##ush
106
aapl
acknowledgement
adjective
alteration
alternating
amg
assist
attrlist
authenticationerror
badconfigoption
basemodel
batching
bluez
breadcrumb
bundled
chunking
clades
configmap
datestr
decreases
dmatrix
eighth
entrance
ffff
firing
guake
hacky
haproxy
idents
ign
im1
inflate
inlined
interconnect
iscs
lastblock
linestyles
logmsg
mailto
manhattan
mdtraj
mhci
miz
modern
mood
newkey
nfreq
nfs
nmin
nodal
nonnegative
novo
numpix
obtains
ods
onlyif
openmp
palettes
pdfs
pfs
pillars
populating
ptb
quads
rainbow
rally
responsive
scat
searchtype
served
settlement
sigmar1
sigmasq
smin
subsegment
treeerror
trouble
umis
unidata
ureg
vector3
viewset
vmname
w0212
winfo
##breakpoint
##bt
##ees
##errs
##expired
##fr
##gain
##hread
##ich
##jsonencoder
##labs
##lls
##mx
##pectrum
##queryset
##scan
##send
##tim
##uoa
##wid
##workflow
230
activecells
argstr
aut
bass
bcr
blow
capitalized
ceiling
conditionally
confused
cooldown
creators
cth
dagcircuit
dgram
disconnects
dpkg
dtraj
dup2
emacs
emsg
errorstatus
eups
fingerprints
folderpath
formal
foursquare
fred
gregorian
gridsize
gunicorn
highway
hum
jsn
keyframe
maxobjectcount
meminfo
menubar
migrator
minimized
mrs
multipliers
navigate
nsg
obsm
orfs
perimeter
pictures
polymorphic
pooler
resubmit
sale
securitygroup
snrs
subtopic
swaps
tdc
tween
uma
upcast
xstart
##a1
##alc
##assignment
##commanderror
##etup
##gc
##gg
##hk
##iton
##lu
##phrase
##signal
##tex
##timer
##upper
##verse
##zz
admx
ambient
argwhere
assemblies
bos
clt
dispense
economy
emptydoublevector
emulation
expansions
geocoder
ginga
golden
hoc
hpa
ip4
ist
jdf
kids
lesser
logtomaster
mimetext
nex
nfkd
optics
oy
pdist
pi0
pmra
pom
previews
privileged
reachability
reminders
rfc2616
stoptime
totalsize
transact
transliterate
undone
uplo
urlconf
utcdatetime
vari
vex
vispy
##128
##cdf
##earchresult
##jd
##margin
##ready
##router
##src
0x04
0x1
2b
acm
arns
associates
blockstackd
bname
cfunc
cmin
confluence
conservative
decimate
declarative
decryptor
devicename
dive
dwthreadid
egress
emax
emir
exprnode
filterbank
framer
glfw
guests
hland
jk
kmers
limitation
linebreak
logwarning
maxit
moderator
nests
njobs
noverlap
occurring
pfm
phred
posedit
reltype
requesterror
set1
sidea
sideb
sitetree
stratified
syllabify
topmost
totp
uo
vor
wells
weren
wkid
yvals
##apiexception
##atetime
##cheme
##formrecord
##gt
##interp
##m2
##overlaps
##overlay
##polygon
##runs
##scope
##ury
1e4
amps
autodiscover
ava
bitvec
blurred
bvec
cdist
cloudant
consec
crayons
creg
cronjob
datapackage
dstream
dynamips
exam
factored
frequently
futurewarning
fxn
g3
gan
gaphas
geopy
guideline
hanning
haplotypes
hq
iexcloud
importable
incidence
inspiral
interacting
itebv
keyjar
keysequence
keyset
legs
limb
lnotab
locrec
logrecord
modis
netconn
obslist
pcolormesh
pdos
plunger
premium
preprint
rc2
regexps
routed
ruoa
saltstack
saw
sharp
surrounded
tfms
timeformat
trails
tseries
ucm
unaligned
undocumented
uvw
vrid
wed
wordpress
worksheets
x02
xfer
팝빌회원
##aged
##arent
##berg
##border
##cent
##click
##ease
##feat
##kin
##loat
##player
##services
##und
##yle
##ymbols
114
1h
agpfile
analysed
anom
april
assure
bet
ccw
clusterer
credible
ddk
diode
djadapter
dsp0200
emin
exposes
extant
fulfilled
gti
hor
irq
kmag
len2
lifetimes
lmfit
magnet
markable
meets
mint
normalisation
ofproto
pacific
pilot
pnum
popsize
ppars
py3k
queryable
rap
renewal
repr2
sir
spk
sprites
spt
tester
tmaster
untransformed
webob
xhat
zt
##2b
##argumenterror
##assignmentsession
##async
##dependency
##icle
##ingerror
##ito
##locale
##mix
##mol
##nu
##ords
##quad
##struct
##trl
##uct
##vision
##z2
1a
airflowexception
burnin
color2
colwidth
dow
drainage
dva
electronic
exitcodes
flagfile
getsockname
gmf
histo
hotspot
idsfile
idxprc
incs
inputdata
ipyradwarningexit
ivm
kills
lanczos
macaddr
mbedcloud
mdr
mercator
metar
nonnull
nrml
numerics
nxast
objectclass
out2
pixelization
potcar
pyqt
referent
resend
spearman
surround
systemctl
tis
truncating
uninferable
##acl
##acs
##b2
##drop
##egs
##mac
##odule
##pipeline
##power
##rus
##terms
##ura
##vcf
##wap
##we
##ᆯ
acks
atmosphere
autodetect
blade
cflags
classnames
clss
combs
connectable
corpora
decs
dex
dir2cart
elemental
embeds
fifteen
floatingip
fpix
fronts
functioncode
goodness
indexname
ingredient
inlines
ivy
kinesis
lax
mdot
meridian
metricparams
msh
multiplying
nbatch
ncfile
phonon
printsyslog
prms
propiedades
protorpc
runset
sufficiently
summation
supervised
thousands
timeval
tones
tppd
united
untested
urlpatterns
zadd
##added
##afe
##attern
##audio
##bridge
##ened
##formats
##inseconds
##ire
##ream
##rge
##sis
##sources
##trategy
##urrent
##uv
##ypes
0j
137
abundances
acting
assetid
autobw
b4
calculators
cry
dad
datalen
dbt
diagrams
dport
drawdown
ecu
eintr
forth
hands
harmonics
hlen
hn
iiif
illegalargumenterror
in2
independencies
indirectly
invited
jsonapi
leases
logpath
mep
mestype
minv
msr
namecheap
nthe
ongoing
orphans
outwcs
postinfo
pyname
qimage
reloads
residential
retorno
rpars
school
segno
setparseaction
speedup
stackexchange
swo
tablefmt
truths
varinfo
vlines
w0613
xtol
ym
znode
##010
##clean
##ected
##edfile
##ein
##equences
##iel
##osing
##ua
##ude
##unction
##yx
4e
adjusts
appender
availabilityzone
biomass
blotter
builderror
cav
ccache
colnum
contamination
correctionhandling
destpath
dirlist
dnde
forcereply
fringe
frontiers
headway
hookenv
httpconnection
httpresponsebadrequest
illuminant
impacts
isr
ldata
mestate
mylist
nao
nbrs
ndigits
ogc
ore
parameterset
pwnypack
q3
rcfile
safeconfigparser
shop
statsmodels
tcl
thunk
timegrids
unknowns
weekend
ymd
°c
##allele
##asta
##f2
##focus
##ided
##letter
##men
##motion
##nation
##omplex
##ots
##ulating
0a
170
anystr
aryprftc
bogus
branchset
casts
commons
completing
configmanager
correspondence
court
covering
createelement
dangle
debit
deploying
descripcion
downsampling
errors2
exhaust
fermipy
flattens
gal
getmodule
gis
gotten
guids
hangul
hed
hg19
idxes
impulse
incidents
infield
inheriting
multiplexer
nih
nonspeech
oath
observables
oembed
optimizations
pds
pkcs1
placing
postscript
pour
pton
pyfftw
qpixmap
savename
scanpy
seekable
seticon
singles
ssc
stanford
stylename
swipe
theta2
twin
ufos
unflat
unzipped
usermacro
waited
wfdb
wk
##anno
##bedfile
##eaders
##eature
##enu
##hits
##inant
##ncy
##prediction
##ression
##ru
##suffix
##updated
##wp
##zen
adderror
autoregressive
barriers
bitshares
bpp
cen
chunk2
clvar
cmatrix
codebase
concatenating
counterpart
ddoc
descend
ebins
epoll
expander
getall
guessing
h4
iend
ifindex
initialisation
instrumentation
landscape
lite
maspy
mmm
nacm
overhang
overline
p5
pawn
plvl
prefilter
preprocessors
provisioner
pyclass
radical
rcvd
recieved
ros
shake
stimuli
styling
swarmid
taskinstance
tess
tmins
tmplt
unauthenticated
unravel
untagged
vararg
varbind
vmag
wu
xmltodict
##dates
##ecret
##handlers
##imeout
##importer
##lity
##lude
##ories
##privatekey
##tics
##u0
##─
0th
1995
acorn
anyconfig
borrow
bzip2
cdict
charged
coco
color1
csum
cvals
date1
deadlock
dim1
disambiguation
dividends
emissions
emptyvalueerror
ffffff
filer
flare
fle
forwarder
fundamental
genres
geocoding
gethostbyname
grd
greatest
hydrate
idy
inducing
infohash
investigate
ipy
itemlist
jsonp
label1
legends
lics
listings
lport
lsctables
makeapicall
mim
mongos
motions
msvc
multicolumn
natsort
ntype
pagerank
pathlike
portable
portals
prn
real32
responded
rulebook
sdir
severe
spend
spg
torque
trackers
typeof
updateresults
ups
upto
vnd
watts
wg
wheres
wherever
whoosh
zn
##chains
##ches
##coding
##conditions
##d1
##ensity
##fm
##genome
##helpers
##median
##mes
##ony
##otal
##oto
##png
##tf
##tu
##uote
##written
003
6e
arff
autoload
azurerm
badly
ban
bell
binhierarchysession
bootstrapping
constr
cps
crumb
dateoffset
dbfile
defval
dossier
dotenv
dps
eco
enroll
factorize
french
getfile
getparams
hash160
hashers
herald
homo
hotp
hwm
i386
icol
incrementing
induced
instring
ioticagent
isalive
isoform
jamfile
jmag
jss
kaiser
lms
lowpass
machinery
marginals
matchdict
measuring
miscellaneous
newdict
nonzeros
nparams
organize
pld
progs
purviews
pvlan
raxml
reconnecting
renamer
replacer
sefiles
sensations
shakemap
soc
stepping
stringvalue
summing
thresholding
tmaxs
toolkits
trapz
vcx
voigt
xdum
xpaths
xq
zval
##arts
##assword
##chan
##escriptor
##fastq
##ilt
##lter
##partitions
##plugins
##rim
##rst
##tests
1997
2x2
64bit
absorption
ambiguity
ancestral
apidoc
ar1
autoescape
azi
b6
begidx
calendars
cis
contingency
corruption
dam
feeding
gated
gathering
gemeente
geohash
hasgraph
ies
imbalance
intentionally
iplot
layer2
lenient
mpa
objectify
odata
osr
panos
payee
pit
procopts
pronac
propertylist
psy
pulsar
qstring
revo
rhp
rtarget
sctx
seidel
seqno
slitlet2d
sox
supplement
sysinfo
titlesize
transcriptome
trc
tweak
vmwareapierror
voxelspacing
withscores
xsb
##2s
##atoms
##az
##coordinate
##ddress
##ederror
##ek
##ett
##figure
##fraction
##fx
##heta
##hip
##interfaceid
##mble
##mine
##most
##odo
##onic
##onv
##palette
##plots
##roid
##screen
##tablename
##yer
##가
119
375
ampl
analogous
asyncresult
cafile
certify
clientexception
crossflow
crossings
epdsmooth
fba
finishing
fromhex
gbif
gravatar
gsshapy
hdlr
inequality
instantaneous
journals
ky
legislator
lightweight
locality
loge
losing
lpar
mask2
maskedarray
mss
nearly
nicks
numobjects
pagerduty
pbclient
plexapi
presumably
prompted
pyeapi
rdkit
rebuilt
refname
rpr
scoping
seeing
skin
specials
spinbox
spinnaker
sponsor
subtags
swf
tsig
vadm
vmodl
voxelsize
wigs
wouldn
wvl
xsrf
##700
##bam
##constants
##datatype
##diffs
##dimension
##exe
##fld
##fromfile
##hart
##hour
##i2
##iting
##oon
##predicate
##ption
##remove
##rse
##safe
##sf
##varbinds
##vity
103
104
4th
accents
arranged
banned
binwidth
cargs
carray
carts
cgmlst
destroys
dictupdate
drill
encrypts
entityid
extinfo
firstline
fitnesses
flatnonzero
glon
gpr
hops
inchi
incomedstn
incompatibility
inliner
integrals
july
keytab
langle
libsvm
loadbalancers
logins
lognormal
mangled
minified
num2
ogg
oxidation
pargs
pbc
pyyaml
qualify
rede
revealed
rml
rpcexception
sampleid
savefolder
schemata
schunk
seeded
semitones
servicebus
setfocus
setfont
spice
told
untracked
upstart
visiting
vmguestlib
wiot
writeback
x12
xunit
##accuracy
##ama
##ataset
##ators
##dp
##draw
##elim
##eriod
##fall
##git
##guide
##ifiable
##indicator
##inst
##ional
##null
##ointer
##regressor
##trigger
##ynapses
3166
a5
aes256
algebraic
angstroms
arthur
atan
baselines
blockade
canned
casted
choi
contextmanager
curframe
damage
ddd
declaring
decorating
diccnfg
displaced
extractions
field2
fox
fsq
hashtag
inrec
introduce
iodp
levelno
lifted
log1p
longs
lstsq
macromodulations
massf
maxcount
mdict
metawargs
moderate
namely
nsm
nusselt
originals
outgroup
pc2
pelican
percolation
permits
poling
psiturk
ptm
rays
reinit
rolls
signame
substitutes
subsystems
suds
thought
tracebacks
tstate
twine
vcpu
writestr
yu
##ald
##bottom
##energy
##f1
##fold
##indexer
##lens
##logical
##operand
##p2
##redirect
##rime
##seqs
##tify
##ually
101325
406
abinit
algos
appbuilder
atcg
b2a
blastn
bse
cfgfile
cfgname
clang
continuously
crashed
crate
cxn
datestamp
deserializes
disorder
drone
group2
iexact
indice
infodict
isotropic
joblib
lcm
liveform
livvkit
mask1
membrane
mev
mmd
modbus
mvgd
navigator
ndv
nipap
numexpr
odds
oligo
outfn
outstring
paramdict
pdir
planned
polypeptide
principle
qop
relational
releasing
rollaxis
screenshots
seebeck
sigma0
subdivision
tco
tdist
time1
timevalue
translating
treating
vac
xj
xlabels
zfile
zrec
##applet
##debug
##ervers
##experiment
##ford
##hours
##lan
##lane
##ln
##loud
##ncies
##notsupported
##oin
##ology
##peak
##permanence
##pol
##sky
##ured
##usion
##vo
0x03
123456
315
a95
allobjects
allowance
annealing
annotdf
apm
arrives
atrm
augmenters
avr
bluetooth
bnds
censoring
certificado
cinder
codegen
contextkey
cpath
ctm
datacats
depot
displacements
dockermap
dotdict
ease
ecell4
embd
enzyme
favicon
fieldlist
floattensor
gecko
hope
hpd
i3status
interpolating
karma
keyfunc
keypressevent
kurtosis
l2traceroute
lbaas
liquidacion
makeelement
materialize
mavproxy
merely
mimic
modelids
msd
multicolors
multinomial
neurokit
normalizations
occu
openjp2
outbox
pagetoken
paramters
pascal
payout
pileup
pyvex
quotas
rfc1902
sake
sdx
setdaemon
solaris
statsmgr
stmtpassthrough
stratum
swhlab
sysex
territory
threadsafe
toggles
tss
typecheck
upsample
vols
vtor
wakeup
warns
whl
worlds
##2int
##animation
##ari
##ater
##atio
##average
##bm
##d3
##dk
##eats
##example
##final
##fromstring
##hard
##house
##ino
##iterable
##magic
##mds
##o2
##ogger
##p1
##pect
##permissions
##rable
##rts
##tabs
##tte
##vable
234
3g
509
8bit
additionalproperties
analizar
apy
bestperiod
boxplot
bye
congress
dang
decrypts
dilated
dy0
eaf
emotion
encapsulate
enqueued
ewp
examined
fallbacks
flats
floatvalue
forming
genfromtxt
geometrytype
gumbel
handy
heartbeats
james
maintaining
mambu
metaph
onion
paga
parseresult
passwordless
pers
phoneme
postag
pstats
publishes
pydevd
redshifts
refused
resampler
resids
resourceadminsession
resrec
rootfs
runmetadata
runncfg
saltutil
savepoint
seismogenic
sighup
ssdb
strlen
timegrid
torito
uidentity
vh
worse
ysize
zdata
##500
##artifact
##beta1
##ethod
##holder
##lineno
##los
##mu
##pecification
##policies
##ruct
##sible
##ums
##ung
asts
authorizations
bipartite
blockid
boxsizer
decider
deltaf
diseases
dynaconf
egy
equivalents
fundamentals
gnome
group1
gvalue
hitting
icp
iinfo
indexof
ipv4network
ish
lil
louvain
mcu
mmol
nblocks
noreply
oaep
observ
ocr
optionals
ordererror
ospfv3
outdata
partitioner
pedalboard
prng
propertyname
purl
reactant
readdword
recycle
redfish
reductions
removals
replykeyboardremove
retweet
rol
rssi
samprecs
satisfying
savgol
schm
serialnumber
sha224
shapetype
shifting
spatialreferenceid
springer
standarderror
step1
subdivisions
subnetid
threadpoolexecutor
tolerate
tooltips
uninstalled
unserialize
userrole
vehid
voting
warned
wlan
xmatch
ysv
##angles
##backup
##configurationerror
##e4
##ede
##icks
##ionerror
##mismatch
##modes
##ows
##pdb
##platform
##pn
##prompt
##tal
##tos
##tostring
011
298
aio
asname
augmentation
backprop
benchmarks
binop
biotype
blocklistregexes
bro
cfgs
chempot
chunker
clearsky
cm2
consens
deformation
detailedresponse
ehlo
eventobject
finance
generatortype
getkey
getsource
ho
hset
icontains
intact
iopub
isotopic
ival
kbs
lcl
ldots
linecache
lookuptype
lrr
mappers
meetup
millisecond
modelclass
morsel
multithread
nib
omegas
ostype
ovf
peps
phdr
polyfit
postconditions
poster
reliability
returndict
rsid
segmenter
sessionmaker
shelve
shtools
simplest
snptr
sourcetype
stands
thai
timepoint
topleft
tre
unparse
unreleased
variety
vcpus
wiley
yg
##004
##2x
##ctr
##dct
##defn
##erge
##fe
##inj
##ker
##kes
##logging
##lution
##nte
##roject
##slice
##tems
##turn
##windows
1021
adderrback
agl
allelic
auditlog
bert
buid
catchments
changesets
cibfile
clausetokens
collaboration
collaborators
committing
cust
dbn
december
delegated
essay
exog
forcibly
gauged
groupings
gvc
identificador
iglob
impedance
inspire
ipos
june
lastmodified
ldap3
lsa
macroname
mmin
multiclass
netaddr
numfeatures
occurance
orchestration
outputter
parametername
participating
persona
pfmethods
piped
prandtl
preventing
pymol
qpoints
qsub
ranging
rawdict
redist
rolled
rqst
sendmessage
src1
sugar
syl
tasklogger
templated
trx
u3
user32
userids
vlist
webdav
win32con
xoff
##ario
##continue
##declaration
##ignore
##lier
##lux
##mock
##reak
##seed
##seg
##surface
##tein
##typ
##views
##xyz
148
approximated
attribution
bitstrings
boss
bucketing
chromedriver
ckeys
computers
concentrations
crosses
d4
data3
dax
dcs
declares
deconvolution
dragged
duck
encrypting
enode
exceeding
fileitem
fips
food
granule
halted
hresult
hsm
inflation
iso3
label2
lambda2
medias
morning
negotiated
newlist
occupation
pam
pathext
pctid
pdict
placemark
ppid
proceeding
rcpt
realization
receipts
reschedule
resourceexpired
resourcenotfounderror
runtimeglobals
searchpath
serovar
shareid
stashed
submod
tagc
tchannel
test1
tolayer
upwards
vconf
vnc
watson
webcomment
yps
zm
zoning
##ads
##asks
##asset
##beam
##coordinates
##das
##decorator
##display
##egion
##ension
##gw
##histogram
##ific
##ility
##mid
##nds
##nstance
##pre
##room
##ssl
##t00
##tract
##tric
##uce
##uda
##utes
000001
0x0f
15000
1994
2500
320
625
accounted
arrived
authtoken
avatars
axial
baremetal
begsam
collaborator
complementary
compoundid
configurator
curated
deleter
distributor
dmg
dtu
expname
fastqfiles
fbc
fieldset
fitz
flange
france
getfield
golang
greenlets
gremlin
holdout
inpt
inters
jsonobject
lay
ldate
lenght
measrecs
mlx
netifaces
nfiles
nll
nps
numcells
obfn
operationtimeout
orrec
otgw
partitioners
paula
planets
pyl
pythonic
pytypes
relaxed
restapi
rotational
serror
sersic
sgr
shepherd
slt
sortkey
src2
starmap
stitch
subtokens
tetra
todate
touches
transporterror
uz
v2016
valuename
vista
voq
xapian
##adding
##ank
##ared
##bands
##cao
##cards
##chat
##circle
##dicts
##dis
##eter
##inel
##iser
##parseexception
##pickle
##place
##split
##ueue
##walk
##wr
199
advisor
aij
anchored
arima
arraytype
athread
audiosegment
authc
bsize
charac
circumstances
collide
committor
copyfrom
createdataframe
director
disco
equalities
gae
geodesic
inferenceelement
intrinsics
ipdb
laplace
lexers
mcgraw
mortem
msecs
msk
mymodel
n4
namer
napps
networkerror
neuroml
obsnme
oneview
openjpeg
ordet
pest
phones
poe
printstr
procname
prtfmt
pusher
receivable
recommendation
reindexed
relocated
removehandler
resulted
reverses
rulename
runway
sata
setters
simulates
strcmd
strm
subscripts
taskerror
tlsv1
topython
uloverlayhandle
unequal
uy
vdm
vehicles
zfin
##ade
##caller
##fetch
##fits
##idate
##iki
##ject
##libs
##omment
##ounds
##precision
##present
##quit
##ube
##usb
##wk
a6
absl
acr
apertures
autonomous
axisn
bpf
checkin
cimxmlparseerror
confound
dagger
darcy
dbscan
dbxref
decipher
deeptools
deparsed
dsm
equip
failhard
fnm
frr
gammaln
goodbye
gravitational
hwaddr
infra
iupac
j0
keygen
kwonly
literalinclude
logbook
lognorm
mssql
multilevel
newfile
nocache
northern
np2
numa
objlist
parentitem
percolator
peri
perp
piv
pmax
predictors
pxx
pyephem
pyo
pyvisa
qkeysequence
qmax
raiseerror
reactionner
reception
rmlst
savez
servicegroups
setupdatesenabled
sngl
streamlet
swi
targetdir
understanding
unseen
urlpath
wireframe
wireless
word1
##ae
##cheduler
##decodeerror
##efinition
##fds
##gradient
##guard
##icator
##iro
##keywords
##lower
##ming
##mit
##nabled
##ntry
##oe
##onst
##osable
##pty
##rans
##receiver
##thresh
010
10000000
16384
221
422
6379
999999
anoms
antennas
appsettings
arches
ascent
awslimit
baseuri
bills
boots
box1
broadcastable
castling
ccrs
ch2
channelidentifiers
dictconfig
dies
dihedrals
dpid
frametype
gaap
glm
gridded
hfos
hierarchies
hmap
idat
igraph
indxc
informs
intbv
ipcluster
jdbc
jms
lecture
lits
logf
midpoints
mincount
muoa
ndex
ndpointer
nodeids
noncumulative
onchain
outputpath
oxm
pfn
phonopy
pingouin
pooled
precompute
pyamf
pyarrow
rejects
sanger
selective
setstate
sino
struct1
structtype
stupid
tra
typo
unblock
versioninfo
viridis
winfile
witnesses
yara
youku
ysb
zscale
##atics
##bjects
##cies
##decrement
##eba
##eft
##filled
##gm
##hh
##k1
##mpty
##ocate
##olution
##priority
##regexp
##representations
##rolearn
##sat
##tfile
##wl
0x08
1x
accu
ajuste
allowlistregexes
annulus
beforehand
blurring
bmc
boosted
ckw
columncount
columnindex
curve2
cyg
decoy
defensive
dfile
distr
eigs
end2
eqdata
erased
exitstatus
fecha
flen
fqqqq
framed
ftimes
geoid
hetero
hmet
inspecting
isset
lagged
linktype
lval
mailing
marshaller
modeladmin
mws
numrows
nvim
optimizers
ostr
pefile
plugs
positioning
querydict
rbenv
recip
referrers
repr4
resourcegroups
rgs
rsrc
ruler
settextcursor
shutitsendspec
sp2
splay
stated
stemmed
stilde
stringtype
subclassing
synphot
teneto
tens
tfm
tokenkind
treewidget
typekind
typestr
unidecode
unnorm
unrecognised
unyt
upserted
volts
vrs
wic
yacms
##800
##aft
##cont
##counters
##ections
##ects
##eth
##executable
##ifies
##isk
##lots
##nown
##nps
##pd
##random
##retries
##team
##ubject
##ules
##ups
##warnings
ac1
anion
approvals
automaton
bargraph
box2
caveats
ch1
clam
clicking
codeobj
codestr
databasename
dbm
ddict
delaunay
disagg
extractors
fastpath
faults
flushes
forked
fsync
genl
getdoc
gigabitethernet
httpheaders
hypot
inferencetype
injects
installations
invalidfield
ismodule
istr
ixpeaks
jsonl
justification
kit
layer1
lineup
logicalid
lsf
mining
n50
nbl
newvalues
november
numcols
numeral
nwalkers
ostream
passband
pdbs
preflight
province
pstate
pybroadexception
quest
refimage
relocation
respecting
resumed
reusing
rfft
rpn
s5
scen
searchstring
setflags
sieve
soco
solo
sparsetensor
storageentity
tbs
trafos
unencrypted
vcfs
vest
wfk
wheresql
wont
x03
yout
##2dict
##ctrl
##effect
##entropy
##geo
##hc
##ialized
##ickle
##iso
##ith
##ko
##lengths
##matic
##oth
##patherror
##xes
115
212
456
802
accented
acdd
activationthreshold
adult
aggfunc
annoying
appeared
artwork
awk
axessubplot
baton
behaviors
bestfit
bla
blind
borrowed
broadcasts
bvv
certainly
cluster1
coercion
colr
cortical
crds
crv
decayed
destruction
determinant
dilations
dim2
divs
dollars
epi
equatorial
fairly
fused
gbc
gettoolbyname
gsea
hashfunc
heappush
inflow
iscoroutinefunction
jython
leaky
leverage
lfn
lfs
lime
lmm
localpart
lsrc
m8
maximized
mcast
middlewares
mls
nkor
notspecified
nov
nuclear
obmol
owm
pattr
pc1
pmc
podcast
prepostprocess
prom
puzzle
pvalues
rdap
redact
remotepath
rownum
safari
sailthru
scala
secured
separates
shading
silhouette
simplicial
slh
specrecs
step2
stime
strictredis
tectonic
telescope
toolbars
tutor
und
undeclared
unloaded
ver1
vswitches
wavefunction
wider
word2
wwn
xbin
xterm
znum
##020
##2pix
##airs
##aligned
##arameter
##cam
##confidence
##d2
##icated
##jar
##lets
##modifier
##multi
##tb
##uch
##umn
##v6
##viz
0x3
117
artifactory
avl
bld
blist
blues
buildings
caret
casing
categorize
cmu
contenthandler
cuuid
din
dingos
djangoproject
djstripe
dkim
dstack
dvc
epsilons
erosion
fargs
filesystemloader
flushing
gdt
getcode
globbing
gpuarray
gunzip
hslice
keepit
libnl3
maxline
memoization
minimise
mtd
neon
newfunc
nix
ontologies
ours
p2sh
patients
pdb2
pixbuf
praw
psms
qmenu
qstr
qtls
rated
resnr
rudder
serialised
sitename
ssim
stringified
struct2
textbox
tfs
thom311
throwing
tostr
tsn
typevar
uncle
vocabs
voltages
waveset
wchar
ystep
zombie
zsv
##2000
##assistant
##bars
##choices
##conds
##dent
##directive
##eded
##ended
##fitter
##frequency
##idget
##iones
##iot
##itation
##ody
##oke
##pathspec
##redis
##remoterelieve
##tator
##uint32
##visible
##weekday
##x3
129
207
257
260
amplicon
aromatic
artificial
bakery
bcast
bij
ble
bonded
cascading
charfield
chemicals
cimclass
commercial
commodity
comply
composites
covalent
crpix
currenttext
datashape
decorates
dfr
dlp
doctests
dstart
estnltk
excitatory
feval
fhir
fromdate
funs
gadget
gffile
grasp
haversine
helptext
hsum
httpnotfound
igmps
imply
indefinite
inhibitory
introspect
invalidoperation
iobj
ipv6network
isdst
jobtype
joker
lineterminator
listtype
lvs
modelform
netin
objkey
oops
owning
p12
pauliterm
pertaining
plm
pobj
preexec
puppet
pvlib
py3status
qpoint
rawconfigparser
rdist
recordset
referral
reversing
rport
rti
shrinkage
signalsblocked
slowest
snaps
srf
strname
subnetwork
summarized
test2
textio
thisdict
tuned
utf16
vaddr
variantset
vdn
ver2
veth
vox
xidx
zabransky
않았습니다
##boxes
##c3
##erent
##fee
##gan
##ionary
##lasses
##odels
##ood
##osite
##override
##packages
##pb
##psd
##roll
##ros
##selector
##shell
##tory
##ven
##я
00z
107
1800
384
501
agricultural
alat
ambig
binarytree
blanket
canonic
canonicalized
cbctx
cdef
cdr
cnts
colno
compulsory
consistently
dbcon
diffusivity
downsampled
eagerly
eids
exce
exempt
finders
fird
fitparams
flagvalues
greeting
han
hyperplane
idrac
incorporate
inequalities
interprets
islands
kraken
kwonlyargs
labelpad
len1
libxml2
mahalanobis
mant
mappable
meso
mesos
meteor
nats
nextpagetoken
nmf
oos
optimiser
outputfilename
parler
persists
pj
practical
preceeding
propose
psl
pyblish
rat
relying
rendition
resourcescenario
robj
scanners
sen
shape1
showmessage
slp
smoothness
sons
spdxvalueerror
steamid
supergroup
swapping
taxonomies
tel
tfi
thesis
ticksize
timesheet
topicpartition
toto
trough
ttd
tzid
u2f
uint256
unassign
unclaimed
upscale
utilize
wallets
yacc
yl
입력되지
##ableerror
##branches
##checksum
##codec
##e6
##idad
##idxs
##install
##internalerror
##kill
##limitexceeded
##lish
##mods
##omain
##processing
##qp
##quare
##redshift
16s
206
adsb
advapi32
aircraft
alpha2
backport
bessel
bike
boilerplate
bootloader
breakpointgraph
carto
casesensitive
censor
chi1
cpuset
dataformat
decorations
desirable
distinction
dmtf
droplets
dsk
eigvec
fdel
filedir
filterquery
fiot
gifs
glib
gridsearch
holdings
incrementally
ipv
ipyrad
itertuples
jrdd
knee
kpt
lap
lbview
limix
lincomb
lrec
mackup
maglim
monomials
mother
naam
nak
netfn
nonpadding
nonterminals
num1
outlist
phi0
pnt
policer
postprocessing
prereq
privmsg
prohibited
providedby
pysynphot
replicaset
rethinkdb
rforce
rfree
richness
scriptworker
sdm
seller
serverid
shapelets
sourceforge
sp1
sshd
stackname
tableid
transmat
tris
tsp
ttconf
type2
unqualified
warped
wordnet
x20
xarr
xsun
ylabels
##ands
##assembly
##bytestream
##cribed
##eatures
##etic
##extensions
##installed
##keyid
##lor
##lust
##protocolerror
##ren
##roto
##shot
##train
##tune
##ubs
##wx
10e
210
aaaa
alters
analogy
audiences
backenderror
bloch
calibrations
cdb
chgcar
childitems
cloudtrail
collab
complextype
concatenates
curv
deconv
delimit
dialing
dielectric
discards
dynamicmap
edt
euuid
exposing
feather
fedmsg
fftshift
fidelity
filemanager
flavour
fltr
frameworks
gib
grps
hotttnesss
hprocess
hyst
inserttext
installrequirement
instructure
ipmag
ipsec
iu
kmskeyid
lft
linearity
logscale
maildir
mfile
minimizes
mintransitduration
mixtures
mrf
nifti1image
niterations
nugget
obstory
oldvalue
omitting
optimizing
participation
pauses
peddy
perfectly
phis
pings
posargs
postprocessor
ppc
pyregion
pytodoist
pyver
qtewidget
qutip
rawmessage
recoverable
refinement
rekey
resourcepath
rperi
ruamel
september
softplus
spout
stems
stetson
stochastics
string1
suggests
taskpaper
tdict
temporarydirectory
tenants
transmissions
unsure
versioneer
vevent
wght
wilson
wkb
yval
##2rgb
##capabilities
##connector
##envelope
##eventhandler
##ference
##ffff
##fier
##gd
##ias
##lexer
##namelist
##naoexisteerror
##nest
##party
##pct
##qc
##rade
##ruler
##sizes
##spy
##structure
##ths
##treams
##ww
012
1080
109
30000
aliasing
apache2
authenticationfailed
badreaderparamserror
beams
bfill
bma
brk
cacher
campaigns
carefully
closely
conditioned
contacted
ctcp
ctfile
curve1
dataobject
destructive
deviance
deviceinfo
disassociate
disqus
dlf
dra
dunder
edata
editions
encodable
endsam
enters
erf
ferrs
finalizers
flopy
fromjson
fullyconnected
geolocation
getattrwithfallback
growing
guilds
helmholtz
htmldomelement
iio
image1
improper
ingestion
instid
invasion
ipv4address
kh
kinematic
legion
lml
locators
mbr
minimizing
modeldefinition
mons
mrc
msun
multiplewords
multipoint
mustache
nexml
nlh
nlt
npartitions
nperseg
nrec
offensive
outbuf
outlook
pathnames
planck
pressures
pygit2
rarely
recal
recnum
reponse
rhoc
rowkey
rtmp
sac
satoshi
seasons
setlabel
seven
simplicity
sit
sought
specshow
statustext
stochasticparameter
strel
symmop
temporaryfile
testgroup
threatconnect
tissue
ttk
uefi
ulog
upperbound
v23c
valences
vao
vline
zypper
##capture
##cts
##dem
##erv
##illa
##las
##okens
##plitter
##quotes
##tatic
##tings
##tis
##watch
1002
ac2
acceptors
adm
audits
autograd
backrefs
base64url
binarize
biological
c12
cab
ckey
companion
connectivities
contactgroup
contentitem
cudnn
ddthh
debuglevel
decompression
delorean
deltax
deltay
dxy
dylib
dz0
einval
entitlement
entrypoints
eot
epsrel
erode
ersamprec
explanations
feel
getuid
gq
highlighter
hklm
iline
illumina
jonloyens
lago
latching
linalgerror
lob
loglik
megabytes
multiplicative
mydict
nomad
oauth2client
objectivebank
operandsize
pathobj
pax
plotrec
psds
psyplot
purity
rad2deg
rediserror
reflectance
reimplemented
resourceform
resuming
roaming
salesforce
scrapy
seeding
setdiff1d
showname
sidecar
slitlets
snames
solidity
solute
streamsx
sum1
sum2
survivors
tablespace
tees
time2
toa
traded
treq
unpublish
vanilla
vsctl
xattr
xen
xsv
ydim
##ados
##bly
##descr
##digest
##ecurity
##fns
##glw
##http
##icate
##ises
##jan
##kt
##lled
##lookuperror
##multiple
##polydata
##solve
##tet
##transformer
##ves
##vj
##years
##yellow
136
169
175
1980
3p
5m
cognito
cputime
createstatement
csvwriter
cylinders
decdeg
dependant
digitize
discretization
doubled
dx2
fcr
fortygigabitethernet
fsp
gnupghome
healpy
hstore
idempotency
improves
incx
ipsum
irow
jlinkarm
jmp
joinsplit
jsondict
livestate
lspmethod
marching
memories
metabolic
metaknowledge
microdrop
mindepth
modalities
mpv
msmtools
multiplies
nam
nansum
natively
nds2
nnp
notifies
nstep
nstr
ntseq
obscov
octaves
offering
orbpop
outcar
outpoint
park
pmags
programmer
psi2
pymc
qrcode
releaser
rhypo
rmq
rtdc
schd
segyio
simulationstep
skw
spectator
stata
supplies
surrogateescape
tdms
ternary
tesseract
timestart
todolist
tomodir
tpot
trims
tsize
ttt
tun
tval
uda
ungrouped
unhealthy
unpublished
uw
x6
zsun
##attributenames
##authenticationerror
##cky
##datastore
##disabled
##eger
##etter
##extent
##hunk
##ister
##latitude
##lds
##pixel
##printer
##pub
##rar
##raster
##representation
##stmt
##ught
##while
##white
##ы
004
108
accelerated
acgt
ain
anaconda
autofreq
autoincrement
bee
bfloat16
bone
booking
businput
codebook
cognitiveservices
collided
conduit
configvalue
csiszar
deltapix
discretize
dsub
elementary
emd
endindex
ethertype
evidences
faulty
feb
fuel
furthermore
fva
gradf
gvcf
hangouts
hexa
inferences
inferring
inodes
intraday
isalnum
jackknife
jsd
khz
leastsq
liquids
massrangeparams
mdn
measurementid
naarad
nbestlspvals
ncall
notch
nspace
nt2num
otf
outsr
outward
pairings
phlat
planning
ppr
pubkeys
publishers
pyvlx
qobject
quadrant
quux
rc4
reagent
requisites
reviewers
rowdata
runtimeconfiguration
scss
scwrl
settable
simgr
stanzas
strelka
subfunction
supplemental
synt
t5
tableclass
tomcat
uncorrected
unitcell
waitpid
weka
winrm
x04
xrb
yhat
yidx
zipinfo
zsb
##allowed
##ara
##black
##city
##community
##erson
##exceeded
##explorer
##highlight
##hood
##ibilities
##igned
##iterations
##latex
##mic
##ological
##onfigured
##probe
##pv
##rams
##t10
##til
##tiles
##ubscription
##urity
advances
aegeantools
affiliations
approaches
attr1
autogenerated
avoided
awaiting
cbpdn
chipset
ck2004
cosphi
cpuinfo
crops
csets
dagrun
definer
divides
empties
emr
firstchild
fluorescence
footnotes
getlocaltempdir
getstate
gitlabauthenticationerror
grabbing
graphdef
harm
hbar
heightmap
honeypot
humans
institutes
jobnode
jsid
landmark
listens
managedobject
mch
melt
minkowski
mirna
mma
munge
ndarrayflags
nif
nnn
nphasebins
ntimes
numtype
nwk
oa
objectpath
openssh
outputformat
overloading
palindrome
pecan
portgroups
postpone
prototxt
qwe
radeg
redownload
referenceset
requestor
reschain
revenus
rfftn
rowidx
sceneid
scriptable
sia
sinphi
snapper
snmpdispatcher
splited
st2
subfeature
subtasks
summer
supernova
svalue
systemerror
t2t
tabpost2tag
telegrambotrpcrequest
tlobject
topicarn
transparently
ufuncs
uncommitted
unusable
usgs
varpar
virtualname
wgs
wgt
wintypes
##1x
##600
##ains
##ality
##analyzer
##ani
##b0
##bolic
##chedule
##detector
##dll
##ements
##erf
##erve
##f8
##fileerror
##grams
##hu
##ibly
##itable
##n2
##prime
##rise
##sibling
##tot
##transactions
##wire
##wkt
##yro
##yy
015
1e10
500000
8e
addchildjobfn
admm
assistants
attributevaluelist
auth0
bayesianmodel
bem
biopax
burlap
cgc
clickable
cluster2
cons3rt
crude
cstringio
curved
cxy
dateformat
dbref
depthimage
diags
dlog
doubling
elliptical
enlarge
equalizer
facilities
feedforward
folia
freevars
gpa
grafana
gst
halting
hmag
hom
informational
islower
iva
jy
keycodes
keylen
landmarks
leaders
lighter
lpath
mae
miles
newx
numrecords
obfuscated
opus
ordinate
ortholog
parallelization
pcount
permuted
pexdoc
pgid
postgis
ptbl
pysv
pz
qasm
qe
qlineedit
readouts
recomb
registrar
renormalize
reproject
resfile
rps
sanic
saying
setoption
simplification
sshclient
staffmember
subsampled
suspect
takeoff
techniques
telling
testcases
timestring
u32
ucsmsdk
uncles
une
unreadable
unscoped
ves
viterbi
zeroormore
##analyses
##answer
##classification
##colon
##dbconn
##eparator
##gy
##httprequest
##hy
##llow
##olver
##omatic
##ppy
##sw
##terminal
##tolerance
##uity
##widgetitem
100m
1px
205
60000
accessors
acyclic
authed
autoreload
axe
backupcount
basket
bpdu
brd
bspline
cern
clearly
clocks
cltk
cmdclass
currrec
cve
datadog
dendrite
dfu
diaspora
disclaimer
dockercfg
emitting
eventhub
explaining
extnum
fakeret
fifth
filterscript
flatmap
floatparameter
foldername
ftol
gev
government
grrmessage
honor
impala
industry
infolist
ingoing
initiating
intervention
involving
kds
lanes
level1
linearoperator
meridional
mktemp
nbin
nbunch
newstate
nframes
nquad
nsprefix
nsuri
nunique
organic
pale
paleodata
partners
prepped
purely
rdatatype
rdp
refdata
resultlist
retina
rio
securityconst
serviceid
shakedown
sld
sniffer
sth
streamlink
swday
tuids
unittypeid
usepackage
vir
vmpolicy
vslc
wmgmap
xycoords
##00000000
##0001
##3333
##a0
##ambda
##atives
##barriers
##bid
##coverage
##encrypted
##filehandler
##growthcandidates
##hierarchydesignsession
##ially
##inspector
##itted
##lusion
##mz
##nter
##ollection
##prf
##ptions
##pwd
##roups
##s3
##sms
##sur
##ties
##tors
##zzy
##м
0d
1b
252
345
activating
advertisement
alarmdecoder
approver
arcseconds
bake
biosample
block1
boxed
cart2dir
cmdname
codewords
colorized
comp1
cprofile
datadf
dataout
dayofyear
dbinstance
dell
devname
distributionnotfound
dob
dout
dropzone
edgecolors
encapsulated
ewday
facilitate
fieldmanager
figname
fileexistserror
fitsfile
flipping
fspath
geomagia
go2color
grapheme
hget
hurst
identically
illum
jones
lapack
lateral
materialized
maxage
mbed
medial
mintime
nblock
newfilename
ngp
normr
nucs
ocrd
opensearch
opset
optdict
pfa
pgv
polres
polylines
prioritize
pronunciation
qpushbutton
rcond
readpreference
recomputed
releasetype
requestdata
rfi
rgx
rip
rlzi
rnaseq
runinfo
s3url
sco
sees
setwindowtitle
socktype
sonar
spath
stix
storeid
tet
typeattr
unconfirmed
unhashable
unkown
vgg
visession
vvv
wether
workgroup
wpanctl
xw
yamlfile
yarr
ylabelsize
##2index
##a3
##abc
##anchor
##apath
##backgroundcolour
##bing
##bunch
##cene
##centre
##coeff
##course
##double
##egex
##elt
##ever
##ffffff
##gged
##identifiers
##lose
##mages
##menuitem
##more
##needed
##ontroller
##ook
##ope
##orientation
##paces
##parents
##peer
##percentile
##press
##qt
##steps
##su
##tamps
##toolbar
##translation
##uild
##weep
##zy
8443
advancedtag
appearing
araiblock
argumentdefaultshelpformatter
arista
asa
aton
binarycomposition
compresslevel
cseq
dados
dampening
databox
datecreated
dstpath
dxfile
e4
edg
elmo
enforces
fav
fen
fks
flexibility
forgot
geographical
geomdlexception
gql
hal
hazards
hostedzone
hostkey
ifilter
igrf
introns
keydown
knowing
kper
libpath
lmap
logentries
lowering
luminance
mails
marcxml
maxnlocator
minfreq
mirrored
mrk
multigraph
multiscale
neuralnetwork
nhwc
noon
numina
nval
ocs
parametervalue
passmanager
pointcut
pols
pplan
precisely
principals
proceedings
pycodestyle
pydev
pyrtlerror
pytables
qml
reprs
responseinfo
rural
sc2
scriptsig
snt
stokes
strat
striplog
submissionid
subsurface
talent
tasmin
timebase
ug
uh
unambiguous
utctimetuple
vlen
vmini
vw
watchlist
wql
xcol
xlabelsize
zonecfg
##2gene
##accounts
##adius
##arrow
##cmap
##country
##craft
##fine
##gable
##huffle
##ides
##nuc
##ocess
##ormal
##periods
##plex
##requested
##rerror
##rho
##rie
##rogram
##rx
##sensor
##setup
##sv
##tance
##thickness
##ution
##writable
0x1f
145
153
99999
accessions
addfile
aligning
archivo
asserted
asserttype
begining
bestassemblyfile
bkpars
bowtie
buck
cancelling
classtype
combinator
cram
d2r
dataworld
decompressor
dtls
dx1
ecdh
eci
elecs
elem1
ellipsoids
faked
faq
fare
fernet
getdatatypemap
getsizeof
glove
hbonds
helices
hunts
hydra
ieq
imputed
includequalifiers
isrequired
keynames
loadings
ltype
lweka
marginalized
markings
marshall
modstart
nadir
nobody
odm
oldobj
ole
ouput
outputting
partitionkey
paypal
pfile
pgm
porttype
prettyprint
probabilistic
propagationpolicy
psp
pws
recfrac
reroot
reside
resultclass
scopus
secp256k1
semimajor
shaping
siterecs
sizehint
skyview
sloppy
spacegroup
sparkline
spliced
splicing
ssml
stringtable
superop
taxonomic
tensorproto
trending
trilegal
umount
unconditional
uniquename
unusual
urlunsplit
usuario
valuelist
wattributes
weapon
webservice
x7
xmlfile
xmlparser
xpix
xview
##2array
##4j
##actory
##ayout
##download
##eds
##etrics
##finding
##gas
##hain
##hannel
##hed
##hic
##isp
##itude
##mdl
##perms
##pixmap
##q1
##radiusarcsec
##raints
##relations
##sn
##tau
##this
##uire
##until
##urrence
##variance
##varint
000e
047
144
151
accordance
achievements
amqplink
anis
apiurl
argstring
arma
bgen
bunq
collateral
configpath
connectionclosed
cryst
daap
devicetype
devip
dinf
dirint
dnx
dsets
dt1
dvalue
emojis
endline
endog
falsy
fastas
fitinfo
fret
fws
har
hexbin
holomap
idhash
inframe
injecting
involve
isprint
lambd
lasti
lavalink
ldtpserverexception
logw
lowerbound
lstat
macaddress
maxn
methodology
mibname
modelmags
mrz
msgbox
nbf
neu
nl80211
nlayers
normfunc
noteid
nvmlcheckreturn
opsworks
orbfit
orderings
pas
perfdata
qmin
qteadmin
rawr
readgroupset
realized
rebound
refactoring
refobjinter
regularly
resourcebinsession
retracted
rrs
samplefreq
savestate
sdram
secur32const
segmentlistdict
sendable
shopping
sib
simplesqlite
society
sourcemap
srcmap
strictversion
subprotocols
swc
tei
tiling
tmuxp
tofu
tukey
tvec
tzutc
udata
ugettext
undetermined
unreferenced
valeur
value3
vdw
vmid
webex
xcc
xlist
xpopupwidget
young
##111
##2py
##4d
##aper
##assign
##ativity
##calendar
##camera
##diagnosis
##eeded
##elems
##ener
##escription
##ialog
##icity
##main
##mate
##nate
##orders
##population
##ris
##stone
##theme
##through
##timezone
##trap
##umns
##umption
##yaml
##ть
1007
16000
3b
accurately
apollo
assists
astro
baseclass
betweenness
brick
broadcasted
btw
bufs
cdir
cell1
certifier
cmps
codelist
componenttype
convolved
coremltools
cpuid
darker
debye
dics
didl
discuss
disordered
doseq
dpm
elbo
eltorito
engineversion
enhancement
enlarged
eod
european
evecs
excessive
fileids
folium
formating
formatoption
gala
geophysical
getval
gmfs
gmm
hpp
ida
ill
imagej
importanttext
imresize
inputerror
iobase
iprogress
kitosid
linecolor
ltc
maxpoints
mcpts
melting
minhash
mujoco
nac
nod
noiselevel
ns2
nseg
oauthclient
objectidentity
objectmodels
opentrons
port1
presorted
propval
py2to3
readerfunc
readerror
receptor
regularize
reliably
repeatable
responseerror
runtimes
securities
seg2
setprop
shuffling
sif
splittable
spoken
startrow
stopthr
string2
subseqs
substrate
surrogates
svtype
swp
tagnames
tle
ttrajs
turbulence
turi
tutorials
type1
ultimately
unbuffered
valids
visualized
xlen
xname
사업자번호
##autherror
##bag
##brew
##combo
##dependencies
##disposition
##dns
##eas
##ely
##ending
##erfect
##ested
##eventloop
##extedit
##fb
##ght
##h2
##hars
##ialize
##instruction
##iple
##learn
##pher
##program
##rary
##removed
##responseexception
##rix
##tie
##uator
##ycle
0x40
1048576
1440
20s
504
aggop
aicc
algs
alreadyexists
amqpinvalidargument
antsr
armor
associative
attributename
authclass
beep
believe
bin2int
bitset
bundleid
cadd
canary
cbit
checkresult
chemistry
colorlist
committees
condor
coors
cvs
dataqualityflag
date2
decreased
deepest
designer
designs
diacritics
eap
elbow
enz
exponentially
fibrechannel
filterwarnings
freeform
getline
h2ovalueerror
hermite
highpass
hkdf
hostfile
hostip
htarg
httpadapter
ibmiotf
infix
inits
inputsource
invalidspec
invitations
istep
jdk
liftover
linenos
linkexception
literature
lland
lowstate
maxfreq
mglo
mkey
modstop
monospace
nloci
nvcc
objc
outlines
parking
perez
pjoin
plotdata
pointcloud
polish
preferredmaintenancewindow
prepends
prerequisites
qres
reda
repodir
resizes
rpeaks
siglum
sigma1
snappy
sofar
sole
soln
sourcekey
stranded
subjunctive
subsequences
symmetrical
tbd
teal
tema
testgraph
textsize
tiger
tilesize
transceiver
truncates
tvfile
typemap
unregisters
v7
whoami
wlen
xroot
ystart
##attach
##confirmation
##cutoff
##dia
##dress
##dumper
##eeds
##ength
##examples
##fication
##globals
##hierarchy
##hooks
##ifs
##imp
##inative
##intent
##licates
##met
##mith
##oids
##omplete
##rand
##spline
##texture
##timeseries
##uff
##yerror
##서
0b
10f
222
366
414
aas
addtriple
anomalous
basefilename
bbl
blended
blockdevicemapping
byts
cdt
ces
cff
cgs
clsdict
commenting
comprising
condense
confdir
connparam
containment
cpenv
cregs
crypted
d8
decldir
deduce
deletelater
dfl
dialects
dlat
dlon
drf
ean
ecmwf
elsevier
exclusively
filtfilt
fitmags
getlayer
goo
goog
heappop
hexagonal
hrs
htmlparser
hu
hyperparams
ica
ite
kilometers
kline
knowledgebase
lcmad
lgcprint
llc
lmn
loggername
lss
macosx
manipulator
mct
minthreshold
multipath
mutating
nettype
networkconfig
ning
npyscreen
nvmlgetfunctionpointer
nvmlreturn
o0
o3
objectlist
outstream
percents
periodicvars
persistentidentifier
phase1
playground
plex
portrait
postinit
powerup
prepro
progressive
pyshop
raba
refwcs
regularized
rush
sad
sadd
semilogx
separable
seperate
serializationerror
sing
sitedir
smoothie
spawns
specialize
starmodel
stims
stomp
storable
subview
syspath
tci
textid
thu
tounicode
transgene
tref
uniformlink
unpacks
v4beta1
valign
vext
vgname
vpcconfig
watchman
xconst
xlims
xres
ye
zinnia
zlim
zmag
##ases
##bitmap
##bn
##books
##cales
##classname
##compute
##contract
##dian
##erable
##eres
##gobject
##gon
##ground
##hit
##insz
##isc
##itz
##lost
##mission
##ocal
##orb
##orms
##rotate
##sheet
##sig
##tocontents
##tri
##validate
##xl
##yms
245
2n
4x4
5th
abcseries
abmn
aborts
addseparator
ana
animated
aomi
argx
asttypes
attendance
authenticates
axarr
ber
billable
blot
bytestream
ccube
cfgdict
childitem
ckeditor
clamped
cmyk
continueonerror
cosh
creat
d2a
dan
darray
ddll
demonstration
departures
destinput
diccionario
dirn
downcast
edns
endofprdvp
enrichr
envname
epsabs
expedition
f5
falha
fini
fixmat
fqname
freezer
getfilesystemencoding
gmres
grib
guided
hcurves
her
hmat
ingested
instaloader
inval
invalidrequesterror
ions
irrad
iseg
issuperset
landsat
lipid
logwt
lookupfield
lspvals
lsr
modularity
muse
npixels
nrel
ntgo
onboard
ost
overloads
overpass
pkts
planner
pngs
pollers
popularity
portid
prolog
publicly
qdialogbuttonbox
qref
querysets
quitting
rax
refl
ren
resourcelookupsession
respected
respects
retn
rhat
satoshis
saturday
savedir
seqlen
sequencetype
setsid
settooltip
sidereal
slice2
slop
sout
srcoutput
subpackets
suff
sysfs
tall
tasmax
tica
udfs
uic
uifile
unions
unnumbered
unspec
upgrader
userlist
ushort
v1status
valley
valstr
vector1
viewitems
vulnerabilities
wpoly
xmm
xytext
ylen
zaxis
##1y
##2hex
##2long
##append
##aring
##arns
##bindings
##both
##cked
##coder
##conflict
##cyan
##ecuritygroups
##emitter
##erence
##ete
##flash
##hing
##hortcut
##increment
##inputfile
##invt
##iteration
##jobstoreid
##kp
##lam
##learning
##lique
##locked
##lse
##oord
##pread
##private
##ribution
##rth
##rti
##rypt
##sigma
##support
##t2
##transition
##tter
##tyles
##vectorizer
##wiki
##yd
##yl
##yo
##yr
440
5min
aarm
accommodate
accumulation
acmg
amend
attrvalue
authdata
autogen
bestscore
bidi
blockheader
bulge
c6
casa
cdelt
cellvars
cin
confirms
cpy
crawlid
crossmatch
crtomo
deltag
dimname
diverging
dnsname
dpd
eject
elms
equinox
eventlet
exercises
extsep
f32
familiarity
fcall
fieldvalue
filespec
flaky
flapping
formatinfo
frameshift
fri
funder
getlocalid
grabs
habu
household
hplus
inconsistencies
inhibition
inotify
interpreters
interpreting
intersect1d
isd
isempty
jabber
jm
karyotype
kstone
lcinfo
lib64
linters
lokal
longtensor
mcf
mgt
mimedata
mptt
mutates
nbd
nsx
ntime
nylas
objectidentifier
obsres
oom
organizer
osrelease
padlen
pept
pii
planted
postmark
pout
proc1
psnr
pyflakes
quart
qx
rcs
recreated
reseller
richbool
scatterer
schemaid
screens
setblocking
setparameter
sfx
simplifies
sockaddr
sqparse2
substituter
swimlane
tabbar
tac
tasklet
tau0
tcase
titlebar
tokenjson
touchworksmagicconstants
tstep
umbrella
untar
vcsmode
viewkeys
voiced
walletstate
workerid
wss
wulff
xdo
##1000
##201
##apsed
##bond
##buttons
##cancel
##deferred
##e5
##earchsession
##fullname
##genic
##ilable
##implementation
##jobgraph
##ket
##lem
##ometer
##onth
##parametergroupname
##prog
##radio
##reduce
##tokenizer
##uired
##uli
##vy
##⎥
0o755
0o777
1991
6000
abandon
acfs
addressed
agnostic
anirec
ark
blas
bracketed
calllater
cardiac
clearness
clifford
complevel
composing
crab
createvariable
currents
damp
datafiles
dcor
degc
denovo
djfrontend
ebin
ega
emulated
escalations
espeak
eventfilter
eventhandler
filterquerylanguage
formatoptions
fromdict
fsntfs
gatk4
gempro
geoserver
getconstant
getjson
ghostscript
gridpoints
groundshakingintensitymodel
homogenous
housecode
huisnummer
hypercube
i64
inout
instructor
invertible
isothermal
itf
jdx
k0p
kim
kurt
lancet
layered
lexsort
lif
lighting
lrange
magicc
maxbytes
maxi
maxp
maxtransitduration
medical
mercurial
mgf
michael
msgname
mstp
naf
newseries
noted
nprocs
nulldata
ohlc
opers
oval
oxygen
parval1
pdc
peso
positioned
proxytype
psk
pubs
pvc
pyfastaq
quarters
rackspace
rads
rbac
rbh
readfp
recalc
referents
replicant
reuseaddr
rlock
serialise
sift
slf
snvs
sparser
spat
startat
stoplist
storagemodes
symtab
trends
uci
weir
##2k
##atus
##cats
##cor
##correction
##criteria
##d0
##elli
##erved
##escape
##graphs
##hg
##ilde
##include
##irectory
##lies
##logo
##lope
##ods
##onn
##ouse
##person
##profiles
##rovider
##sen
##uncertainty
##usr
##uto
##z1
0123456789
040
181
1992
720
abstracts
acquiring
apr
availabilities
backtest
balls
basetype
bijector
bmatrix
brentq
calibrator
categorylist
chances
chap
chrondata
cifar10
classkey
cliabort
cnfine
coarsen
codestream
cpio
cqparts
cret
cword
dans
datafailureexception
datasec
dateint
dbtablename
diagonals
dialogue
dimn
discfac
ecb
element1
elevated
eor
extrap
fbo
flowrate
folio
forbid
fromlayer
ftr
fullmatch
gaussians
geotiff
getcontent
getservice
gffutils
ghz
gists
godag
hazelcast
helvetica
hfile
ibeis
imager
imagine
innodb
input1
intens
intermediary
inverter
jose
lcfit
magbin
manticore
maxerr
mimemultipart
mined
modflow
modlist
modnames
mpr
namenode
ncores
npad
nuisance
nvme
nvram
openbabel
openpyxl
orthologs
outermost
p2p
participant2
pdag
plotman
poldeg
printoptions
projexui
psis
qgsproject
qrect
qrectf
qtmacs
rabbit
readglobalfile
rearrange
reassembly
reco
recp
relating
repaired
representable
resolv
rhop
rtp
rtree
serverendpoint
sfp
shape2
simbasedir
sint
skyline
slice1
sortinghat
spurious
startkey
subp
terminators
textfield
tmppath
transcribe
tricks
uagentinfo
uiautomationclient
vera
vesting
viewwidget
wood
xmean
yoff
zinc
├──
##101
##102
##999
##basic
##callbacks
##chem
##closederror
##complex
##corpus
##curves
##dmin
##encoded
##eriv
##ests
##extra
##hello
##hostname
##hw
##jo
##listing
##loy
##ompiler
##ordered
##park
##pus
##rem
##scene
##seen
##solver
##tan
##translations
##trees
##udge
##xist
##xval
0x3f
1g
acquaintance
addindividualtograph
addl
addlayout
allocates
allocating
alphabetic
animations
approximations
archiving
attr2
auction
autofill
azim
bagit
bear
block2
calcs
calculatecoordinates
canvasapi
chronological
cited
codemirror
compensation
compilers
crc16
dealt
definitive
derives
dominance
driz
ds2
dsz
dte
dtr
element2
eora
epilogue
excmsg
expr2
fallen
fullfile
genelist
getpage
getpath
globe
glx
grprobj
hkeys
hypersearch
ics
iexec
imachine
imcauth
intrange
ipset
itemcode
itemvalue
jim
jks
jobids
kap
kendall
labellist
legislators
ler
linthresh
lithology
lkp
lmt
localsigma
logzvar
mob
modelling
mongod
neighborhoods
newdir
nmodes
nodenames
nonlinearity
npar
nport
ons
param3
parentindex
periodepsilon
permgrofac
personid
pobs
poke
precede
pso
pstat
pylike
qpainter
qpointf
qt4
questionable
qurl
rangeindex
refcount
regid
remoteci
requisicao
rerr
resourcerecordset
retreive
sampfrom
samplesize
sbc
serious
setlayout
setmodel
severities
simulating
sinfo
slicedarray
sortlist
spawning
splitdrive
stalog
standing
streets
subd
subtotal
suf
swarms
timeoutexpired
tmpltbank
todatetime
torrents
toward
ubound
upward
vital
wedge
wkhtmltopdf
wua
xdim
yamlerror
yrs
zebra
zeroconf
##author
##bh
##centric
##cleanup
##dens
##dst
##ente
##filenames
##fromlink
##icted
##icts
##iri
##istics
##ival
##lla
##masks
##mers
##notallowed
##onnectionerror
##ormed
##peptides
##remote
##reqs
##resourceid
##rty
##scrollbar
##short
##toremove
##ubnetgroupname
##uel
##uency
##urate
##userid
##utput
##voltage
##zeros
1000000000
1023
1234567890
132
165
215
32767
450
absolutely
aggregating
aids
anexec
anyways
arabic
arbitary
arcmin
attrtype
axism
badparameter
basenames
bashrc
batchify
blending
blockquote
bvals
cannon
cargo
challenges
colin
contentful
conv3
copula
cot
cout
cpswitch
dcos
debugged
deltal
dend
di2
dips
dlink
docbody
doppler
dpss
engagement
eplus
esd
eydata
filterset
firewalld
flnm
fontbakery
foul
fromiter
ftypes
fz
getpwnam
gluonnlp
groovy
hides
hsh
indico
inited
initiates
inputvector
instrpars
invalidrequest
istream
jsonerror
lasso
lctool
leonardo
level2
locksroot
lyapunov
mal
manipulated
masterkey
maxobjects
nine
nle
nonblock
npol
oclarray
optimised
parameterize
params1
path2d
pcolor
pflow
posixtime
privatezone
proceeds
pyopenssl
raiseonfail
raven
rawdescriptionhelpformatter
realign
recursing
redefine
redisclient
resolwe
revcomp
s6
scraped
searchresult
securitygroupids
shadowed
sifts
signin
sina
sizex
soapaction
sourceid
sourcemodel
speaking
statecount
steal
streamflow
subdag
substance
subval
synthesized
tableschema
textures
tidx
tmdb
toilstate
tophat
trac
transitfeed
transmute
troposphere
uaa
unicodes
uq
userpass
ut1
vec3
venturi
viper
vref
webview
xenapi
xlrd
xmp
xtype
ybin
zen
##1m
##abundance
##apply
##arity
##ault
##cons
##difference
##dists
##efore
##eme
##emplate
##estimate
##headererror
##hkdstn
##iant
##ingo
##insubject
##nan
##nel
##nlp
##ocated
##poller
##qualifier
##revision
##sect
##slist
##t16
##tus
##une
##verify
1985
2100
22050
231
2s
abbreviate
accelerators
acqu
argtype
assetcol
autocorr
bean
binfile
blockhash
brighter
c0103
cacheinfo
callgraph
caseinsensitivedict
chromium
cinfo
circ1
cleartext
clist
collective
conuexception
createelementfailed
crime
currentitem
dataurl
datetimelike
dendrites
detunings
distob
dml
dogs
doit
drs
e1101
erg
eventdata
expon
extraparams
filemode
freebayes
fupper
gadgets
getpreferredencoding
hetatm
hey
hug
imagelist
inh
inning
instagram
intensive
isdisjoint
isobaric
ispkg
issuecomment
ivorn
jedi
jmespath
jsonfile
kth
livprb
locname
lowercased
lsid
mast
mead
mimics
mvlv
natsorted
nc1
npnan
nrql
numbytes
nve
omega0
opentsdb
optionable
orthonormal
pickler
preemptable
propagates
pyowm
pysolvers
pytsk3
qdata
qfont
readlen
refit
reflects
regul
relativize
remotefile
reportpath
ria
rtd
scripthash
scripting
seqtype
sequenced
setproperty
shm
spades
sportsref
standardization
statdict
stratify
tabarray
tho
timeend
totalcount
treatments
treebank
tshark
url2
varnumvol
vcap
vcc
vhosts
violated
voices
w3id
waveunits
x8
yubihsm
zhang
zipf
##2file
##3a
##areas
##begin
##bon
##charge
##cker
##cks
##contains
##ctxt
##decomposition
##dit
##enberg
##fish
##ild
##ius
##ivities
##kerning
##merger
##nia
##nse
##onerror
##oom
##ours
##p4
##procs
##regions
##returned
##rive
##rva
##sym
##syn
##than
##tofile
##tv
##uml
##whitespace
##x0
288
2pi
aberration
adw
annots
arena
arraylike
asdf
ashrae
assetcontent
asyncore
awsconnectionerror
axtragrid
beta0
bisection
bra
byteoffset
castable
clat
comprehensive
count2
countrycode
crossed
csl
cub
cull
currenttime
cvx
datain
dds
deldr
dmi
dparam
drifts
dshape
dzn
editrole
emp
encodestring
encryptionmetadata
eresult
etah
evtype
fcoords
fileentry
fitsname
fixref
fracs
friday
gdata
geodatabase
getfeatures
greatly
histogram2d
hotel
hstwcs
httpresponseforbidden
httputil
hubs
importfrom
inq
instanceids
keyinfo
keysize
krylov
lbd
leftovers
libdir
linscale
living
locdf
loo
lookupmib
mappingservice
mats
mdsol
metpy
million
moisture
msruncontainer
mutants
myargs
ndvi
netinfo
nhru
nicknames
nref
nss
oauth2server
oct4
oldpath
opinion
optiongroup
pain
palantir
paramvalue
pcre
pinfo
poco
pointvol
powerlaw
presmoother
productspace
progression
prologue
pyny
qcombobox
qlist
qstart
quantumcircuit
queuing
rcsb
refuri
regitem
relocate
remapping
rennels
rho1
robert
salad
samlp
scaleio
sdkexception
selectedtext
sha2
signaling
sinh
sinusoidal
southern
spancontext
splitpath
spos
srcname
sss
stating
stereonet
stretched
stringfileinfo
strval
subpackage
superfluous
switcher
tableaux
thres
timeindex
timelimit
timeunit
tmpname
transliteration
tribe
uliweb
uncompress
unconditionally
undef
unsat
val0
vds
vendored
wash
websession
xnode
xypos
##137
##bind
##bx
##clock
##conversion
##coupon
##deprecationwarning
##door
##elation
##ells
##eom
##eus
##gauss
##ggle
##handles
##hm
##inputsize
##leep
##luded
##management
##market
##mation
##orbit
##pha
##quant
##rato
##reload
##show
##station
##stdout
##synapses
##ticket
##two
##uk
##uts
##xec
142
235
accelerometer
alerting
analyzes
approvers
attributed
authorities
backref
bedpe
caltrack
categoricals
celestial
cell2
ckdtree
clarity
collated
concerned
conductance
configdir
consolecolor
continuationtoken
coolprop
corrcoef
cozy
cpg
crmod
ctab
datetimestring
dbsettings
deaths
deets
deselect
dippr
dotdot
dragging
dwavebinarycsp
dxerror
easiest
ekm
employee
entitlements
extrude
fff
fiat
fillchar
flipud
fmtos
forcefully
fq1
fsi
ga4gh
geot
germanet
getheaders
getmro
gridplot
guards
hfb
hmax
homes
houses
hrefs
idcs
importe
inflight
inkscape
innermost
integerfield
iplist
japanese
kbos
liststore
lossless
lum
malicious
maxitems
mni
modulehelper
mongoengine
myuser
ndiff
ngroups
nos
nsim
nsn
numlocations
nym
obsval
op0
overlaid
pantsd
participant1
partly
pasa
pmod
ppds
pressing
psize
pybossa
qhboxlayout
qpt
qz
recruiter
regionlevel
satisfiable
serials
signalname
sne
spanish
startx
ste
stresses
strided
supplier
syllabus
tabulated
tacacs
tck
tears
templatename
tj
tram
transp
tue
twi
uchroot
unif
unindent
unmask
vistir
vsiid
wallace
webpack
wos
xfs
ypix
zijderveld
zooms
##0101
##0k
##alues
##bic
##cial
##crop
##det
##eans
##inates
##inline
##invoice
##ives
##kd
##lash
##lify
##linux
##lum
##ncing
##neg
##objecttype
##ontract
##outputs
##pressure
##push
##rance
##ras
##relationship
##riter
##roperties
##sampler
##syntax
##urse
##vents
##xc
##xists
143
190
4s
840
agentcount
aikif
analysisservice
applets
argdict
assocs
astrom
barh
bas
basics
bcryptconst
booted
cdelt2
certification
chrs
co2
collapsing
confindr
conforming
correl
crf
decon
delegation
demean
diploid
douglas
dstr
dxf
dynamipserror
ebook
eio
employer
encounters
endtag
evalpts
exploded
extractfile
feff
fieldarray
fileglob
filehandles
firebase
fittings
fkey
forking
genbank
getcol
getcolor
gmax
gmx
gnt
gridqubit
hdf5file
idata
iml
importers
indeces
ivars
jaide
jsapi
kexgss
kwdefaults
lbound
legit
lifespan
liked
loadmat
logfilename
m2crypto
mapq
maxtimeout
md5s
mergesort
microstate
min1
mlen
modelerror
msrestazure
myserver
ncolors
nidx
nsamp
nsample
nstruct
odeint
opennebula
optval
outfolder
outformat
oversample
parseoptions
parsingerror
pink
pkcs8
port2
portage
precursors
prnt
purchases
quantumregister
r16
rdis
refspec
reimplement
remembered
rewriting
rrna
rsi
runid
rvm
seqids
shuts
sig2
sinogram
site0
slippage
smr
snapshotid
sop
specifed
sponsors
srgb
statname
strlist
subform
subproc
suse
tagtype
takewhile
temp1
thinning
timeinterval
tolerant
trapezoid
treeanc
udev
unclosed
versionfile
viewno
wcnf
winregistrykey
xlwt
zeroth
##103
##acao
##aly
##centers
##checks
##edian
##embed
##ernal
##exc
##fact
##guess
##hen
##ico
##ience
##ients
##ifying
##imension
##ingexception
##itter
##lied
##mata
##maximum
##mout
##ndx
##oh
##ored
##oud
##ounts
##products
##pvp
##r0
##sin
##tick
##trn
##ubscribe
##union
##upperbound
##자
016
147
15s
1l
30s
415
5p
adhoc
afdeling
allele1
allele2
artid
associating
asymmetry
atropos
audiofile
authdb
backtracking
baf
bags
basilisp
bfp
bigram
billomat
binom
bloop
buildbot
builddata
capitalization
checkresponse
cleverhans
coloredlogs
como
companies
coupled
crazy
daf
das
datay
dbxrefs
delitem
dept
dimlist
drafts
driverfactory
dvpgs
ecol
eds
enumerator
featureid
fio
floattensortype
formatkey
fpaths
fromserializedstring
geotransform
getwidth
ggplot
glyphicon
hair
hankel
heterozygosity
hiddens
hipchat
holders
holoviews
hostedzoneid
imagedraw
inferior
intersected
iriref
isfcs
joystick
lamda
lastrowid
latn
lucene
magfile
mainpyfile
mapobject
markets
maximizes
maxtries
mec
metatab
microcanonical
mistake
mmtf
ndis
neb1
newy
nnnn
nns
nodegroups
notupdated
npsum
nsq
ntfs
numvars
opendnp3
openshift
orca
organisms
overplot
plpy
poorly
privateconstants
promises
purr
pythons
quirks
ramon
reactionners
reality
rebuilding
recieve
reproducibility
reuses
reverting
rigidtransform
ris
rprof
sauce
sda
sensitivities
setattributens
setbrush
setparent
sgn
showid
snmpv2
sprintf
stickers
subcat
syll
tapering
thrust
toolkiterror
typ2
typedefs
uncached
unlinked
user1
vhd
vqsr
wealth
wing
wow64
wps
wpull
xcoord
xspan
xtra
xyticksize
ycc
##2010
##2y
##aid
##chr
##commandfailed
##configid
##containers
##correct
##cpu
##deps
##directories
##dispatch
##eason
##fileinfo
##h1
##iance
##ident
##iled
##imals
##isable
##lature
##ngth
##omm
##queries
##qx
##uated
##ubclass
##ued
##verage
##zner
##ает
253
abook
abuse
addressbook
adf
advantages
alldata
almnt
angr
anonymize
asyncs
attend
axis1
azd
bait
bcache
callpoints
cdfepoch
cdk
cffi
circ0
colorimage
committors
contacttype
cooked
crispy
crumbs
crval
dataobj
dbapi2
dejson
dets
discrepancy
doctr
domainid
dseg
dtc
dumpxml
eacces
education
elbv2
electype
exchangers
exctype
extensible
extr
firecloud
flips
fn2
fq2
fta
furthest
geos
geotype
getordefault
gewest
gibbs
glist
h5group
histobj
host1
hovered
hundredgigabitethernet
hydraerror
i2h
ilvl
inferencedata
iso9660
issequence
laid
lalsimulation
launchpad
linger
liste
lsh
mediation
mes
mfc
microstates
mld
morse
mounting
mutablesequence
neb
neuritetype
newq
nextchar
nhs
nitro
nouns
nucl
oldname
oss
panic
pathexpression
pkcs1v15
pos0
projecting
ptrms
pvs
pyasn1
pylxd
pymodule
pyrtl
pywintypes
qword
rawtx
recaptcha
reconnection
redacted
repseq
retract
returndata
rhsm
roh
rollouts
rundir
safeprint
sbgerror
sctp
semitone
sfs
showmodal
somebody
spkt
sref
stressed
subelements
tibiadata
topn
turbidity
typeobj
underneath
unexpired
vaporization
vectored
violin
visibilities
watertight
windowing
wpa
xi2
yk
└──
##abilities
##alleles
##association
##bes
##between
##bids
##bridges
##coef
##e7
##eption
##erial
##etry
##executionstatus
##fire
##fle
##gal
##genes
##hange
##hknow
##iator
##icles
##ketch
##lar
##lide
##markup
##ncode
##ners
##nish
##o1
##ogy
##onnection
##orce
##pq
##projects
##proteins
##race
##ressed
##ross
##rz
##sb
##timedout
##ural
##urations
##versionerror
##vote
##번호
164
167
5xx
6d
aac
adopt
altitudes
analysisrequest
autoencoder
autosummary
became
bitlength
bookkeeping
bpo
brake
bufid
cauchy
cek
chimeras
cindex
clierror
colat
comics
connectionpool
conservation
convergent
corenlp
correcting
courier
cph
crits
ctable
curriculum
cycler
datafield
deallocate
debt
deduced
deform
dictfile
dkcloudcommandrunner
donors
eer
eliminated
elliptic
emph
eventid
evm
exhaustive
fabfile
ff0000
firt
flowing
ftarg
gantt
gct
generatedpyast
geq
gradle
graphqlerror
graphqlobjecttype
haz
hitid
hmin
hyd
inconsistency
integrating
interceptors
iphone
irec
isclosed
jfs
keyw
kib
kibana
lemmatize
locktime
love
m2x
maintype
maptable
marg
maxweight
mdnm
membername
memoryerror
meshlab
mhd
miner
mocked
moderngl
mpd
namedstruct
nameops
naturally
neuropythy
nibbles
npdu
nplease
nscf
occasionally
oneormore
perceel
perrs
pfc
pile
pill
piping
plottype
pls
premis
quartets
rdfgraph
rdn
rebuilds
reg1
renku
renorm
reporters
result2
retlist
rfc822
rpush
rvals
seqname
seter
shadowing
showinfo
simprocedure
snet
spellcheck
streamers
styled
subarrays
subpixels
suffixed
symbolizer
tagvalue
taxo
temp2
timeslice
tlds
topologyname
towers
transferring
transpile
tuesday
txin
usermodel
virus
vj
vpi
vtkactor
wolfe
woodbury
xline
yin
ymlfile
zrange
zsh
zx
##1s
##2p
##66667
##adres
##below
##bu
##dam
##datasource
##destination
##execution
##filewriter
##genus
##hrf
##iction
##ien
##ingle
##inverse
##ioerror
##ital
##license
##lle
##lly
##loyment
##lusters
##managerexception
##manifest
##merged
##mmer
##mult
##nly
##nots
##orable
##percentage
##piece
##prefixes
##probability
##producer
##ridge
##rors
##spaces
##tches
##typename
##unning
##wards
133
1min
2k
2xx
750
768
a2b
arbiters
arrowprops
astrometric
august
autodict
barycenter
brozzler
btns
buggy
callstack
clustername
cnr
coherent
comprised
controlmodifier
costly
critrec
csq
db8
dec0
degraded
dels
derivs
dimen
dnb
dnf
dop
etav
exporters
expr1
extensionarray
fc1
fdesc
foreignkeyconstraint
fortpy
generics
getch
getpointdata
gitdir
glir
gmap
gplt
graphqlschema
groundtruth
hotkeys
html5lib
hyps
icb
icmpv6
icv
ifa
ilocommandnotsupportederror
imask
inclusions
iotexception
ipv4addr
irf
key3
kullback
lambert
listitem
lns
loans
longslit
lowered
lux
macd
mdrun
modelbase
moderation
mtotal
multihash
mvn
mycontainer
nake
nextstate
nineq
nspname
ntop
nud
numelems
numid
oam
onclick
optargs
optype
orchestrator
osf
ovsdb
parmed
pasted
patience
photlam
pidstore
pidx
polyaxonclientexception
polyaxonhttperror
polyaxonshouldexiterror
prange
prd
predictedfield
profilers
prompting
provisional
qux
rdfurn
recode
robin
rorg
rset
rtsp
sampto
sbatch
sca
scalebar
sels
sequencecollection
seventh
snum
ssegs
startupinfo
structuring
subcase
subtable
swbd
swin
tamil
tapered
tentative
testctx
tkey
transgened
transportation
traps
tred
unsubscribed
vcl
virtualization
vlr
wio
workitems
worklog
wsgidav
wva
x13
x80
ycoord
##allocation
##arsed
##astic
##capacityunits
##cid
##cmdline
##cookie
##fam
##fh
##flows
##formset
##geom
##hild
##iability
##ifd
##ior
##ission
##itting
##kh
##lated
##layername
##macro
##nameerror
##oef
##olors
##pes
##pixels
##plist
##rapper
##rejecttransaction
##requestid
##sequences
##snapshot
##u1
##uiry
##warp
065
0xf
179
275
2mass
acentric
acesso
adequate
aesthetic
apns
arrivals
aset
assignable
auri
badconfigobject
base1
besteffort
binwalk
bj
bmin
bohr
bytestrings
campo
canada
cdrom
cer
cfrelease
cmdstr
cnxml
cnxn
colocation
constrs
contextdata
continuity
contribs
coproj
credstore
cti
curry
dbconfig
dbtype
dde
demote
dfdx
di1
diffuser
distant
dtoolcore
edfsignal
electrical
enclose
enumerating
expense
falsey
feedparser
frameid
frameset
gauges
getclass
glp
gmqldataset
gridresults
grounded
h2h
hans
hasproperties
hcross
histtype
htk
inputparams
intelligently
intervalset
iop
ipv6address
islist
isserver
kappa1
kronecker
l4params
latched
lenvals
lgpo
lightblue
loc2
logicle
marginalize
meaningless
mopts
mouth
mpub
ncn
nvp
obs2
ocv
overflows
parameterization
penultimate
phasedlc
pinf
pingback
pixy
pkgpath
polyaxonclient
powerline
pps
preexisting
pyproject
qpen
quay
rargs
reasoning
reflector
reproducible
retains
retvals
rmsprop
rosdistro
rospec
safer
sai
sessiontoken
sliderrep
solc
sparsify
spots
squareform
sstart
staleness
starty
stk
subblock
supertype
synteny
testmodel
textwidth
tgs
tokens1
tpe
transitionresult
uninit
unitless
updatewcs
vacuum
vad
varbindtable
vcffile
vuln
whitening
xdot
zetah
zon
##2o3
##andle
##assets
##attrib
##bird
##covariance
##eference
##errorexception
##esp
##fin
##folders
##gine
##gma
##guid
##hone
##iliar
##keyname
##lusive
##nums
##ometric
##ontology
##otic
##otor
##oved
##parsingerror
##pkl
##ript
##sso
##tee
##terval
##to1
##ubtype
##zmq
##ᅩ
1006
134
1984
1993
acker
adobe
affecting
alen
altogether
anat
annualization
appauthor
arcrest
asfarray
aspera
bay
beamline
belns
bfl
binarized
broader
bsc
chapters
cherry
christopher
cjk
colorscheme
columndatasource
configurationexception
conical
coros
creamas
createdate
ddec
deemed
dfwinreg
dpos
duid
ebi
eigvecs
emphasize
endblock
endness
endrec
enforcing
equalize
failsafe
fastp
fastqfile
fcsdata
finalparams
financial
formatdate
fracdet
framewise
funcdef
geonode
getargs
getdefaultencoding
getfqdn
gimbal
graphml
graphqlcompilationerror
hasattribute
hashtable
hdfstore
heterozygous
hlines
hproject
hydrated
iaa
idref
inputvalidationerror
insp
intermediates
intervalprod
ipl
issymbolic
iterdir
jdata
jmax
jo
jpath
keypairs
kmsg
lca
lesson
linegraph
loadfile
loc1
logerr
logstash
lsplt
mapname
mllib
mlst
mminion
modele
monthrange
mpost
nanops
natoms
ncells
netbsd
nmc
nombre
nplanes
nurbs
onp
operatingsystem
opportunity
ovr
paramtype
parties
pausing
pgroup
platecarree
pofile
preconditioner
profile1
pscale
pushover
quantitation
qubole
r2deriv
reasonably
refuse
repaint
retstr
roche
rolearn
rrggbb
rulebooks
runlevel
sctg
segment1
shex
size2
smeft
stimfunction
sub1
subcategories
substituting
svs
syllabifier
tablereference
tailed
targs
tau2
tdisrupt
tends
terse
textcolor
tgapiparseexception
thefile
thisfile
tids
tikz
toyplot
undershoot
unfold
unite
unsatisfied
untitled
uqbar
wei
whichoneof
wsp
xlimits
xmlstream
y4
yday
zobjects
##0b
##2db
##320
##731
##a5
##acks
##chable
##compat
##creds
##ellation
##ensation
##essionid
##filelist
##forbidden
##g2
##gun
##hang
##hared
##hort
##hosts
##ications
##into
##itemdata
##itivity
##llel
##lumi
##modal
##mport
##networks
##oise
##oords
##pca
##pecies
##pet
##picker
##rds
##specrec
##tap
##thon
##translator
##unauthorized
##uris
##vx
##workdir
##xe
008
0xffffffffffffffff
10px
12h
1950
1983
3333
640
addclasstograph
allocator
amplifier
amulet
anchorfile
appt
arianemappingoverloaderror
arymdlparams
assessmentpart
asymptotic
attrl
backgrounds
bds
benjamini
bisector
boltzmann
borrowing
bower
bricks
canceling
capsule
carries
cccsum
cheap
cohesion
colorful
communicator
compilationerror
cook
crowd
cwltool
dayofweek
deconstruct
definitionreadererror
desk
dqc
estr
examining
explosion
extlist
fdm
fe80
feincms
filecontent
fileheader
filterable
filterstr
fixed8
flashing
fsapfs
ftplib
gases
gcrs
getnext
graftm
hardlink
hep
httpbasicauth
hyperedges
imageobjectlist
includeclassorigin
indiv
inputmode
isel
iseq
iterfind
jaro
jtag
keywordbag
larry
lastnames
lch
leadership
likewise
lol
maas
manpage
martin
mget
mice
miter
nelder
nextline
nocolor
novalue
numsteps
opentracing
outmask
ows
paramter
parman
phid
pickup
plotfit
ported
prebuild
precedes
precisions
precvar
producers
programmatically
pstates
ptf
publishable
punc
qgsmaplayer
qtmacsargumenterror
readcount
rebind
recovering
refusing
relates
remnant
rpms
runscript
scantype
scriptname
scrubbed
seterr
shaded
shaw
sitemapindex
sliders
smartunicode
somaticsniper
sourced
span1
srate
stdoutdata
stdv
stolen
subg
subitem
subpage
subrec
synphoterror
synthesis
taylor
tempname
textcontent
textgroup
textobject
thereby
threadtype
tm1
toplaintext
triad
truly
trustee
ts2
ulimit
underlayer
uniforms
unreliable
usetex
vap
vco
versionable
viuint16
vlrs
win32service
winter
wks
writerows
##400
##aggregate
##agreement
##ails
##allelic
##ander
##apiclient
##argumentparser
##availableerror
##b64
##cen
##cite
##clinic
##clusters
##cms
##configparser
##cular
##eighbors
##fontsize
##founderror
##hints
##iam
##iden
##interpreted
##ison
##isted
##j2000
##legend
##lev
##look
##lts
##nalysis
##o3
##ontrol
##opacity
##operationerror
##pend
##polar
##processes
##qid
##raint
##rio
##rypto
##save
##secs
##share
##timeoutexception
##todict
##uad
##vers
##wski
014
1001
1111
155
1987
280
293
3m
412
537
9000
abd
abode
addy
advisory
algebs
ammo
animals
antinex
appveyor
arial
awsconstants
axes3d
bal
bandpasses
barnes
basisket
bitscore
blosc
bokehjs
bpoints
bucketname
cage
capped
cfrom
channelid
clashes
clipper
clon
codepoints
connectionfailure
consoles
coreference
cpptypes
currentdir
cvterm
datasize
dbiogrid
dcc
devtype
devvarstringarray
dhdr
dictwriter
disappear
dist2
distros
dobj
doclines
doctor
door
downloadable
drac
drvr
dto
dusty
eccs
envelopes
epics
establishing
estimations
eventlog
eventname
fainter
firmata
floc
fpga
geis
gentoo
getmore
globbed
gmag
grabbed
grav
groupids
halfcomplex
headerlet
helicity
hfoslog
hinge
hist2d
humid
idr
ilabel
incumbent
inertial
infactivestate
infered
intend
internalpointer
isi
isl
isstring
kbo
keyevent
keystring
ktype
lastindex
lbrace
linearized
linestarts
linetype
linguist
listlike
loadlibrary
localfilepath
logdet
mastodon
match1
matchlist
mediaplayer
mels
mocks
monotonically
moy
mqc
msgstr
msiecf
nasty
newtype
nsig
numdims
numinputs
nxml
offload
opera
oprnd
orgid
orn
payloadformat
pdftotext
pep440
pipers
predicts
printd
prolongation
qnet
quantumchannel
queueing
ranker
recno
reducers
responsemessages
retransmit
rettype
rj
rootnode
rsassa
rug
scard
scott
searchpara
seismicity
selecteditems
senaite
sequenceid
serialexception
sfa
slight
sourcename
spb
squeezed
squid
statemachine
stdscr
subn
subsections
subwords
system32
telethon
testsystems
textrange
timeslots
tlg
touchdowns
tournaments
tsfresh
tstat
ue
visualproperty
voted
vsun
vu
wechat
whilst
zips
##0m
##121
##abort
##ained
##aliases
##attributevalue
##bre
##buckets
##cos
##efix
##elay
##encies
##ensing
##entrylist
##eon
##eral
##eri
##exporter
##faction
##github
##iency
##inputexception
##intf
##lection
##mmss
##nder
##netid
##nml
##notify
##oeff
##outcome
##partial
##peech
##pmbb
##question
##quota
##raf
##ransform
##rao
##recursionlimit
##remoterelease
##render
##rigin
##sal
##sap
##shop
##stance
##tas
##tils
##transporttarget
##uent
##validationexception
##valueex
##vert
##wig
##xexception
##zones
01t00
035
118
185
2m
44100
4g
7e
abcid
accuracies
aces
advised
agentcheck
alc
alpha1
antivirus
apfs
aryfuncchnk
asdictionary
augeas
authid
automate
axis2
belstr
billed
biz
blc
blobstore
bns
breathe
bundleexception
c7
cdim
chxmlstr
coh
colortext
compositor
concave
consumersolution
coverages
cst
cufflinks
cypher
dayfirst
decrypting
desc2nts
devmode
diagnose
dilate
disaggregated
discovering
distinguisher
documenter
elementcreator
elongation
envvars
errfile
errorresponseexception
esfilter
evil
expo
faulting
fetchers
fileinput
fileservice
flanking
flap
fog
fqfn
ftdi
gctx
genename
handleerror
headerlist
headlines
heavily
hwhm
i32
ikey
imf
imgdata
impls
indentlevel
infilename
inhal
iocs
irods
ison
joback
joinedload
joinsplits
journey
keybinding
keycols
labeledpoint
lagrange
lahnh
lcat
leaks
linke
lobstr
longtable
mah
mates
maxcol
maxlags
mfg
mindist
mmcif
moduleid
mols
mousepressevent
msa
mturk
nation
networkmanager
newsize
nftables
noreversematch
normto
nosuchprocess
nrrd
nsfolia
oldval
ontid
oport
opttype
ourself
outputcol
oversized
parallels
paramaters
passant
pattern2
payloadtype
pbm
peerplays
perceval
periodical
periodindex
polarized
pollin
postgame
powerful
prereleases
prioritized
projectfile
propertyset
prst
punch
punt
pvar
recharges
recordcollection
replied
replset
requestnum
scrolled
seeder
seeking
segment2
serverexception
settrace
sexegesimal
shims
showtraceback
showwarning
siicontainer
simtime
sk8
slotname
spanned
ssa
startpath
subpattern
subpixel
suma
supy
swa
talking
tarbell
tasklist
testname
toast
todelete
toi
trigs
ufw
undelete
volumetric
vpnv4
vultr
wallpaper
warping
x16
xdiff
xmu
xstar
yref
zfinfo
zonename
zvmutils
##2psi
##aces
##adaptor
##apping
##atterns
##basalsegments
##bls
##cj
##clear
##coin
##comb
##covar
##cred
##dal
##datasets
##descriptions
##diagram
##enrollment
##ention
##ererror
##erp
##expanded
##failedexception
##fly
##foreground
##forms
##hapes
##hark
##idlist
##ieve
##ining
##loaded
##mar
##measure
##mfd
##multiply
##nier
##nomadexception
##olved
##ondisk
##oor
##otion
##rby
##rv
##sage
##segs
##sep
##specs
##spective
##tdout
##tocheck
##tokenerror
##tolist
##tom
##tst
##vip
##visibility
##wich
##ya
##ᅳ
550
actionstatus
adafactor
aim
aln1
argmap
atext
bcd
bcf
benchmarking
bencode
beneath
boldsymbol
bonferroni
capacities
catalogues
chainid
channeldir
checkable
cibname
cie
clash
closures
clusts
coffee
commutative
countiter
cpecomponent
creationtime
cublascheckstatus
cutter
dataandmetadata
dbid
deeply
denoise
deserializing
desire
digitalocean
distinfo
ebuio
ecma
economic
elasticluster
elem2
endkey
errorvalue
etf
expiring
finalise
fname2
frontmatter
fsdb
fsolve
gammas
genera
getlevelname
gltf
gluster
glusterfs
grch37
gsd
hashkey
incorporated
infrared
initialpermanence
int1
irreducible
ismaster
javadoc
jspar
kfac
kty
lastmod
libcublas
linearsegmentedcolormap
lj
localidad
lv2
lying
mana
marketing
mascara
matchobject
matrixxd
maven
maxrecords
migrating
mingap
mlg
motd
movements
mph
mu0
multilinestring
nautilus
nds
newrelic
nnew
noe
nomask
northeast
np1
nsi
nsmrangecliactionpoint
numap
oasis
objectstore
odoorpc
odp
opensubmit
ordinates
os2
ow
p2th
pagename
pathpatch
patternid
pep517
performer
perry
plaso
pmll
point3
postsmoother
predictable
preferably
prefered
primaryhdu
ps2
quark
ramdisk
randomvariable
rbracket
recorders
reformatted
reg2
regard
regroup
reilmnemonic
result1
retino
rgt
rmreturn
rowcol
rpi
rstart
sascfg
scalefactor
scs
sfm
sgl
she
sited
size1
sphericity
squad
startpoint
stetsonj
storagetype
straightforward
stringlist
strokewidth
supercritical
systemrandom
sysv
taxes
theorem
tmydata
tomo
torus
twist
ucsvalidationexception
uncovered
unrelated
uploadid
urlencoding
usin
virtualaddress
visualizations
vouchers
wavedesc
wavefront
wavfile
webapi
wpm
x22
xfe
yamlcontent
ypoints
zsrc
##404
##ancy
##asm
##atches
##ature
##bell
##breaks
##byindex
##ccess
##characters
##cpp
##dapter
##dup
##ecl
##exchange
##gis
##irect
##jid
##junction
##lik
##mappings
##nets
##ola
##olar
##pets
##pie
##plug
##poolerregion
##prof
##qa
##roperty
##roxy
##runtime
##soap
##tarted
##theless
##traces
##treenode
##typing
##unge
##valuelist
##wallet
##yc
##ет
0x2
1600
2j
4beta
addressvalueerror
agraph
ait
alphanum
als
alterations
altname
aluminum
alvlnow
amqpconnectionerror
anode
as2
as4
atypes
autorange
bigchain
bnum
boring
bowtie2
branding
brian
browsing
bugfix
buildpath
cdh
cellular
checkmodulations
chen
cleanups
clever
clitool
colidx
colnums
comp2
cond2
connectionexception
crm
cumprod
curation
destino
dinfo
disasm
discounted
disruption
divisors
dlt
drawings
dtind
duplex
dval
eflux
efs
ekf
emailmessage
epipe
exhal
extremes
fdir
fext
fftpack
flac
flag1
fna
fnull
frontends
genesippr
genshi
gesture
getkeyword
getposition
gfp
gitpython
gls
gopath
goterm
grist
harder
helo
hostheader
hsobj
hunks
hydrogens
idxstats
ilist
imposed
interactor
invalidvalueerror
jobfunctionwrappingjob
keyrange
l2params
lasts
libusb
lno
loadingcontext
localdir
locrecs
magrecs
mappartitions
maxt
metadatas
mfe
mga
midas
mids
missense
mist
modelinfo
mqttc
mrms
msp
netscaler
newtext
notecontainer
nquartets
oedb
ofd
ofh
originated
outputted
pageviews
pathogen
pcdata
permanences
perror
pgt
pmbb
pmdecl
poly1d
privs
prv
r5
rasterize
rdr
recheck
regen
reporthook
reusable
rhov
ringdown
riskmodel
schur
sdssg
searchindex
seash
seglist
sensf
setshortcut
sitestore
skt
smon
snowflake
spla
ssrc
stylesheets
sublists
tback
teaming
tempcpdict
tfrecord
thaw
thumbs
transdata
tstream
ttr
tys
unmanaged
unrecoverable
urlquote
variates
vas
vmwareobjectretrievalerror
webdriverexception
x08
yshift
##2bytes
##9f
##ackage
##acker
##acts
##agp
##amps
##arp
##ascii
##bal
##claim
##ery
##etid
##f5
##facade
##gory
##hunks
##icited
##idade
##imports
##iq
##lent
##lick
##lining
##lio
##markdown
##meth
##minimum
##modification
##mount
##mq
##neighbors
##nst
##ocator
##parms
##poll
##pools
##previous
##processed
##readerror
##reverse
##ructor
##timing
##ulations
##upgrade
##viewset
##wall
##к
##у
##ᅧᆼ세서
##ᆫ리번호
0x8
2400000
330
669270834329427
975
a7
abcdefghijklmnopqrstuvwxyz
affinities
alchemy
alot
annotatortype
anrmnow
antialiased
aprop
argl
atcontenttype
axisc
b26
badzipfile
basal
begun
benchbuild
bismark
blogname
blogs
c14n
capping
caspo
chevron
cind
class1
clearance
clientjobsdao
clz
coach
codex
cohen
columnwidths
comparators
compressing
conditioning
confuse
costheta
creationdate
csa
data2d
datetimefield
dhtmlparser
dy1
e6
eagain
enterprisecustomer
errorlist
ethtool
etime
extracellular
ezo
fair
fileextension
filefield
filestream
flowcal
fluxunits
fractal
frank
fseries
gathers
genomicrange
gettype
gsr
h11
hay
hdet
headerparseerror
hetatms
him
iaca
ibconn
icalendar
ifcfg
imageinfo
imputation
inconfig
interpolates
ipnetwork
irfftn
irr
isenabled
isentropic
ixs
lagrangian
leveldb
lifelines
lineages
logmessage
logos
looped
magnetometer
maketrans
mapfiles
marketplace
maxrows
maxscore
medoid
messy
miserlou
model1
mors
mpath
nbands
nchw
ndxuse
nlabels
nmbzones
nodeattribute
nofollow
nonperiodic
nplabels
nsamps
nskip
nsnps
ntc
obatom
obgnme
oci
ondemand
ooo
opcao
paco
pango
parallelized
parametrized
pats
pcov
personality
pert
pidstatus
playbooks
plotaxis
pocket
prepending
probnet
processevents
ptn
publicid
qpalette
qvboxlayout
rbridgeid
rdb
readgroup
recalculated
recommends
refpkg
relguide
requesturl
resourcepool
reusables
riv
sampletype
satcfe
savedata
sbs
scatterplot
scmd
scoreboard
sdd
sde
sdev
securitygroups
select2
sensation
seqarray
silly
solrad
spr
sslv3
standardised
stoich
subm
subtracts
syncs
taskmanager
teachers
testtype
tform
timelines
timex
tmplist
twenty
unacknowledged
unifac
unmap
viewid
vml
vrp
walked
waste
weightings
wid1
xacc
xax
xep
xvalues
ylimits
yname
ystar
zcut
zpos
zygosity
##2c
##2name
##639
##667
##702
##789
##7d
##aining
##aj
##ancing
##antic
##apicalsegments
##apps
##assembler
##aver
##calars
##canner
##ched
##completer
##critical
##dable
##datafile
##don
##eckel
##eling
##encryption
##eros
##ese
##esses
##ester
##eye
##fh8ybzrpjqmnyzzgotqb
##heckbox
##hois
##i0
##inct
##iny
##jk
##jobstore
##loginerror
##longitude
##lugin
##managedobject
##matching
##nin
##nto
##olation
##onds
##optimize
##outputfile
##para
##patient
##physical
##pred
##scription
##sel
##sock
##tarttime
##tg
##timelimit
##tmt
##uare
##ublish
##uities
##ument
##upported
##variants
##vertices
##violation
##x5
00000e
12s
139
24h
2fs
2h
308
359
absorb
abunds
aclass
actuation
addnodes
addressof
adjectives
alphabets
amongst
annualized
apical
arrowstyle
asi8
aspec
assessmenttaken
atv
authkey
bandname
bark
bibrec
binadminsession
biosppy
boiler
borocnstart
brome
byaxis
cao
checkid
cheetah
childnode
cir
clas
clientuuid
climb
consequences
coursera
cpecomponent2
crange
cslitlet
csw
ctc
cvtcolor
cwt
dallinger
datagroup
debut
decays
depenses
derep
deserializationerror
destructor
diblock
drawline
driven
drizzle
drot
dtend
dthetal
dw0
eef
egginfo
ensured
equator
erc20
excep
expandtabs
farms
fbchatexception
featurize
fformat
fhr
fieldspec
filebase
filehash
fraw
fru
gcmt
generalization
geomagnetic
glorot
glow
granular
hdate
hg38
hmset
homepath
hotstart
httpbadrequest
im2
inputdict
inspects
instruct
internalstats
intuitive
iosystem
jointcaller
justified
kvlayer
lake
lik
linecollection
loaderplugin
masker
meteorpi
mgf1
ml2
mlvl
nanpercentile
nemo
ness
newcpd
nnodes
npos
npt
ntree
numpydoc
nwarning
orga
pacman
payu
perchrom
phase2
phlp
plurals
poweroff
prefcounts
productname
proptype
putmask
pythran
pyxmpp
qpu
qtelogger
qw
qy
recordtype
redditor
reindexobject
rej
relptr
renewed
resourcegroup
returnvalues
revisit
rfh
rids
rnf
rris
rsize
sandman
sbase
sedes
sentinels
setobjectname
setups
sherlock
slant
slicers
slipmap
smembers
solicitud
sortedby
spacecraft
sph
staticfiles
step3
subpaths
subprotocol
sy2
syear
sysloghandler
tagcollection
tagid
tempi
ter
thresholded
thtext
timeaxis
toot
topdir
topythonstring
trainset
translit
treeiter
tuid
tweepy
understands
upsampled
utilized
variablename
vizier
vmnet
vsys
waterfall
wctype
wordsandemoticons
xnat
yakonfig
##180
##activate
##alize
##ancies
##asstring
##ational
##bfile
##clicked
##conversionerror
##cted
##deleted
##delimiter
##dms
##domainname
##dv
##earn
##eh
##evels
##fft
##gam
##gamma
##good
##gpy
##hite
##ida
##ido
##importerror
##interpreter
##lassified
##life
##lsp
##lty
##mitted
##ncoding
##ngle
##ois
##ologies
##olute
##online
##overrides
##pak
##paper
##payer
##phot
##qrt
##regress
##rily
##roving
##sha
##soup
##sparse
##standard
##throughput
##tok
##trail
##transformation
##trips
##tropic
##uared
##uer
##utility
##verbs
##wizard
##x4
##ния
0l
0x6
146
16xlarge
239
242
3s
4xx
addcols
addressing
agb
allkeys
arangodb
assocclass
atl
australia
awslimitchecker
b5
b58decode
bigdata
boolop
bvs
calendaring
catg
checkerr
chirality
choked
cmpr
codenames
combinators
conan
crawled
cytoband
cytometry
dataclass
datakey
datanode
dependee
devuelve
dmind
dutycycle
dv2
dvar
e5
eapi
ecliptic
edgeattribute
entrust
example1
explanatory
featurizer
feedid
fitsimage
ford
fsb
func1
functor
gbdx
gdsii
genos
getstatus
githubusercontent
hashtags
hcp
helping
hex2bin
hinting
httpsconnection
htype
hydraulic
hyperlink
ideas
idxmax
ierr
imagetransformer
imputes
inhibit
inname
inputfiles
inputtype
interfaceerror
ivalue
jobstate
keydir
keystroke
leibler
matured
mce
mplot3d
mrt
msbwt
myfunc
myproxy
mysocket
myzpool
ndarrayhandle
ndict
nes
nestcheck
nodatavalue
nodeinfo
nonblocking
notificationtype
nstar
numberofcols
nzind
ofname
oneshot
openconfig
outlined
outputtemplate
overridable
param4
parc
pdbe
peg
phir
physnet
pms
pnm
pno
posteriors
pow2
preservation
prettyprinter
prims
propagating
pstr
qhull
qiskit
ra0
rawq
reassigned
recalled
recruitment
reds
resamp
responsemetadata
responsetype
rivescript
rmagspecrec
shipment
shx
sigusr1
skl
splt
srcmdl
stagename
stor
strava
subheader
subversion
summarizer
survivor
syncmap
sza
terminology
timelib
transcode
tropo
ts1
tsmap
tvdb
ucd
uncorrelated
unmarshal
unpadded
userinput
vdj
verifications
vfunc
visually
voro
weakly
winkler
wiotp
wishes
wsb
xent
xis
xmins
xsum
yubico
zenpy
zoo
zoomed
##105
##4a
##agation
##ams
##around
##ationerror
##based
##byscore
##candidates
##coming
##dataobject
##degrees
##depths
##edlist
##elevation
##endents
##erating
##eventdefinition
##existserror
##f0
##fff
##groupby
##hand
##hildren
##hunt
##igator
##ileinfo
##invert
##iver
##lected
##likelihood
##lips
##mas
##minor
##nity
##odb
##openfilename
##osity
##polling
##preprocessor
##prox
##rants
##rectangle
##retentionperiod
##rootitem
##roots
##rue
##sions
##t0
##tderr
##to3
##urnal
##using
##uter
##xref
##xsize
##yes
##ии
##т
1252
138
15min
161
198
520
85rb
875
abcs
abis
abivars
acoustic
addmenu
agencies
aln2
applymap
arggroup
assigner
atomtypes
avm
berlin
bicubic
bignoreexceptions
blackman
blurb
bottomright
capstone
cgl
choosen
ckr
cline
closeness
cmdloop
codeuri
coils
colinear
column2
compaction
completers
conducted
contentfile
conv4
cow
cumul
cvar
dagbag
datatables
dfilter
differentiable
dijkstra
dracr
dsf
dspam
ecdsakey
eidos
emerge
emoticons
encdec
expnums
exscript
fahrenheit
filestem
filterfunc
folderid
friedman
fromdocname
genidx
genmodel
geostruct
getself
gitrepo
grado
gyr
hackersonly
hci
hcons
hero
hiding
highcharts
htpasswd
httpconflict
hues
injectable
innings
instructs
intake
interfere
iontype
iostream
isopen
itemaction
iterchildren
ixes
kfold
kperror
labdt
ldflags
lexists
libnacl
linecard
listy
lobj
lstniinames
maplesat
massage
matchstr
mergedmatch
meterdata
mips
mountpoints
moveaxis
mykey
nddata
netflux
nodegroup
nosuchelementexception
nsym
nzycheck
omd
onehot
overshoot
paintevent
painting
passages
pcr
pipe2py
pivots
plugit
pmd
pmts
powerflow
powerstate
ppi
preferable
preformatted
preparer
psi1
pyinstaller
qlen
qtmacsapplet
qtreewidgetitem
qualitative
raspberry
refactored
regionname
regularity
rejecting
relationaldbenabled
repositoryid
returncmd
riakobject
samefile
sbp
sectie
sga
southeast
spim
sreg
stagyydata
tachogram
tag1
tcga
threadlocal
tita
titled
tldap
tnr
tocsc
tokenlist
tout
treds
twopi
txobj
typestring
unclear
unconnected
unlocks
usps
vsearch
wikicode
wordtemplate
xrd
yconst
ydum
##151
##accepted
##agpfile
##aint
##ala
##aming
##bber
##bor
##bytype
##central
##ciate
##connectionsoperations
##derror
##disconnected
##eleted
##ern
##eto
##exist
##f6
##fully
##h5
##hresh
##idtoint
##intervals
##laim
##listed
##logged
##logpdf
##magenta
##measurement
##moc
##mongo
##nik
##och
##oftrust
##onents
##perator
##pump
##rency
##repositoryerror
##resultset
##rious
##secret
##sfile
##tadata
##tax
##toadd
##transforms
##triggers
##tw
##u8
##uidacion
##uise
##uncated
##wa
##writers
##ли
##│
00000
0to1
131
152
184
223
25000
303
3x1
5432
abnf
abstractelement
abstraction
acked
addfilter
allreduce
ape
applicationname
autoflush
autoupload
bac
bandit
baseaddress
bewit
bif
binded
binset
bitspersample
bivariate
blkval
bordercolor
borocnstnat
bvecs
bypasses
callbigdlfunc
casefold
cdpp6
charms
checkplots
chembl
childcount
cidrs
clan
coconutinternalexception
coicop
colorset
cond1
conesearch
consequently
cplist
creations
crons
crpix2
cstr
cursorpos
custodian
cyclelist
dataparser
daverror
dbundle
defenses
definitie
deploymentid
dhw
dico
dimstr
discoveries
displayable
dominoes
dora
dynesty
edgeid
eigval
elegant
encipher
endurance
ethinca
exchanged
[...]
