[PAD]
[UNK]
[START]
[END]
[SEP]
!
"
#
$
%
&
'
(
)
*
+
,
-
.
/
0
1
2
3
4
5
6
7
8
9
:
;
<
=
>
?
@
[
\
]
^
_
`
a
b
c
d
e
f
g
h
i
j
k
l
m
n
o
p
q
r
s
t
u
v
w
x
y
z
{
|
}
~
¤
§
®
°
±
·
»
×
æ
ð
ø
þ
đ
ı
œ
ɛ
ː
α
β
γ
δ
ε
θ
μ
ν
π
ρ
σ
τ
φ
ω
а
б
в
г
д
е
ж
з
и
к
л
м
н
о
п
р
с
т
у
ф
х
ц
ч
ш
щ
ъ
ы
ь
э
ю
я
є
і
ก
ค
ด
ท
น
บ
ป
ย
ร
ล
ว
ษ
อ
า
เ
ᄀ
ᄂ
ᄃ
ᄅ
ᄆ
ᄇ
ᄉ
ᄋ
ᄌ
ᄎ
ᄏ
ᄐ
ᄑ
ᄒ
ᅡ
ᅢ
ᅣ
ᅥ
ᅦ
ᅧ
ᅨ
ᅩ
ᅪ
ᅬ
ᅭ
ᅮ
ᅯ
ᅱ
ᅲ
ᅳ
ᅵ
ᆨ
ᆫ
ᆯ
ᆷ
ᆸ
ᆼ
–
—
‘
’
“
”
•
€
→
↦
∂
∅
∈
−
√
∧
∩
∪
≡
≤
≥
⊗
⋅
⎛
⎜
⎝
⎞
⎟
⎠
⎡
⎢
⎣
⎤
⎥
⎦
─
│
┌
┐
└
┘
├
┤
┼
═
╧
▇
█
▒
●
✓
、
。
か
し
す
て
に
の
る
を
ィ
イ
シ
ッ
ト
メ
ュ
レ
ン
ー
一
三
上
下
不
与
专
且
业
东
两
个
中
串
临
为
主
举
久
么
义
之
乐
乖
也
书
买
了
事
二
于
亏
云
五
些
交
产
享
京
人
仅
今
从
仓
他
付
代
令
以
们
件
价
任
份
企
众
优
会
传
似
但
位
低
体
何
余
作
你
使
例
供
依
侧
便
保
信
修
倍
候
借
值
假
做
停
储
傳
像
價
允
元
充
先
入
全
公
共
关
其
具
典
内
册
再
写
决
况
净
准
减
几
凭
出
击
函
分
切
划
列
则
创
初
删
判
利
别
到
制
刷
券
刻
前
剩
力
功
加
务
动
助
包
化
北
匹
区
升
协
单
卖
占
卡
印
即
历
压
原
去
参
及
反
发
取
受
变
口
句
另
只
可
台
史
右
号
司
合
同
名
后
向
否
含
听
启
告
员
周
命
和
品
响
唯
商
器
四
回
因
园
围
固
国
图
在
地
场
址
均
坐
块
型
城
域
基
填
增
声
处
备
复
外
多
大
天
失
头
夹
好
如
始
委
媒
子
字
存
学
它
安
完
定
宝
实
审
客
室
家
容
宽
密
对
导
封
将
小
少
尔
尝
就
尾
层
屏
展
属
工
左
差
己
已
币
市
布
希
帐
带
帮
常
幅
幕
平
年
并
广
序
库
应
店
度
建
开
异
式
引
强
归
当
录
形
影
往
径
待
很
得
循
微
心
必
志
快
忽
态
性
总
息
您
情
意
感
成
我
或
戳
户
所
手
才
打
托
扣
执
扩
批
找
把
投
折
抛
报
拉
拟
择
括
拼
持
指
按
换
据
授
掉
排
接
控
推
描
提
插
搜
摘
撤
播
操
支
收
改
放
效
教
数
整
數
文
料
断
新
斷
方
无
日
时
明
易
星
昨
是
显
時
暂
曲
更
替
最
月
有
服
期
未
本
机
权
材
束
条
来
板
构
析
果
某
查
标
校
样
核
根
格
框
案
档
检
模
橱
次
款
歌
止
正
此
步
殊
段
母
每
比
毫
永
求
汉
没
法
波
注
活
流
测
海
消
润
淘
深
添
清
港
源
滑
滚
满
滤
灣
火
点
為
热
然
照
爬
父
片
版
牌
物
特
状
率
环
现
班
球
理
生
用
由
申
电
界
留
略
疆
登
白
百
的
盈
益
监
盖
盘
盤
目
直
相
省
看
真
知
矩
短
码
确
示
票
禁
离
私
种
秒
积
称
移
程
稱
空
窗
窝
立
站
章
端
笔
符
第
等
答
策
签
简
算
管
米
类
精
系
素
索
红
约
级
纪
纯
线
组
细
终
经
绑
结
绘
给
绝
统
继
续
维
缀
缓
编
缩
缺
网
置
美
群
老
考
者
而
耗
聊
联
股
能
自
至
致
般
色
节
若
英
范
荐
获
菜
营
藏
虚
行
补
表
被
装
要
覆
见
规
视
解
触
言
計
詞
计
订
认
议
记
许
论
设
访
证
评
识
词
试
话
询
该
详
语
误
说
请
读
课
调
象
資
负
败
账
货
购
费
资
赞
起
超
足
跌
距
跟
路
跳
身
转
轮
软
载
较
辑
输
边
达
过
运
近
返
还
这
进
远
连
迭
述
退
送
选
逐
递
通
速
造
道
那
邮
部
都
配
采
里
重
量
金
针
钟
钥
银
铺
链
销
锁
错
键
长
間
门
闭
问
间
阅
队
防
附
际
陆
降
限
除
随
隔
集
離
雪
需
非
面
音
韵
页
项
顺
须
预
频
题
颜
额
风
饰
首
香
验
高
黑
默
鼠
齐
the
to
of
is
for
param
in
and
if
be
this
or
returns
list
return
from
with
name
type
that
an
str
as
file
data
will
value
string
not
are
by
object
on
it
id
default
all
none
true
function
given
parameters
set
class
method
int
optional
path
dict
args
get
number
used
key
array
which
can
values
use
bool
each
false
new
only
float
when
time
one
request
user
instance
should
specified
at
input
code
output
example
model
dictionary
create
rtype
any
into
you
##s
no
arguments
message
using
api
then
must
see
size
index
raises
tuple
format
returned
current
url
add
have
image
node
we
result
text
first
has
parameter
error
like
state
response
files
field
http
where
json
query
python
same
version
start
run
block
read
whether
check
command
source
containing
note
line
config
names
objects
element
call
table
directory
variable
length
also
server
information
shape
order
passed
self
but
group
provided
update
import
numpy
more
matrix
other
column
single
target
its
client
keys
may
ndarray
raise
func
results
otherwise
called
py
argument
event
item
required
so
end
defaults
was
between
sequence
two
based
filter
options
service
context
valid
attribute
point
does
filename
than
10
kwargs
out
log
resource
address
https
module
after
found
content
obj
configuration
search
np
integer
com
date
token
process
max
there
bytes
dataframe
either
convert
do
match
case
print
parse
salt
make
created
level
available
boolean
up
load
status
before
range
html
write
examples
fields
keyword
plot
mode
form
device
datetime
remove
reference
defined
types
test
stream
find
strings
pass
axis
connection
math
dataset
database
timeout
items
page
points
project
base
last
label
task
columns
attributes
maximum
callback
graph
generate
exception
metadata
description
session
series
contains
template
send
include
system
delete
info
row
elements
tag
some
network
specific
samples
non
local
map
already
sets
unicode
record
over
host
limit
been
empty
following
creates
operation
header
full
location
nodes
entry
thread
seconds
port
position
access
root
color
meth
random
per
ids
cache
sample
corresponding
they
added
multiple
such
##2
##1
instead
job
within
option
compute
variables
their
these
them
left
generated
count
exists
save
build
tree
existing
container
representing
vector
batch
password
tensor
right
channel
xml
cli
iterable
parent
identifier
prefix
handle
account
params
package
property
being
associated
document
specify
unique
interface
org
labels
valueerror
foo
additional
want
copy
your
action
next
models
pandas
body
second
requests
both
uses
different
mapping
properties
num
about
structure
distance
offset
change
show
arg
how
lines
gets
ip
environment
representation
supported
coordinates
collection
possible
schema
without
retrieve
feature
open
checks
step
original
width
store
present
dtype
application
exist
namespace
via
calculate
window
functions
view
expression
raw
rows
through
bash
frame
apply
callable
need
features
contain
zero
standard
times
docs
generator
part
min
matching
adds
section
hash
details
just
ref
memory
queue
domain
custom
title
space
handler
mean
flag
methods
takes
instances
##d
settings
messages
layer
attr
relative
stored
errors
bar
indices
most
core
wait
link
notes
##e
app
post
binary
top
dir
tags
running
grid
calls
component
lists
events
storage
usage
headers
cluster
total
algorithm
endpoint
paths
private
db
display
re
remote
signal
calling
profile
stop
distribution
directly
region
pattern
etc
auth
username
unit
characters
invalid
tuples
timestamp
internal
complete
contents
currently
extra
minimum
google
auto
every
changes
until
cloud
updated
encoding
uri
initial
interval
decorator
since
rest
folder
what
perform
units
df
here
pairs
01
exceptions
matches
term
raised
register
async
would
axes
12
work
child
scale
means
automatically
rate
main
execute
height
expected
sum
email
extract
word
those
long
setting
##a
requested
def
replace
mask
removed
volume
images
entity
dimension
inputs
repository
updates
another
100
determine
script
entries
split
take
according
amount
needed
signature
factor
versionadded
helper
records
library
matplotlib
period
force
parsed
equal
ignored
##r
always
frequency
##ing
frac
missing
useful
github
users
arrays
support
sort
sent
##ed
byte
style
sub
converts
allow
edge
along
parser
transform
character
many
download
fit
makes
states
00
language
named
control
groups
my
##0
because
weights
included
specifies
starting
buffer
scalar
numbers
supplied
considered
public
allowed
definition
report
absolute
site
references
global
validate
extension
cannot
select
doesn
encoded
score
##3
null
try
active
success
connect
written
destination
csv
desired
##error
applied
components
else
classes
weight
don
during
cell
back
done
scope
override
fetch
logging
documentation
well
policy
could
figure
symbol
under
##t
filters
v1
transaction
lower
metric
against
2d
role
formatted
dimensions
above
threshold
proxy
sorted
ensure
depth
rule
way
yaml
failed
init
implementation
bit
once
warning
allows
simple
len
converted
loop
yang
were
resources
pair
temperature
analysis
flow
training
coordinate
modified
ignore
actual
validation
previous
including
os
reads
look
bucket
provide
place
least
alpha
implemented
selected
failure
edges
20
lambda
commands
retry
www
manager
angle
indicates
operations
while
iterator
operator
##n
##id
close
protocol
necessary
whose
payload
modules
runs
stack
machine
correct
optionally
req
spec
execution
indicating
old
11
common
appropriate
disk
negative
io
generates
enabled
normal
master
loaded
day
skip
yields
aws
please
requires
future
var
en
sequences
enable
windows
equivalent
direction
chain
best
resulting
git
phase
authentication
pd
off
registered
merge
side
words
calculated
segment
positive
center
##o
supports
comment
steps
upload
keep
deleted
wrapper
below
route
duration
doc
plugin
txt
linear
returning
inside
##4
##l
progress
##y
processing
meta
asynchronous
area
radius
removes
alias
put
todo
osid
nested
condition
average
changed
parses
program
member
particular
stats
channels
box
certificate
initialize
subject
saved
power
separated
##c
needs
less
1d
authorization
insert
received
append
calculates
##m
logger
sql
zone
##er
repo
product
commit
statement
azure
##i
attempt
30
tokens
summary
sigma
surface
bin
specification
mapped
flags
final
upper
installed
##5
##type
pool
known
django
setup
curve
dictionaries
density
engine
represents
asset
successful
exc
bits
secret
help
specifying
credentials
real
socket
even
tasks
agent
now
children
history
our
connected
category
pre
widget
val
kernel
works
##list
outputs
pixel
##name
debug
15
itself
around
nan
registry
partition
assumed
degrees
except
verify
##p
related
us
creating
msg
chunk
three
login
lookup
backend
##6
tf
probability
numeric
depending
bound
individual
16
render
made
pixels
computed
year
nothing
move
down
latest
install
rules
similar
actions
admin
de
blocks
basic
reset
counts
define
stdout
variant
regular
slice
pipeline
virtual
export
computes
determines
uuid
gene
might
fill
constant
usually
archive
continue
delta
regex
25
fn
##8
branch
processed
noqa
doctest
packages
normalized
src
scipy
sources
sparse
looking
multi
problem
verbose
evaluate
performed
unless
##7
join
op
dicts
deprecated
sure
populate
positions
background
##x
ratio
starts
col
encode
services
directories
configured
energy
greater
primary
fail
construct
mesh
cases
dev
sampling
processes
security
typeerror
cursor
high
links
executed
handles
special
docker
pretty
writes
iteration
train
release
seed
fails
cached
applies
##b
noise
retrieves
something
snapshot
large
s3
loads
metrics
media
exit
vectors
lock
pdf
statistics
disable
permission
pressure
notification
low
util
assigned
external
permissions
env
versions
terms
workflow
mass
short
selection
yield
constructor
decode
indexes
seq
intervals
provider
##es
setter
taken
recursively
formats
colors
union
prior
parsing
mod
2015
integers
##file
cmd
precision
accept
jobs
subclass
web
expr
transfer
##9
##f
origin
sys
checked
worker
days
plots
clear
objective
compliance
forward
go
kind
blob
normalize
performs
quantity
solution
tables
draw
floats
working
exclude
rpc
descriptor
audio
assert
estimate
factory
however
transition
double
asynchronously
topic
coefficients
50
filtered
comma
accepts
includes
epoch
identity
shell
docstring
mandatory
partial
loss
reply
overwrite
vm
fixed
difference
effect
provides
2016
amazon
syntax
unknown
due
subset
bins
dim
twilio
latitude
v2
ax
decimal
compare
keywords
1000
derived
filepath
passing
ordered
packet
very
entire
trace
speed
indicate
simply
extracted
longitude
receive
geometry
maps
members
24
actually
reverse
behavior
scan
modify
urls
defines
pos
reading
bounds
backends
parallel
devices
ones
##ly
parts
corresponds
dependencies
conversion
wiki
owner
static
dimensional
dump
annotation
vertex
correlation
recent
closed
synchronous
issue
reason
cls
statements
still
padding
redis
conf
certain
layers
flask
avoid
sends
shared
utils
frames
suffix
##g
zip
32
conditions
gradient
trigger
later
addresses
finds
complex
fully
layout
described
logs
across
e501
underlying
mu
potential
require
iterations
calculation
home
determined
locations
patterns
png
levels
signed
limits
replaced
ssh
beta
rank
compatible
sign
targets
##h
month
tests
turn
flux
adding
drop
own
unable
coefficient
utc
give
mm
sync
catalog
hostname
segments
histogram
describing
refresh
clean
pull
queries
cells
pkg
prepare
separate
##k
patch
exact
resolution
attempts
watch
previously
yet
deletes
wrapped
creation
together
wrap
built
serialized
dist
contained
definitions
rather
matched
observation
safe
price
equation
phi
idx
track
prediction
13
retrieved
200
codes
marker
priority
configure
dt
temporary
iso
feed
resolve
comparison
too
assumes
connections
cross
immediately
prints
eg
diff
hex
human
activity
cpu
light
video
estimated
gaussian
accepted
arbitrary
dot
timezone
issues
fraction
completion
heat
rotation
ascii
pid
utool
ns
chat
iterate
small
hello
vertices
free
hook
minion
inverse
printed
developer
plt
chunks
generic
pipe
selector
degree
ok
span
subscription
##able
basis
age
scores
##v
unix
country
attached
counter
02
readable
caller
pi
further
constraints
timeseries
scheme
comments
driver
net
begin
world
represented
team
convenience
family
hidden
purpose
##data
logical
redirect
ut
traceback
experiment
beginning
documents
datasets
console
displayed
exactly
lat
14
checking
head
iter
represent
stderr
covariance
simulation
direct
screen
gamma
positional
visible
norm
transformation
##exception
clients
whole
isn
builds
newly
projects
edit
hosts
ready
prompt
obtain
criteria
regions
theta
##info
symbols
higher
alternative
anything
fits
2014
nearest
follows
general
various
thisobj
vertical
assign
2018
switch
bank
utf
successfully
scaling
pages
tab
likelihood
3d
threads
##z
entities
produce
alignment
downloaded
recursive
sensor
initialized
dns
platform
projection
td
collections
depends
minutes
whitespace
fasta
explicitly
responses
derivative
round
123
genes
measurement
##al
tries
observed
obtained
dynamic
listed
bottom
proper
typically
several
font
relevant
rgb
variance
dates
course
delay
having
consider
th
mark
merged
outside
overrides
2017
longer
chosen
plotting
serialize
ipv6
recommended
rho
saves
operationfailed
shift
bounding
tile
writing
formula
terminal
looks
testing
cost
##u
64
appended
sending
templates
choose
occurs
assume
button
everything
suitable
handling
evaluation
pointer
extensions
deviation
tools
weighted
res
doi
completed
filenames
copied
population
controller
filtering
annotations
relationship
spectrum
identical
overlap
computation
pub
ex
255
identify
ranges
smaller
invoked
stage
encryption
spaces
polygon
relation
bundle
vlan
collect
possibly
tolerance
clusters
uniform
encrypted
square
coroutine
measure
inner
observations
author
stores
evaluated
ssl
started
ms
pending
plugins
remaining
decorated
respect
share
constants
peer
addr
larger
23
gives
requirements
filesystem
magic
much
pillar
interpolation
consumer
neighbors
notebook
magnitude
nullargument
indexed
plane
uint8
boundary
dest
exp
mac
05
routine
temp
uid
contact
shown
loading
cause
bias
eval
never
learning
bot
omitted
routing
predicate
versionchanged
tcp
pad
sqlalchemy
trajectory
fluid
22
baz
interfaces
performance
upon
mount
duplicate
expand
myminion
detect
matrices
separator
serial
keyerror
respectively
constraint
design
struct
ast
making
astropy
decoded
incoming
question
17
categories
expressions
const
router
velocity
registers
boto
assessment
customer
combination
opts
sizes
thus
revision
strict
independent
push
runtimeerror
extended
utility
char
onto
extracts
preview
dependency
fast
ints
solver
tool
transformed
predicted
menu
again
18
fix
reader
better
horizontal
did
enum
exchange
builder
cert
critical
produced
disabled
naif
03
band
executable
lib
quality
treated
correspond
reduce
good
predictions
predict
signals
tau
identifiers
vpc
refer
ll
opened
31
et
able
img
appear
freq
gas
md5
slot
physical
ensures
plain
consistent
schedule
identified
strip
bind
sections
cycle
##on
cookie
native
ec2
attach
dependent
handlers
percentage
yes
servers
candidate
timedelta
##et
dry
subclasses
defining
atom
confidence
detail
legend
optimization
hierarchy
sentence
wikipedia
addition
argparse
strategy
instruction
logged
validator
ext
peak
inserted
subnet
intersection
intended
choice
embedding
transport
imported
abs
sqrt
subprocess
executes
follow
oauth
21
managed
percent
42
filled
game
ipv4
correctly
variants
40
controls
pickle
know
##context
ports
cfg
compatibility
implements
replacement
zeros
wallet
bad
##00
normalization
estimator
operand
##key
attrs
sid
internally
mappings
tmp
bulk
fname
plus
60
initialization
median
networkx
typing
editor
translation
plotted
manually
protobuf
shows
things
atoms
measurements
properly
red
tensors
04
90
capacity
guess
logic
digits
##in
runtime
classification
choices
frequencies
##instance
ends
click
compile
occur
blank
queryset
daily
expect
gateway
validates
conn
management
sites
lon
pin
tar
prog
assignment
describe
translate
glob
passes
waiting
al
dec
rendered
desc
inline
discrete
finished
restart
lengths
person
distances
dst
guide
publish
acl
roles
phone
handled
dialog
deployment
browser
endpoints
generation
angles
resolved
sframe
css
major
probabilities
librosa
followed
compressed
kg
copies
floating
monitor
stops
searches
therefore
accuracy
combined
generally
sender
writer
detection
produces
std
2000
credential
explicit
solve
blocking
meaning
authenticated
numerical
normally
subsequent
convention
obs
species
elasticsearch
float32
ordering
delimiter
important
mixed
19
letter
coords
rfc
transforms
opt
##w
binding
reduced
implement
cutoff
similarity
interpreted
wrong
adapter
prevent
card
java
hdf5
indicator
hit
liquid
applicable
chemical
getting
omega
tr
milliseconds
taking
cast
streams
topology
vars
flat
player
belongs
mag
thing
##model
encoder
who
reached
fft
hours
book
diameter
##path
fs
wraps
generating
cut
compression
checksum
cat
##response
aggregate
leading
eq
structures
contract
offsets
arr
occurred
ca
notfound
accounts
inf
fmt
detected
permissiondenied
attention
factors
referenced
boot
rename
ordereddict
registration
base64
moving
randomly
backup
highest
sampled
digest
faster
periods
replaces
workers
co
loc
rendering
giving
leave
organization
callbacks
located
##ize
market
submit
brief
combine
processor
doing
actor
notifications
x1
##en
moment
colormap
09
diagonal
indent
js
performing
symmetric
attachment
cancel
bigquery
live
updating
80
circuit
escape
leaf
aggregation
formatting
gov
alt
argv
locale
providing
cb
systems
constructs
overridden
others
workspace
artifact
datastore
radians
sorting
stat
abc
applying
es
pa
authenticate
expects
water
mathbf
published
splits
bootstrap
invoke
launch
marked
room
third
won
distributions
enough
qubits
spin
##value
aligned
forms
ts
configurations
uploaded
continuous
fluxes
closest
computing
integration
largest
qualified
fitting
compound
four
svg
trailing
interest
pip
removing
tx
chart
spatial
masked
pywbem
hour
inclusive
ui
correction
encountered
##request
capture
1e
ra
chars
alert
drawn
extend
gz
problems
walk
etree
regardless
break
markdown
cim
clip
err
categorical
excluded
imports
neighbor
##ion
instrument
##config
align
calc
deep
fallback
nd
probably
restore
applications
ending
v3
cumulative
posterior
answer
basestring
expanded
ants
clustering
parents
let
listing
xxxx
##client
2012
debugging
operators
article
batches
pdb
entropy
gate
instantiate
reserved
ie
28
partitions
becomes
networks
daemon
reaction
linked
mx
quote
stackoverflow
canonical
constructed
ds
effects
un
approximate
epsilon
retries
stable
75
ask
ipython
assets
curves
fetches
ndim
purposes
dc
functionality
routes
going
containers
restrict
500
fig
scaled
ttl
arc
duplicates
minor
submission
transactions
white
clone
half
often
preferred
receiver
reports
xxx
inplace
wish
aliases
tensorflow
exported
pem
proto
big
polynomial
bus
localhost
optimal
##map
delimited
notation
boundaries
fragment
##group
saving
assuming
corpus
slug
##q
calculating
distributed
mongodb
clause
dd
expiration
embedded
hard
2013
deferred
encrypt
hydpy
verification
meters
coverage
east
likely
linux
shortcut
toolkit
amplitude
manage
warnings
classifier
javascript
pprint
scripts
##field
datatype
qubit
board
regression
compiled
rsa
composition
cartesian
hz
ascending
dag
plan
reg
sr
tested
##manager
enumeration
poll
##node
medium
vs
acceptable
gpu
sim
##result
##time
cc
compared
executing
iam
manual
##object
newline
vcf
kwarg
respective
tc
activation
canvas
ctx
el
outer
payment
protein
x2
journal
adjust
week
fp
holds
literal
##j
06
finding
modifications
##or
draws
qt
repr
slices
##item
corner
estimation
respond
sphinx
associate
exclusive
manifest
smooth
solar
##dict
mouse
arn
08
azimuth
ss
views
cols
dims
software
timer
raster
validated
latent
evaluates
placed
volumes
listener
trying
zoom
circle
experimental
locally
requirement
shapes
##an
ticket
timestamps
currency
gen
128
signing
sleep
unused
xarray
orientation
45
ij
increment
infer
friendly
gui
na
voltage
chains
declaration
2019
hold
indicated
latex
skipped
upgrade
dispatch
genome
km
bovy
effective
expressed
padded
backward
dataarray
detailed
triggers
intermediate
scene
bam
grouped
telegram
finish
interactive
triggered
broadcast
dx
est
interactions
psd
behaviour
mechanism
rectangle
serializable
optimizer
whatever
far
ioerror
molecule
approximation
dynamodb
efficient
pop
procedure
questions
sphere
##ation
mol
csr
initializes
limited
inference
completely
downloads
ret
wildcard
detector
shutdown
building
panel
reload
spark
automatic
cm
tol
differences
mysql
overall
blue
license
measured
spectral
fetched
hand
intensity
modification
rdd
sep
symbolic
expired
##base
calendar
terminate
transcript
broker
flatten
quadratic
searching
secondary
trim
wide
enter
equals
hardware
locator
mail
optimize
potentially
increase
kw
places
become
care
loader
pk
inspect
sarray
searched
sampler
07
compress
la
overlay
prop
##ar
26
approach
namedtuple
yyyy
asyncio
past
repeat
unchanged
##us
cores
front
holding
jwt
allele
iterates
kept
modes
nb
nvml
though
ve
lattice
stdin
executor
md
pyplot
bed
lazy
overwritten
scopes
fd
placeholder
products
apps
languages
particle
sc
throw
blueprint
border
boxes
markers
minute
##at
repeated
super
declared
vals
ini
nasa
pitch
unpack
artist
bel
learn
dna
int32
stopped
win
lang
mime
sp
33
##ic
configs
enables
folders
opens
seen
commandline
green
moves
play
vault
health
mock
simulated
slow
bases
float64
seealso
spherical
127
indexing
lag
portion
sentences
star
really
sometimes
spacing
scheduler
smoothing
student
waits
inferred
issuer
listen
minimal
vocabulary
construction
lowest
pagination
profiles
squared
formatter
me
v5
collected
dense
directive
observer
cf
goes
ground
hashes
##class
##it
few
estimates
exec
pick
happens
identifies
mgmt
occurrence
tick
wave
describes
legacy
receives
tracking
27
among
extent
bytearray
wind
presence
candidates
pred
rbridge
balance
changing
expectation
face
voxels
href
httperror
pymongo
snmp
sensitive
sheet
snapshots
trained
vec
gap
happen
printing
connectivity
multiindex
prefixes
structured
branches
converting
oserror
sdk
colorbar
uint16
##table
unsigned
away
fastq
notify
edu
im
translated
calculations
catch
grant
tube
2010
appears
deploy
directed
rotate
gradients
populated
replication
si
wise
hint
occurrences
prefixed
sec
devops
graphs
int64
unset
causes
namespaces
overriding
primitive
rdf
statistic
supply
xx
34
angular
jid
submitted
thrown
consecutive
cos
domains
elementtree
percentile
topics
refers
paper
serialization
visual
weather
mv
rev
##le
camera
anchor
digit
flattened
icon
letters
sha1
shard
retrieving
significant
256
decoding
pt
2011
distinct
conditional
flush
hooks
mpls
quotes
association
checkpoint
calibration
markov
orbit
wavelength
35
alignak
dumps
echo
guest
preserve
websocket
192
dummy
persistent
tail
teams
expires
keyed
microsoft
neither
parsers
pointing
runner
##db
policies
rst
wbem
displays
rel
abstract
ac
functional
integral
residue
sense
wheel
##ate
##um
accessible
altitude
ops
serializer
storing
turicreate
000
assembly
namespaced
song
station
gps
pil
decoder
caching
kill
mat
sig
##event
crypto
br
descending
operating
orders
plaintext
verb
wsgi
come
pairwise
throws
authorized
fake
keyid
scatter
vocab
decrypt
explanation
jpl
moved
await
bug
centered
fourier
streaming
advanced
webhook
##index
accessed
interaction
issued
##filter
cov
cspice
fingerprint
inc
widgets
framework
queues
sky
asn
packed
st
stripped
visualization
cube
exposure
nonce
pp
segmentation
xpath
connecting
grad
motion
yielding
geo
getter
sa
scheduled
silently
deserialize
pack
pr
agents
breakpoint
drawing
joined
repos
x0
##array
closing
dfvfs
instructions
packets
##01
appends
convergence
ellipsis
fun
interpolated
little
resize
whenever
availability
cp
emit
rc
180
29
environ
lowercase
nu
particles
quick
reported
stages
stub
warn
cleanup
trees
tz
additionally
dom
material
years
##ity
beam
elastic
prob
95
embed
gain
identifying
indentation
specs
verifies
##os
black
inserts
unsupported
bindings
##dir
colour
finally
incorrect
voxel
brain
plate
renders
wcs
finite
pypi
belong
scales
triangle
grade
cdot
zhmcclient
backwards
consisting
consumed
markup
nl
initializer
online
p1
receiving
transformer
dataframes
ol
press
##is
##message
converter
dispatcher
overlapping
algorithms
hparams
marks
ml
tm
insensitive
macro
natural
faces
parm
2nd
decomposition
se
buckets
guaranteed
hat
sink
tls
zendesk
abort
allocated
arxiv
aware
hits
instantiated
t1
##line
exponential
mixture
smallest
thermal
truncated
twitter
increasing
nx
peaks
spam
timing
verified
41
certificates
cn
combinations
nor
stuff
ticks
validity
viscosity
300
adjusted
analyze
grammar
gzip
had
middle
ping
turns
centers
closes
convolution
falls
precedence
strength
visit
consists
cookies
fitted
photo
##th
baseline
loops
meant
rates
deletion
bgp
etag
pore
relations
thumbnail
treat
dirs
roll
showing
drive
fact
ln
raising
contour
lead
selects
stride
activate
atomic
dog
optimized
zones
modifies
singular
t2
traffic
400
crop
ways
cmap
deg
ldap
waveform
bokeh
central
specifically
##url
unlike
dat
pseudo
recipient
interpolate
lc
subscribe
tell
partially
xy
##code
168
excluding
orm
simulate
v2010
bond
recall
resolves
directions
expansion
networkapi
##ies
diagram
epochs
expire
opening
pe
corrected
pc
uncertainty
allowing
hexadecimal
lease
mapper
quoted
secure
sessions
ensemble
exponent
multiplier
recording
sha
discovery
extraction
palette
poisson
preference
randomstate
soft
sun
upstream
arange
clock
divided
foobar
splitting
tl
artifacts
fresh
s1
##count
hide
mutation
scenario
xyz
##tate
john
merges
tip
decorate
evidence
forecast
naming
city
depend
harmonic
installation
l2
poly
wrapping
##te
comes
fractional
x1b
##mode
##py
jar
onset
zabbix
##view
annotated
charset
queried
rad
tornado
clears
datacenter
developers
labeled
mostly
1st
complexity
convex
principal
releases
torch
unexpected
alarm
commits
escaped
keyboard
eps
hgnc
lxc
psf
restricted
stanza
unspecified
hashable
strain
subjects
periodic
accordingly
derivatives
fall
grouping
jpg
a1
endian
equations
firmware
libraries
older
phrase
subplot
alternate
connects
cover
north
vrf
##el
adata
balancer
campaign
inputed
joint
longest
ps
99
lxml
fpath
separately
tweet
##query
argumentparser
compose
environments
slave
bridge
permutation
gt
keras
ls
maybe
userid
udp
##out
deserialized
groupby
migration
resets
##tree
basename
dynamically
indra
patches
undefined
gpg
reactions
##io
da
easy
globals
income
inventory
membership
uploads
del
destroy
gradebook
hence
mediator
multipart
pod
production
spans
void
10000
charge
community
mxnet
risk
study
vehicle
implicit
newer
review
##ts
concatenate
easily
mib
portal
tiles
59
coord
dropped
impact
sin
sqlite
##ness
##nt
cidr
crs
decision
eigenvalues
figures
monitoring
passphrase
pause
prepend
substitution
truth
verbosity
cleaned
draft
entered
netcdf
2009
codec
composite
middleware
proof
alternatively
attributeerror
elevation
fine
margin
microseconds
quiet
ray
sha256
triple
why
div
equality
animation
dropout
focus
lost
projected
chromosome
databases
enforce
infinite
invoice
latter
measures
multiprocessing
reject
int16
adjacency
alphabet
compares
concatenated
hosted
serve
architecture
highlight
specimen
aren
hh
hub
nt
repositories
smart
wants
affect
c1
caches
preserved
responsible
alive
dashboard
leaves
belonging
iterables
consume
foreground
generators
motor
compiler
consumption
disconnect
mp
odl
speech
stopping
404
ctypes
designed
pores
specifications
areas
descriptions
bbox
comparing
deleting
differ
polygons
arrow
cl
colon
##func
39
act
consistency
cycles
reduction
tier
yy
datetimeindex
dotted
hazard
renderer
trajectories
v1beta1
earlier
variation
cred
mathrm
persisted
quaternion
##ment
almost
apierror
piece
truncate
adjacent
affected
determining
formed
jinja
kl
mb
unimplemented
chaospy
l1
s2
aggregated
avg
company
cwd
deal
polling
radial
reboot
english
marginal
owned
sagemaker
say
sudo
affine
apis
asc
facet
recipe
suppress
transitions
trial
##st
creds
descriptors
openid
##lib
1016
ftp
hop
locked
ndarrays
removal
replacing
solutions
texture
typical
udf
credit
dp
seek
contrast
proc
confirm
rs
trip
wire
##text
coerce
locate
mir
party
replica
scalars
##ir
##ive
nc
sound
symmetry
##handler
geojson
li
mags
recursion
##version
ciphertext
circular
dimod
lens
regularization
##op
dimensionality
internet
ips
naive
outcome
pure
relationships
resolver
temporal
##tring
absent
minus
nonetype
outfile
schemas
sympy
##parser
##rs
assignments
classname
confirmation
newlines
signatures
spline
terminated
translations
vip
##entry
discarded
gaps
international
proposed
pybel
trade
ar
aspect
breaks
capabilities
forced
imgaug
near
supporting
swagger
underscore
exports
music
p2
revocation
theme
2008
dryrun
encodes
frontend
ietf
retried
satisfy
serializes
swap
symlink
2001
eta
nn
spectrogram
authors
chi
decide
nans
substring
broken
divide
lv
appropriately
delivery
micro
##tr
ad
alleles
although
collector
envelope
pb
sam
##image
##man
##val
bg
intent
y1
aa
begins
composed
conflict
existence
multiplied
startup
tp
wepay
##user
easier
movie
posts
smoothed
vol
xs
##ref
##ting
accurate
ed
foreign
got
operate
semi
styles
idd
invokes
qr
readthedocs
##64
cmp
concrete
engineering
fault
figsize
five
hist
lt
merging
minimize
rapid
remain
valued
x509
##ids
##to
beyond
shall
##as
1234
af
excel
feedback
m1
nice
slightly
slots
##ted
allocation
basically
demo
inst
slack
uint32
36
consensus
glyph
hue
preprocessing
rounded
configures
development
discard
forever
gather
kmip
people
rating
solid
usual
yielded
##obj
cipher
exits
machines
providers
pyhpeimc
1024
dead
incomplete
insertion
keeping
meter
triangular
trimesh
##tatus
analyses
euclidean
interpreter
kb
representations
safely
traversal
attachments
iff
invocation
playlist
residuals
traverse
conversation
guarantee
rect
reshape
scroll
xi
##10
##graph
integrate
irradiance
ticker
twice
unrecognized
##params
elapsed
forwarded
immediate
quantile
reach
resume
tango
texts
twisted
vary
disks
firewall
land
persist
statistical
tagged
configparser
d1
efficiency
renamed
succeed
##ip
validationerror
##re
##tion
ab
bots
claim
mid
minions
rhs
rolling
throat
builtin
tunnel
tzinfo
##ble
adapted
elem
gates
squares
tabular
101
hi
moments
rectangular
resample
sas
thresh
voice
##box
bandwidth
emitted
heads
histograms
inject
knowledge
predefined
prepares
season
value1
##pec
bp
ci
claims
communication
duplicated
f1
gl
logits
molecular
openquake
popen
appending
bold
cdf
con
d2
interpret
prefer
reporting
touch
eigenvectors
extends
ignores
systemd
##ll
album
fills
fractions
ma
masks
prime
pypsa
residual
##fs
##tools
accessing
failures
fuzzy
implementing
met
offer
proximal
slash
strand
boto3
paired
transit
amino
decay
denotes
fewer
futures
reasons
website
bands
bob
correlations
fork
grab
keeps
months
recorded
c2
cd
contig
scikit
succeeded
thresholds
52
identities
slope
debugger
neural
publisher
recurse
shuffle
toggle
##ata
##record
blog
ellipse
m3
rec
sf
##ter
a2
air
checkout
cylindrical
dots
downloading
grids
nic
presented
subplots
syslog
##form
##number
ansi
di
los
matter
mounted
oauth2
switches
tenant
##ns
0000
derive
em
shifted
titles
##ine
decodes
idle
implementations
nonzero
rb
resp
toil
tracks
uoa
west
2004
coming
declare
egg
federation
traces
wanted
001
acquire
anndata
mediates
pgmpy
reversed
six
timesteps
##date
##ure
gwpy
inherited
paragraph
printable
pycbc
rm
roots
visibility
assertionerror
benchmark
copying
disables
heading
magnetic
usr
vim
alternatives
challenge
experiments
geom
guarantees
identification
ignoring
orig
python3
saturation
substitutions
##api
citation
edition
hmac
lot
outgoing
prepended
robot
soon
sorts
temporarily
ub
##ff
cancelled
computer
cosine
prices
stock
ylabel
ack
early
le
refs
##format
51
conv
etl
exe
exposed
flows
mirror
queued
timestep
today
contribution
criterion
gb
multiply
penalty
sides
sklearn
transpose
trust
37
dy
h1
nat
omit
recipients
themselves
##ia
individuals
referred
stochastic
dask
pm
conflicts
detects
effectively
hot
lab
notice
parsermediator
reflect
jacobian
m2
publication
r1
shares
##plot
allocate
az
modifier
reward
urn
value2
virtualenv
##connection
##names
averaged
buf
capable
contrib
intercept
necessarily
readme
recognized
stations
subscriptions
succeeds
56
ii
jpeg
mimetype
requesting
spawn
tells
concurrent
coro
dirname
dtypes
implies
inactive
lst
xlabel
##ers
caption
discover
genus
jump
pathlib
pint
transformations
##12
##options
58
chip
para
regexp
silent
53
cond
flip
inherit
polar
snippet
##input
blast
fold
intersect
pca
postgres
validators
wildcards
##num
listening
losses
prepared
sat
slower
typed
wall
cas
cobra
compliant
motif
pathname
##collection
complement
digraph
dual
puts
stamp
tt
usb
##ge
70
buffers
chunked
completes
decorators
dn
improve
keypair
sls
substitute
##page
apache
declination
edited
moc
pulse
rand
ridge
tensorboard
turned
##ization
brightness
digital
fragments
galactocentric
hyperparameters
isinstance
notimplementederror
prev
trips
v0
##set
assertion
blacklist
gender
ne
props
reuse
ring
subtract
vcs
##ut
2007
curl
emails
fire
inv
offline
parseerror
periodogram
plural
rejected
##de
##method
acquired
bars
clipping
forces
grains
hashed
kafka
opaque
sms
targeted
worksheet
mix
mutations
stacked
##ized
comp
deviations
division
genotype
protected
semantics
sh
snr
y2
##ist
##ror
acid
acts
assigns
checker
contours
cubic
graphql
invert
jlink
prevents
singleton
ws
##ce
##net
##ng
antsimage
attempting
cpus
dynamics
par
pep
populates
punctuation
quantiles
##notfound
anonymous
audit
dip
earth
he
lmax
looked
relaxation
tabs
##ify
48
acceleration
constructing
ctrl
dos
idea
ram
resampling
satellite
differential
episode
ontology
sized
termination
38
annotate
chord
exceeded
finder
iv
odd
retain
reversible
seems
shorter
usable
##32
##ms
documented
hmc
mongo
obspy
overwrites
permitted
science
suite
uris
##level
512
administrator
arch
customize
dm
okay
pressed
quad
##ant
44
am
ambiguous
auxiliary
biases
contiguous
continuation
denote
infinity
platforms
subcommand
##args
##log
##policy
##ry
##token
alphanumeric
contacts
controlled
cr
enterprise
fc
healpix
ind
led
mem
placement
sqlite3
widths
##len
attack
fr
gallery
gram
mi
translates
whitelist
##point
dialect
held
propagate
purge
redirects
rr
shallow
universal
##02
##am
##ch
120
55
buttons
compact
denoting
especially
implicitly
locus
modifying
oid
orb
probe
representative
rpm
spaced
##16
##state
articles
bigtable
bytestring
comparisons
essentially
frequencyseries
globally
mini
postgresql
rotated
rt
##est
##ode
alice
centroid
contexts
decrypted
key1
prod
pysnmp
replies
samp
aes
ancestor
catalogue
concat
descendants
maximal
originally
r2
shortest
soap
stationary
successive
tsv
##ities
8601
cleared
counting
creator
friction
kms
ntp
querying
##all
##configuration
beat
evaluating
fabric
helpful
nnabla
phenotype
php
placeholders
solr
##metadata
##ne
ap
det
extractor
fluent
objectid
pg
preset
remember
sensors
separation
trading
pieces
spot
##hash
##ile
43
hessian
historical
january
phases
sensitivity
subtype
trusted
bing
coarse
conductivity
fortran
intro
key2
matlab
pkgs
regarding
robust
sip
subdomain
##ap
##element
##im
alter
configurable
covered
energies
genomic
geometries
ident
ranking
writable
zipfile
##job
##rc
85
acquisition
classpath
clockwise
nx1
predictive
proportion
released
stem
underscores
webdriver
weighting
xmin
##port
avatar
checkplot
downstream
gauss
gtk
participant
px
residues
simplex
##11
##ent
##up
##ype
activated
ann
dicom
established
filling
goal
ot
spanning
subtree
tuning
##range
bypass
quantities
reasonable
rock
scoring
ubuntu
uint
apple
autocorrelation
demand
esxi
exceeds
mul
selenium
y0
##000
##ame
##ma
##om
adjustment
fetching
grain
indexerror
kv
orthogonal
plotter
recovery
shapely
sym
triples
bb
collapse
eof
hourly
importing
restrictions
rms
shot
subsystem
svd
##ian
datetime64
excludes
selecting
severity
zenith
approximately
deposit
desktop
editing
hdx
iterating
jupyter
linalg
netcdf4
rna
secrets
simplified
uniquely
zarr
aka
amp
bonds
callables
captured
divergence
installs
pathspec
pyramid
sequential
smtp
statuses
superclass
vt
capability
ellipsoid
er
indexer
normalizes
outliers
sharing
thickness
##me
android
chrom
concept
differs
maintain
posix
roi
vcenter
velocities
##ra
conference
convenient
garbage
rep
stmt
subdirectory
sufficient
410
bqm
closure
empirical
proxies
pv
quit
strictly
symlinks
hp
httpresponse
jinja2
lcdict
man
matcher
peers
phased
pn
pole
processors
prune
reachable
sm
temperatures
uppercase
##action
declarations
filetype
hierarchical
miss
qualifier
##ated
##files
afterwards
masses
perms
strong
yml
alg
displaying
pb2
quickly
##ab
##values
compounds
confusion
customized
perm
que
recently
shouldn
##container
##ie
##ml
maintenance
multiline
observable
onnx
opposite
proxied
quite
subdirectories
tokenize
unavailable
2006
225
abbreviation
billing
delayed
orphan
preprocess
quota
rabbitmq
scans
stroke
subsets
triangles
viewer
##block
bearer
classify
diag
holder
i2c
positives
recognize
suggested
summaries
##pool
1970
cloned
dark
detections
indicators
pyamg
quantum
rgba
semantic
supposed
textual
unpacked
##age
##ke
##less
3x3
blankline
bson
coding
discovered
eventually
horizon
lifetime
lo
pauli
preserving
research
retryable
splunk
towards
ago
crc
der
evenly
gpio
guid
heatmap
ioloop
klass
momentum
resampled
softmax
##se
blocksize
ch
corr
entirely
eos
mainly
mc
rounding
saltenv
straight
8080
assistant
cylinder
dependents
ethernet
lr
preferences
similarly
stringio
strips
##length
##rt
5000
agg
aux
brackets
freedom
helps
invite
lhs
pivot
protocols
restored
simplify
spectra
stars
##ex
bag
booleans
cloudformation
conventions
ec
expectations
routines
rv
skeleton
variability
wav
##25
##frame
##function
##ot
aaa
arg1
assumption
authority
backoff
careful
cs
ev
fitness
geometric
ibis
inheritance
initially
kappa
malformed
messaging
mixing
nr
oldest
proceed
subgraph
tokenizer
##tag
colored
deployed
detach
drops
ir
kubernetes
portfolio
undirected
##bar
##nd
##parameter
answers
caused
cleans
eggs
eth
fi
gaia
ideal
implied
instant
locals
magnitudes
mobile
owns
qq
repeatedly
resourceversion
signer
visualize
##ag
##mixin
2002
360
binning
blockchain
ever
pushed
shipping
sigclip
upsert
##ise
##resource
archives
b1
bugs
cardinality
diffusion
instruments
lets
neighborhood
official
openssl
retained
w3
activities
asnumpy
business
dimensionless
ensembl
frozen
gp
leaderboard
modifiers
neuron
nxn
nyu
opacity
openstack
perfect
primarily
tex
trunk
##ck
classical
clauses
combining
committed
delivered
dirty
lng
propagation
riak
snake
trials
xmax
##end
401
attempted
datetimes
dfa
handshake
hdfs
interested
ledger
listeners
multivariate
reftrack
rng
rpcerror
satisfied
chunksize
combines
consist
graphviz
hdu
hosting
iterative
lookups
mcmc
probs
pulls
ratios
recv
simulations
timeline
uniformly
##2d
datasource
equipamento
gmt
ias
nominal
osidsession
redirected
spread
vartype
##definition
##header
caught
ebs
entrypoint
inclination
integrated
invalidargument
invenio
neo
overlaps
##ec
##width
bare
celery
chimera
counters
equally
great
guild
hashing
heap
his
manner
peptide
resolving
ro
sourcecode
thin
tracked
##link
##un
##ve
allclose
allowable
firestore
nesting
oracle
south
specifier
survival
49
decreasing
deterministic
finishes
heartbeat
injected
kde
newton
octets
openpnm
personal
projections
redshift
sector
um
vendor
vote
##parameters
alerts
bayesian
behind
bigger
concentration
dsp
facebook
migrate
monthly
multiplication
nucleotide
privileges
pyrogram
ranked
securesystemslib
snps
table1
tracing
tried
turbulent
unlock
v2018
##command
65
glyphs
institute
interp
joins
keystone
launched
picture
pwm
recommend
slicing
slide
uncertainties
##da
46
advance
alone
conjugate
delegate
dep
importance
isis
knot
oriented
pipes
##ls
##types
aioxmpp
blobs
cloudwatch
conform
cpd
cv
gcs
googleapicallerror
hasn
helpers
iso8601
ntu
picks
q0
restriction
150
cryptography
edits
exceed
expensive
extracting
gid
hull
jira
lstm
mention
ou
permanent
programs
qs
rig
sns
tokenized
typ
##ds
##keys
##of
250
63
commas
conjunction
ecg
enrollment
initiate
inter
mutually
newest
operands
permutations
utf8
vpn
weeks
win32
##factory
buffered
inverted
iterated
knows
ldp
libvlc
physics
practice
revisions
rollback
sess
shards
stacks
tumor
za
##grid
##ue
bio
clipped
databaseerror
fisher
netlink
spike
standalone
t0
tax
threading
xlarge
##no
##only
##writer
72
agreement
bs
c3
caution
chaining
dw
h5py
htm
imc
influence
law
logfile
nick
pytorch
qwidget
rights
sqs
##22
97
accepting
adjoint
aperture
artists
authorize
outdir
revert
sliced
solved
trimmed
##ey
analog
cap
counted
docstrings
dumped
fileserver
individually
int8
integrity
python2
shorthand
uploading
york
##widget
beautifulsoup
cone
migrations
modname
quadrature
radio
retrieval
sock
spanner
strongly
tracker
varying
##address
##tore
affinity
algo
altered
chroma
hs
inconsistent
increases
nth
pst
rid
situation
strftime
vms
##ps
##rule
47
compilation
disconnected
gdal
meaningful
pipelines
predicates
pyemma
quorum
satisfies
sums
tty
uninitialized
whereas
corners
crash
cropped
directives
evolution
generalized
gs
inches
issuing
las
napalm
ned
setuptools
suffixes
summed
uninstall
##task
96
anchors
blocked
chassis
countries
ct
engines
freeze
illegalstate
increments
redundant
roughness
sd
seqs
submissions
syllable
unregister
unsuccessful
vapor
yaw
##color
bandpass
didn
enums
geodetic
gtfs
logout
shifts
sibling
##proxy
##reader
##status
asserts
backups
dpi
fixes
h5
happened
hyphens
libvirt
mqtt
mutable
organism
rewrite
traj
wasn
x3
analyzed
ancestors
ansible
anywhere
arm
characteristic
expiry
ilo
inp
lahn
proj
pymatgen
registering
selections
shadow
solves
swarm
uk
##15
##builder
##ial
##uri
0m
averaging
behave
costs
cron
datastream
dnanexus
emits
fly
hamming
hostgroup
leader
legal
qos
snap
validating
webelement
wgs84
x86
xmlerror
##ally
##ay
##erver
98
ahead
constrained
diagnostic
eqcorrscan
fedora
fee
flash
injection
mismatch
nome
specimens
tarball
taskrouter
tilt
##by
amqp
concatenation
decryption
droplet
durations
enclosed
flavor
incompatible
involved
lineno
nest
pyspark
qtcore
radii
smc
spreadsheet
subscribed
tb
theory
##interface
##tream
applet
chromosomes
collects
computational
defer
elist
euler
fileobj
immutable
incident
iteratively
ranks
resized
tutorial
xmlns
##nce
##ource
aiohttp
bezier
bunch
bytecode
erase
hadoop
ins
invoking
ion
nifti
publishing
pyemu
retryerror
solving
tgt
##ad
##descriptor
##ol
ami
beats
camel
cmds
descendant
differently
electrode
enumerate
establish
filt
heuristic
iapws
lazily
leaving
macros
meet
n1
neutron
petl
radiation
reconstruction
rtcclient
signs
stimulus
summarize
tfp
transparent
valve
##ession
##mask
##ow
annual
cpc
drag
fleet
lie
lp
pulled
river
scoped
skips
songs
tablename
wd
##ur
clicked
cnf
dipole
embeddings
h2o
k2
locks
pickled
realm
satosa
subscriber
transient
videos
##14
##ext
##go
archived
cur
highly
literals
monkey
pika
pipette
referencing
sanity
tempfile
tweets
verifier
versa
##def
##doc
alignments
classic
dash
filepaths
geographic
growth
hive
idlist
jams
mw
neg
nm
objs
paginated
players
reactor
reconstruct
standardized
thermodynamic
visa
voronoi
##il
##template
111
asked
bc
eigenvalue
encodings
explain
gpus
h2oframe
ic
modulus
octave
orbital
posted
q1
siblings
timeouterror
visited
##cache
3rd
allel
approx
dhcp
equipment
gif
interact
overflow
primitives
rx
scratch
screenshot
unitary
visitor
##23
##ite
##size
arithmetic
explained
httprequest
iops
julian
laplacian
paused
preceding
saml
slab
subnets
tone
wbemconnection
werkzeug
##results
asymmetric
computations
concurrency
ensuring
extents
forwards
interpretation
normals
periodically
scanner
trainable
utilities
weak
##matrix
ability
centre
cid
datatypes
decrease
efficiently
f2
failing
iis
ld
passwd
pools
recover
revoke
sel
shaped
stmts
traditional
vtk
##26
##ary
##label
##reference
##string
##ty
ff
grams
granted
initializing
lm
overview
p0
propagated
provisioning
returntype
serves
sockets
tower
ymax
##ervice
arg2
cart
commonly
des
dpath
fqdn
graphics
ifo
introduced
outline
pot
vectorized
affects
bugzilla
chan
choosing
former
globs
invalidparametererror
kinds
kpc
linearly
mutate
national
opposed
qa
querystring
subreddit
tracer
walker
weixin
##max
alongside
assigning
bpmn
callers
cg
codon
dct
equilibrium
fed
gist
icmp
imshow
mentioned
ngrams
nickname
numerically
photos
predictor
reconnect
reduces
replacements
situations
stft
ver
##75
##80
##ability
##match
##server
2003
autopilot
bearing
datas
footer
formated
hypothesis
indep
intel
molecules
prompts
schemes
seg
strike
surfaces
trans
##13
##24
##50
##90
125
bookmark
compiles
derivation
fontsize
gray
inputted
ligo
mav
ospf
ran
smi
synapses
webhooks
##handle
##layer
3a
999
augmented
bottleneck
chem
converged
expands
expose
inlet
pynos
remainder
serving
somewhere
virt
##20
##99
##ig
##proto
203
activations
boiling
carry
chance
ffmpeg
fieldname
interrupt
intersections
opcode
paging
treats
undo
unsubscribe
yourself
##na
##row
##unit
67
achieved
adj
adjustments
clientrawresponse
clipboard
communicate
controlling
designated
evaluations
facets
finalize
indented
iq
joe
k1
lw
netmask
news
npy
occured
ordinal
pants
parameterstep
pat
protect
qtgui
rds
rerun
steam
synchronize
##18
##location
##pattern
##role
##service
##wrapper
2005
considering
diffuse
discharge
distribute
errs
fixme
flexible
g1
hazardlib
increased
instantiation
ipaddress
misc
paginatedlist
pts
reciprocal
retention
simultaneously
ymin
##notfounderror
1999
204
600
atlas
avoids
chooses
concepts
continued
discord
exchanger
fl
grr
hmm
interesting
pointed
repl
tv
walks
##xml
12345
apikey
bracket
decimals
dfs
fonts
forbidden
mnist
profiling
reddit
suggest
transparency
##05
##21
##json
chroot
cors
incremental
keyring
limiting
raid
rebuild
remains
sweep
varies
vc
xor
assemble
clicks
coeffs
connector
disease
downtime
ecdsa
noaccess
panels
peng
pl
pooling
selectors
skipping
transcripts
treatment
urllib
##17
##root
66
bitstring
causing
certs
doe
i1
mtf
operates
packing
payloads
proportional
quantized
tld
##col
##lines
##wise
68
asks
chr
collisions
combo
coupling
discount
distinguish
extras
fired
latin
pmag
potentials
pushes
randn
relay
resides
roc
uncompressed
understand
vhost
whois
##ca
##fields
##min
##param
banana
cgi
connectionerror
designation
df2
discretefactor
earliest
eopatch
exhausted
instantiates
organizations
outlet
retval
scenarios
shapefile
shut
slashes
subsequence
tangent
thrift
toc
transmission
udb
unnecessary
vz
##ised
##lookupsession
##tats
##utils
##var
54
associations
b2
behaves
buy
cdn
courses
cwl
dictionnary
fashion
gold
molar
rescale
restarted
stellar
strategies
taxonomy
terminates
vagrant
worst
##arn
##back
##content
##ee
##order
##ring
57
84
anyway
binds
coded
col1
coloring
complicated
covers
grow
hill
participants
phonetic
throats
till
##adminsession
##core
##int
developed
drivers
halt
independently
joining
lemma
leq
lies
marshmallow
maxiter
myclass
passive
producing
quits
readline
receipt
significance
transferred
transmit
yellow
##35
##95
##cc
##ef
adaptive
adc
atmospheric
bundles
bytesio
coef
coordination
dedicated
infos
ising
localized
managers
particularly
patient
restful
synthetic
tear
throughput
votes
##ix
##pace
65535
adapters
asn1crypto
atol
binned
delim
deps
equity
fires
jail
log10
n2
ownership
smith
stepsize
svc
##oc
##option
##ped
analytics
apart
ariane
averages
belgraph
cards
classified
cog
consul
gauge
gem
hyperedge
ibm
inclusion
lags
mailbox
mtime
rhog
rich
sampleset
supercell
synchronously
uniprot
vmax
zs
##attribute
##cs
##module
acc
acceptance
aeneas
ambiente
apt
captures
cassandra
compat
conversions
dwave
humidity
importerror
neurons
overwriting
pathway
repeating
reynolds
rrset
rubric
stash
testio
v4
weldobject
x00
yyy
##ac
##app
##ger
##izing
airflow
datapoints
dill
formulation
heights
infile
linking
logarithmic
mathematical
parallelize
phrases
pkl
provisioned
psi
recreate
relies
separators
submodule
unary
##bytes
##tor
concern
confirmed
datasift
eng
games
inserting
ipa
jan
mon
navigation
patched
ph
pypet
pysat
sequentially
stale
unmasked
##la
##let
damping
deprecation
effort
election
enforced
enthalpy
getattr
jvm
maintained
restores
staff
vice
vowel
wrt
##89
##call
##ib
##ime
attaches
ball
burn
collision
copyright
curvature
customization
dl
elsewhere
forget
hunt
indication
iri
ks
motifs
nk
overhead
readonly
refine
sentinel
street
timeouts
ul
variational
vr
##ict
##identifier
##one
##timeout
amounts
backing
boost
chained
changelog
cx
enhanced
ep
exiting
hashlib
lsp
mutual
nature
niall
polyaxon
protection
r0
roughly
rslt
soup
srv
think
timed
utterance
zmq
##60
##df
##groups
##ling
breaking
closer
col2
emulate
ended
enrichment
filestoreid
house
inform
ncbi
ngram
nii
nova
precipitation
quarter
reservation
schmidt
upgrades
yum
zipline
##46
##ess
balanced
bitmap
catalogs
crt
existent
fg
ge
lifecycle
logarithm
logo
loopback
mole
nicely
overriden
retinotopy
rparen
solvers
unmodified
##ath
##ep
##ish
89
battery
circles
consuming
cytoscape
genotypes
hdf
hyper
hypergraph
indirect
logstore
mentions
osm
paragraphs
plist
qualifiers
rhol
spiceypy
sue
transformers
uint64
unbound
vmin
ys
##40
##device
##ible
##pi
88
abi
accounting
astrobase
corrections
enc
enqueue
formulas
grupo
hack
hl7apy
lcformat
ldtp
lparen
mathcal
maximize
paste
pearson
pops
preparation
rely
tight
tournament
tredis
##output
4d
61
76
arcgis
au
conflicting
contigs
dll
dockerfile
eccentricity
elt
fatal
inversion
kernels
midnight
nexus
redirection
reorder
rnn
runas
sg
sn
subtitle
thumb
z0
##04
##ack
##ide
##operations
##operator
##stream
2xlarge
acknowledge
charm
completions
delimiters
displacement
dsn
e2
elb
gw
hints
list1
passwords
percentiles
planes
recarray
scheduling
sentry
survey
torrent
##buffer
##ort
##rate
arcsec
batched
budget
colorize
deny
grace
handbook
hyperparameter
inaccessible
junos
latency
loggers
mdf
mixins
notebooks
orient
schedules
seaborn
skew
stress
timeperiod
uwsgi
workdir
xz
##03
##92
##96
##generator
##ink
anova
astroid
banner
cite
collation
dbname
decompose
galactic
galaxy
h2
influxdb
iot
levenshtein
mind
mutated
pdu
pf
precise
programming
proposal
provenance
reaches
readings
replay
sanitize
scanning
structural
suppose
workaround
##31
##ign
##mp
##session
abspath
alarms
animal
apparent
barcode
decides
exon
grading
lcproc
marc
reliable
renames
rounds
rp
said
segmentlist
sparql
sz
taobao
tif
uoft
vaex
vmware
##28
##45
##factor
##gen
##ss
##ze
77
brocade
cryptographic
estimators
gff
jukeboxcore
life
printer
privilege
proteins
secs
sensible
subkey
suggestions
xsd
##87
##and
##failed
##points
##tool
##tyle
analytical
auc
bitmask
browse
ed25519
eligible
examine
fifo
fullname
gtf
inch
inherits
ny
pmf
precomputed
refund
requiring
sandbox
seeds
todoist
##34
##56
##check
##part
##queue
chrome
cooling
couldn
fileio
granularity
ieee
intf
kml
libcloud
milestone
namedtuples
playing
resistance
rf
scanned
shocks
sv
tbl
technology
transfers
travel
wavelengths
workitem
##per
##plugin
##ta
##v2
69
ding0
fdr
handed
illegal
indefinitely
infrastructure
initialise
lcs
linode
normalised
passage
qout
replicate
reused
sine
social
te
tor
trades
userdata
zh
##61
##details
##ner
##properties
##protocol
##pt
analyzer
appname
arp
carrier
cdata
chr1
collapsed
contracts
gnupg
kelvin
kj
lxd
movement
qubo
requester
revoked
rn
shortcuts
varname
versus
vi
wavelet
##62
##failure
##lo
##rd
##variable
abundance
accumulated
acme
bulb
climlab
composer
datapoint
descriptive
dispersion
dont
limitations
money
msrest
pay
po
recurrence
sparsity
transposed
vasp
yr
##chema
##desc
##ified
##meta
##ub
3600
bfd
cds
chinese
clips
contenttype
descent
ecef
hilbert
hopopt
iex
inasafe
intensities
linkage
meshes
mr
nucleotides
objecttype
oscillator
peptides
plenary
pubmed
replicas
sanitized
selinux
skycoord
statuscode
tails
technical
tempo
val1
##eq
##flag
##tive
anymore
augmenter
brand
converters
deltas
dispatches
existed
gc
genetic
getitem
gitlab
impl
jenkins
lexer
notfounderror
parametric
polarization
pretrained
progressbar
r3
responds
rupture
significantly
snippets
subtracted
sw
swift
topological
traverses
unlimited
xr
##36
##auth
##down
##fn
##ro
4096
62
bi
borders
conda
correlated
drift
enabling
fmri
groupname
gzipped
iface
memo
metaclass
noisy
oauthlib
phoebe
preserves
priors
rdflib
shear
smoother
stay
tank
virtualbox
##33
##document
##ets
##ning
##nn
##ous
##read
##red
ads
aggregates
bz2
capital
ceph
clique
dbus
discussion
excess
filelist
holes
informations
learner
mavlink
meas
nginx
recipes
says
spawned
timeperiods
transmitted
unittest
unzip
verifying
vsphere
##42
##67
##ance
##ating
##ax
##do
##od
##tags
4xlarge
74
82
accession
backed
birth
bounded
bump
carlo
centroids
crl
expecting
filestore
guard
hip
inactivity
interactively
isreadonly
longitudes
multidimensional
neutral
nodeid
parameterized
parquet
pytz
recovered
sinks
stability
stddev
strs
surrounding
toml
zookeeper
##93
##property
##window
403
azurearm
bios
came
camelcase
citations
dialogflow
fa
fcoe
fh
hkey
jobid
keyspace
octet
timeit
uamqp
wx
##bot
##js
78
abcd
arrive
bird
breakpoints
broadcasting
checkpoints
cleaning
destroyed
dvs
gracefully
ha
impossible
inbound
incremented
interior
latitudes
metabolites
modeling
monte
msm
noun
offered
outcomes
pars
partitioned
persistence
restarts
sticker
suppressed
truncation
txn
variances
waypoint
weekday
##19
##flow
##ler
##ned
apiexception
asarray
biopython
carried
chess
eager
fax
greenlet
heavy
intrinsic
katcp
keystore
manages
miller
organized
pan
rotations
table2
tabularcpd
thermo
##06
##72
##account
##hook
##rror
##top
cable
catchment
communications
dealing
dsl
eigenvector
ethereum
fo
gssha
kn
memcached
minimization
mult
photutils
pose
repetitions
restricts
rewards
scp
servo
sided
submits
substituted
synchronization
truthy
val2
wc
xp
##47
##bs
172
92
accessor
approval
astype
blah
cutout
dashes
gcp
isolated
launches
linspace
magsarefluxes
mse
ordinary
papers
prototype
race
reindex
responsibility
resposta
servicegroup
taper
teardown
vertically
weekly
##bin
##column
##kit
##ments
0s
2048
activates
btc
characteristics
chebyshev
consumers
convection
customers
denominator
detached
ecc
equivalence
grayscale
iexcloud
kwds
mechanisms
midi
optical
picked
planet
prefetch
profiler
promise
pyquery
rigid
seem
trend
understood
##08
##39
##77
##86
##97
##gs
91
achieve
basedir
builtins
canceled
chapter
cqt
dr
editable
externally
fluids
formatters
fwhm
guessed
hlapi
id1
mef
pads
perhaps
phenotypes
proficiency
ptr
receivers
reflection
relu
reviews
rtol
serviceinstance
sha512
simpler
stacker
stretch
suid
supplying
tensorfluent
viewed
팝빌회원
##09
##84
##ical
##process
##target
##ton
##update
73
cython
dh
hland
idf
introduction
lan
lb
lvm
mbedcloud
msdn
nose
orbitals
perspective
pins
poles
resultant
route53
sdc
sliding
subscribers
##44
##case
##filename
##ft
##ied
##res
##spec
201
8000
87
analyte
aspx
braces
changeset
cholesky
coerced
deck
forest
grpc
hg
indexable
kt
mel
mine
mle
negatives
nfc
nodes1
obtaining
obtains
phantom
polyline
py2
qc
rd
silence
studio
svn
zipped
##48
##94
##98
##engine
1996
adapt
assumptions
augment
bid
coeff
cql
dv
escaping
imaginary
ivar
maintains
motors
myapp
scaffold
standards
ties
trait
ubelt
unified
v6
##controller
##earch
##items
administrative
adversarial
automated
bodies
cancels
folds
greedy
initiated
pcs
semicolon
separating
sk
startswith
successors
toolbar
tqdm
tune
uniqueness
uv
zset
##07
##description
##freq
##pe
##ree
110
books
classmethod
communities
convolutional
crossover
decl
distutils
falling
g2
gatk
helical
i2
junction
lives
lsst
mission
outlier
phys
preprocessed
pubkey
reflected
safety
seperated
starttime
stripe
thereof
tiff
vcard
xso
##27
##71
##ase
##og
##processor
ajax
ao
binaryquadraticmodel
comparable
csp
discr
electric
electrodes
enrollments
fe
fw
gte
instantiating
ios
itertools
mapreduce
mof
myfile
pylint
soil
sonos
timescales
una
versioning
viewport
xmrs
##pass
##ping
##ri
##str
94
assembled
convertible
defs
disposition
divisor
donor
edisgo
ee
gdb
gvar
lane
masking
mediawiki
modulo
mpl
multicast
narrow
nodes2
recurrent
sdp
ser
shrink
systematic
throughout
tn
trivial
univariate
usernames
##29
##30
##43
##53
##65
##82
##em
##entity
##parse
##valueerror
81
appearance
backslash
bsr
census
consult
controllers
coreml
elif
families
flagged
hla
integrator
ioticagent
jsonschema
keychain
list2
materials
modpath
nums
orifice
played
populations
producer
reconstructed
refreshed
submodules
transforming
transitive
urlencoded
##bit
##can
##ki
##ky
##lt
##ync
bibtex
booster
cancellation
cash
coral
fan
fsid
ft
hybrid
laminar
layouts
negotiation
operational
plug
popup
querybuilder
responder
spacy
substrings
tubes
unpacking
uuids
variations
vid
vision
wake
##55
##fit
##folder
##ful
##ore
9999
associates
badge
builders
configobj
considers
consumes
definite
deletions
entering
forcing
killed
lack
linestring
m4
manipulate
mixin
monitored
multiplicity
october
pex
playback
pyc
remotely
ruby
shutil
someone
somewhat
splitter
subs
superset
tension
universe
urllib3
wigs
wirevector
##analysis
##les
##space
##uid
93
aapl
actors
automation
brown
cairo
crane
delays
denoted
devid
enumerable
extreme
feeds
jumps
leads
loci
manifold
mitogen
py3
refreshes
rooted
sku
subsequently
tmux
traversing
went
zonefile
##3d
##54
##79
##flags
##fy
##limit
##objects
##а
333
decrement
escapes
etcd
figs
footprint
forwarding
hasher
heart
inputfile
jam
lu
march
outbound
pkcs
randomized
rectangles
retrying
submitting
trail
##63
##85
##88
##co
##cript
##ct
##position
##util
3000
71
acls
analytes
base58
buff
collecting
datum
deliver
denied
dsp0200
exchanges
experts
hole
idempotent
improved
inspired
jaccard
learned
loglevel
lun
name1
nodeng
nupic
nusselt
onsets
singularity
studies
synset
terminating
unnormalized
volatility
watched
wf
##38
##66
##68
##ert
##rr
639
79
asking
bitcoin
clf
colours
decided
decompress
dependence
dockermap
encrypts
fastest
github3
haven
ingress
irc
labelled
lex
mas
mfa
monday
opencv
otu
pointers
primal
qgsvectorlayer
rw
staging
subscript
toy
unordered
versioned
viewing
weld
wild
##51
##ettings
##ga
##ks
##ov
##package
acs
atomically
augmenters
av
completeness
datafind
disconnects
employed
exclusion
executions
expanding
flight
gravity
installing
ith
libinput
localization
lte
lz
ndims
postal
pow
pwd
pyxb
ramp
relatively
repeats
sex
subspace
terminator
unlocked
vel
##91
##dy
##rm
##source
800
aborted
adjusts
admins
binaries
buffering
circuits
concordance
cpe
deepcopy
defaulting
disc
ephemeris
fifteen
fm
highlights
hyphen
ideally
infty
involves
libs
linewidth
msgpack
nailgun
numbering
provision
putting
pydata
qmodelindex
rangle
refractive
sci
speeds
ssdb
uma
untouched
##78
##ace
##ystem
443
86
anisotropy
attacks
breadth
catalogo
cma
consent
continues
decrypts
detailedresponse
dic
funcs
ghi
juju
leds
lista
modeled
numbered
numerator
overline
param1
prf
publickey
reserve
roster
rot
standardize
telemetry
tup
varbinds
xlsx
##69
##83
##art
##ator
##ence
##ld
000000
consideration
contributions
distortion
ell
ephemeral
expert
fieldnames
freqs
gmail
hamiltonian
hrf
ldots
lf
male
nio
partitioning
pcap
permanently
playbook
pro
pylab
randint
redraw
threaded
tied
unicast
witness
workflows
youtube
##land
##tic
##vars
a0
adb
aff4
aic
atcg
authenticating
barycentric
captcha
codecs
directional
dsa
finalizer
flattens
floor
gce
hemisphere
insufficient
iris
nacl
neighboring
nf
polynomials
pruned
relevance
resourceexpired
rotates
scored
serverless
structs
syntaxerror
tarfile
triangulation
vdata
vx
watching
##dataset
##directory
##iter
##lab
##region
##tar
8xlarge
bilinear
cal
classifiers
comm
coroutines
estimating
inspector
kmipversion
lsm
marking
multiset
nonlinear
plat
pw
readers
recognition
sed
sell
snp
spotify
subcommands
took
usd
wiley
yyyymmdd
°c
##52
##81
##cluster
##li
##mer
##network
##provider
0e
0x
2f
alphabetical
anti
approved
beacon
bitwise
brokers
clientsession
concurrently
crawler
docutils
dropna
dscp
eigen
evpn
feat
fermi
fmin
fox
gnu
isbn
lam
libnl
logit
mar
monitors
morphological
mpc
nano
pct
projectarea
regressor
renderers
routers
specialized
tie
travis
university
utterances
whichever
##board
##classifier
##cloud
##metrics
##report
##runner
##ys
100000
a4
art
bbb
bids
bls
bottle
coo
eventobject
extending
grants
hdulist
insertions
invariant
ipmi
mambu
mono
nltk
npz
originate
pkey
possibility
pubsub
rfc1902
segmented
servicebus
sts
tap
taxon
translator
unstable
venue
##admin
##cat
##endpoint
##events
##unc
##volume
1021
accel
awaitable
bill
causal
curly
deque
doping
enclosure
facade
feasible
gathered
glue
heating
highlighted
managing
mathbb
mcgraw
noncumulative
occurring
pager
paginate
plc
preprocessor
reducing
renaming
repetition
scientific
syntactic
technique
w1
windowserror
##76
##day
##eg
##idx
##ja
##nodes
##ors
administrators
arbiter
aug
behalf
casting
deadline
exited
facts
falcon
filehandle
geopy
grep
industrial
italic
iterators
keyname
koji
name2
oneview
overlays
qemu
runnable
serializing
soundex
svm
synced
tfd
variogram
webserver
xmpp
##73
##credentials
##mat
##pack
##querysession
##rk
##ud
##warning
argmax
blobxfer
comparator
ctxt
dance
dateutil
debian
die
eu
graphical
httpexception
idp
interconnect
kmeans
knots
kvstore
legendre
likes
locales
observing
odoo
phate
psycopg2
scm
sigmoid
speaker
ti
tickets
von
vrrp
vtor
##49
##57
##ative
##ql
##sing
##vm
##е
apigateway
attributevalue
audience
axessubplot
blacklisted
circ
cleanly
cuda
destinations
environmental
globus
horizontally
hr
keyfile
kriging
leap
logistic
mad
minimized
movies
mpa
mt
mymodel
ng
pki
pricing
stopiteration
tagc
tomography
xlim
ylim
##ates
##der
##ect
##expression
##profile
##son
##use
advantage
agency
alphabetically
approximated
arranged
calculator
calibrated
cascade
conforms
cuts
depths
deserializes
dni
explore
fastafile
graphic
iloerror
incorrectly
joliet
libnl3
literalinclude
mn
multidigraph
norms
observe
oh
pinned
pixelization
refined
regenerate
rsp
shorten
squeeze
steady
switched
tagname
thom311
u1
wheels
whom
##als
##ations
##conf
##control
##ell
##ition
##methods
##va
a3
accumulator
acf
bitfield
caveat
competition
covariances
crossref
darcy
diagnostics
dxpy
fetcher
fir
fish
indy
ingest
installer
memberships
neighbour
neil
noaa
notified
reloads
restructuredtext
scattering
storm
supplementary
throttle
tipo
trap
verbatim
vy
##001
##attributes
##card
##chain
##get
##host
##prefix
##system
##tab
##ule
123456
1997
analogous
ascension
azimuthal
besides
carbon
cname
coefs
cropping
densities
descricao
diffs
dividing
experience
exposures
express
extremely
geocode
gr
idxs
inbox
investigation
jitter
labeling
lal
mp3
needle
nibabel
npm
pane
plexapi
primer
publishes
recommendations
reloaded
repr2
satellites
tpu
##cale
##encoder
##ification
##loader
##offset
##store
##tt
addon
anomaly
bh
c4
catches
ccd
claimed
cloudant
clustered
codons
covariates
eastern
effectiveness
enumerated
eth0
factorization
february
float16
grained
groupid
hermitian
hsv
htmlelement
kegg
ligolw
logexception
neighbours
networking
nsamples
pickles
pmid
poller
presentation
rafcon
referring
rooms
snow
spicecell
story
subfolder
subj
terrain
tips
tooltip
trainer
turning
underline
##0000
##70
##be
##entries
##ik
##ok
##ration
##tart
acknowledged
airmass
american
amplitudes
avoiding
c0
dq
emission
functools
golang
grp
hypervisor
indirectly
ipfs
labware
maxsize
mkdir
nodata
overload
parentheses
pathways
perpendicular
probes
pytodoist
ratings
savings
scout
springer
typename
univ
unwrap
uptime
wrappers
##59
##mod
##ul
160
1s
acids
analytic
assertions
ba
binomial
blink
brok
chats
corpnum
county
crit
dft
diameters
discretized
disjoint
disp
dvd
facing
frozenset
ftype
htmldomelement
intersecting
j2000
james
kepler
lrs
mpi
pandoc
payoff
pexpect
pypyr
rede
regexes
rotating
satisfying
scanpy
spinnaker
surrogate
synphot
wfdb
xdg
##arg
##feature
##hape
##her
##lat
1e7
aggregations
april
arcs
att
bw
concatenates
deactivate
duplication
enriched
frequently
jonloyens
launching
origins
partner
recurring
regime
reminder
sdr
shade
simulates
specshow
spice
spyder
stripping
var1
wb
##74
##9e
##body
##ea
##hz
##ising
##off
##oid
##run
00000000
83
acdd
apk
arrival
breakpointgraph
broadcastable
capturing
constituent
constrain
contextual
covariate
createdataframe
cz
david
destroys
dispatched
endtime
errno
exploration
ffff
fred
gromacs
guesses
ham
imap
importer
inspection
mbar
mounts
namelist
nkor
opencensus
optionparser
originating
parameterset
parcel
pegasus
permit
pids
proportions
prox
pygments
reactive
rescaled
rightmost
spent
spikes
subtitles
summing
tagging
thresholding
tour
tpl
trick
typecode
xxxxx
yubikey
##ba
##batch
##env
##extension
##ium
##password
##tation
##ð
1994
3166
agree
bn
bs4
cms
cognitiveservices
continuously
cortex
dict1
epsg
everywhere
fnmatch
impute
ke
mapbox
memoized
namely
node1
omim
oscillators
pertaining
posting
prep
privatekey
pulling
purchase
pyvisa
qgis
reverted
sea
sketch
sq
standby
streamed
subfolders
tickers
transactional
unreachable
##ard
##izer
##repo
##req
##word
0001
2x2
365
arbitrarily
bigip
cased
couple
csrf
dust
eff
electron
fancy
fourth
frequent
gssapi
integrals
invisible
invitation
keystoneng
les
loan
locking
mods
numba
offers
param2
perturbation
popular
por
rare
redo
remotes
rise
skos
spheres
ssd
testgroup
unsafe
varied
vis
##cal
##ev
##library
##period
##search
##tat
##zone
1j
alembic
appendix
bd
boxscore
cdr3
checksums
consts
corrupted
covar
cyan
dirichlet
dirpath
eclipse
edx
ema
fermipy
firefox
fk
forks
german
hostnames
incidence
indexers
injects
insights
instructure
kalman
kick
likelihoods
macaroon
needing
overloaded
peek
placing
priv
pysv
readout
remap
remark
served
spider
theano
tilde
tuner
variety
wifi
##ded
##dev
##geometry
##ha
##lin
##mi
##ni
absence
appid
approve
autodoc
caffe
censored
coil
eliminate
emptyvalueerror
facility
file1
folded
funds
genomes
geodataframe
gitlabauthenticationerror
httpd
injections
knn
lipd
lru
measuring
ncvar
nom
paid
pingouin
polymer
popped
regional
reimplemented
resourcetype
sheets
softlayer
syn
tanh
trains
understanding
unfortunately
unread
wherever
wp
##1d
##act
##cell
##channel
##ean
##ient
##nk
##pr
##price
##transaction
1990
2e
accesses
bfgs
ciminstancename
determination
du
eqn
formset
friends
grads
inet
institution
iotile
licenses
maxlen
mdtraj
mit
npoints
nsrc
obsolete
pysynphot
qobj
reaching
realtime
rpcexception
shortened
statically
supergroup
tk
tpm
unhandled
walking
webob
wt
zfs
##cy
##from
##onfig
##opt
1998
32bit
additions
aegeantools
ai
aid
aliased
beware
ck
cyclic
dedent
departure
dg
dropping
esc
executables
eye
fixtures
flushes
forum
gevent
id2
iii
invalidate
july
linenum
lookback
meets
mgr
ns1
orange
paginator
paramters
popbillexception
quux
ranging
rdata
sdb
splitted
stochasticparameter
subfield
synonym
toolbox
tped
triggering
ufo
unregistered
vxlan
wordpress
zpool
##ging
##labels
##sp
##ver
1e5
analyse
arrives
charts
coinbase
consonant
dataworld
deals
dew
dis
finalizers
followers
gd
geocoding
gravitational
harmonics
healthy
invocations
ipam
logrecord
ly
mg
mirrors
multiplying
otp
paramiko
postfix
powered
preorder
propagationpolicy
refobj
reps
requesthandler
rfc6749
scsi
son
spi
subclassing
synonyms
talent
taskfileinfo
thanks
trie
vowels
xrb
##ass
##callback
##esponse
##finder
##gram
##he
##mb
##tuple
##vector
##weight
aead
blend
boosting
cbc
chisq
conversations
cookbook
couchbase
degenerate
delegates
disabling
docopt
dur
exporting
improvement
initiator
internals
interrupted
isolate
langle
lexical
lin
luminosity
memoize
mnl
objectives
plotly
polls
recommender
reducer
regularizer
resizing
respecting
reviewed
rq
shp
stand
stylesheet
syllables
technically
telnet
textfsm
toplevel
usa
z1
##2e
##component
##expr
##ind
##information
##isation
##pm
000e
456
abbreviations
assoc
availablemethods
bright
celsius
cimclassname
correctness
df1
dict2
drives
ef
elasticache
emg
endianness
epub
female
filemanager
fulfill
heuristics
identificador
indel
initialised
june
keepalive
manhattan
merely
merkle
multicolor
objectinfo
possibilities
pth
pty
pyregion
recordings
responseinfo
returncode
rough
rva
sar
saver
setitem
specie
streamer
switching
talk
templating
trimming
turbine
zipcode
##58
##ins
##pp
##px
116
additive
appliance
arrows
authclass
awesome
bend
busy
coherence
condensed
convolve
coupon
crawl
cv2
dstream
dtrajs
e1
emoji
enclosing
examined
favor
forecasts
forming
frontier
gyro
inheriting
jsid
liquids
metabolic
ndimage
parallelism
passthrough
pest
privacy
pytgbot
reporter
restoring
rss
saturated
separates
shannon
sigterm
sl
sy
thumbnails
toto
typedef
united
untransformed
validations
watcher
workunit
zlib
사업자번호
##aa
##ged
##metric
234
900
accessibility
advances
albums
assess
centos
conditionally
conventional
csc
dataone
death
decldir
exif
exposing
f4
fid
fixture
handy
insecure
intersects
iters
jwk
keypoint
ligand
logdir
lots
mismatches
mozilla
ndef
nil
nvmlreturn
occupied
opener
ord
pix
powers
prandtl
prec
predecessor
problematic
publications
pval
quantization
rdkit
readdata
rh
shutit
sids
sigint
stays
successor
surname
uids
v4beta1
##dist
##equence
##headers
##rows
##vals
##ym
accumulate
airspeed
aligns
ase
attrib
botocore
boundingbox
clones
curie
detecting
district
dmtf
dssp
eight
favorites
fieldmanager
flattening
ga
gpx
holiday
hpo
i3
iid
initialisation
isprint
memcache
nbsp
nmax
normalise
oai
offspring
orphaned
owm
presses
rfc3339
routed
sdss
sx
test1
timegrids
ulid
unregisters
v1status
vert
violation
##37
##eries
##mapping
2a
alternating
angstrom
antsr
attributevaluelist
completer
crossing
decreases
docx
entrez
falha
fileid
folding
gff3
highlighting
irsb
laser
lexicon
lift
localize
mako
minima
mis
monotonic
mtu
obviously
opengl
packaging
predicting
quoting
sct
seasonal
simplesqlite
spelling
tensorshape
trig
unweighted
upcoming
utm
visiting
voevent
writeable
xref
##6e
##access
##attr
##cmd
##ions
##msg
##pos
##schema
##way
002
0x0
asfortranarray
authenticates
backbone
bang
beads
carto
centrality
cfm
charged
chmod
choosers
ckan
coincident
colormaps
cont
ctfile
d0
dam
dbn
department
elems
endswith
essential
exogenous
extrapolation
failover
featured
formation
fudge
fundamentals
glossary
groundshakingintensitymodel
induced
l3
lcc
macos
metabolite
nstates
pci
peering
qpimage
qualification
raml
replicates
resizes
rmse
sasl
scrolling
sizing
sprite
stateful
statsd
surrounded
tengigabitethernet
test2
urllib2
xdata
##bed
##edit
##lient
##plus
##project
##rad
##threshold
##typeerror
##zer
archiver
avro
brute
buses
cimerror
clc
cmdline
conj
cortical
counterpart
curr
dbs
declarative
defaultdict
defect
dt2
episodes
europe
executors
flipped
flt
geospatial
iana
incr
leftmost
maintaining
margins
mbox
mug
nameserver
notifies
pareto
passmanager
phonenumber
portions
readability
redundancy
rejection
repertoire
rescaling
resourceid
subparsers
suspend
tabulate
taskcluster
toggles
totals
transcription
uiautomationclient
validationexception
visualized
webdav
weird
wizard
wkt
##area
##ding
##ination
##ny
##records
##units
ag
ampal
attenuation
bai
bootstrapped
born
cardinal
cats
cloudfront
debugplot
declares
dz
ele
electrons
eol
explored
formaterror
french
generations
geno
iec
imcauth
inlinekeyboardmarkup
insight
ipynb
isophote
lons
midpoint
missed
mo
modbus
mp4
nao
nodelist
owners
p3
paint
pauses
piper
plates
plink
portgroup
practical
pyparsing
quil
qvm
revised
rfc2616
shader
simulator
skill
spins
stddevs
stereo
subroutine
tri
triplet
ugly
v2017
wether
whence
wsdl
xmlnode
zz
##1e
##41
##addr
##ane
##erializer
##helper
##lock
##ool
##orm
##ral
##test
1995
211
ah
balancing
banks
bounce
calledprocesserror
cascading
casrn
charges
checkbox
chords
codigo
coin
communicating
contribute
converge
cool
decline
dendrogram
deriv
diamond
districts
emcee
emr
enters
epd
fitter
gala
gm
hdd
informative
manipulation
mds
nist
nonnegative
november
ocsp
peri
picking
pinyin
pressures
pyeapi
rasterio
realizations
replicated
retcode
segs
settled
shap
sinkhorn
stands
stim
superuser
swapped
systemexit
taskqueue
testcase
threat
timepoints
timescale
unity
utcdatetime
waypoints
yesterday
##converter
##distance
##kb
##load
##mark
##nr
##oo
##tem
##tes
##track
affiliation
aln
binder
bmatrix
chunking
cold
compartment
configuring
covering
csiszar
cursors
decade
decompressed
develop
dms
ellipses
evals
explanations
fcs
fps
grey
hid
holidays
hopefully
imu
incl
inspected
intrange
kerberos
listens
maspy
mosaic
multiples
multiplies
mutect
nearby
ocean
openflow
opsworks
permanence
phi1
proximity
randomize
redisclient
ride
samtools
sasdata
sgd
simplest
spearman
specifiers
stanford
stdev
subsection
sunrise
timegrid
tom
ty
umap
unwanted
visits
vlans
wikidata
zipkin
##amp
##book
##esult
##operation
##si
##thread
##ute
##ward
##wave
abbreviated
accordance
alexa
amqplink
bwa
bytearraystream
cqparts
datafile
ddl
deb
detectors
difficult
dj
drain
elimination
envs
esp
eventual
farm
grouper
huge
inlist
instr
interacting
interprets
irrelevant
jr
keypoints
linestyle
lint
majority
negate
openapi
ortho
payments
pilot
planar
preceded
stp
ten
unauthorized
unbiased
unconstrained
vtki
w2
warm
x11
x4
xt
z2
##adapter
##iterator
##mm
##ons
##pan
##rl
##tack
##ual
##ular
##ulation
##work
20000
273
3e
adjusting
allocates
ans
bl
bring
bwt
chef
cisco
cnn
committer
deactivated
downsample
enrich
envvar
everyone
flickr
formatoption
hdr
homepage
homogeneous
hydrogen
imaging
ioc
iptables
jacobi
jd
jquery
lenout
lim
lkp
nbins
newick
nomad
nside
outdated
owl
packs
pyowm
quant
quasi
s0
scriptworker
seqprop
sitemap
strands
subdir
tiny
unbounded
unflat
unpacks
vk
worth
##7e
##ado
##ast
##bits
##counts
##if
1002
1080
121
1992
abcorr
abundances
administration
anime
autherror
beacons
bubble
callsign
ccc
coll
comprising
concatenating
confluence
credits
dcor
decomposed
decorates
desirable
despite
diode
encrypting
enforces
f0
geodesic
gss
gym
humans
isc
jim
lanczos
late
linkexception
lland
mlmodel
mongoclient
mountpoint
nameduser
nfft
packaged
pet
preventing
requisicao
requisite
resetting
rho0
robert
rsvp
site0
stacking
stamps
stencil
styling
subtraction
tcod
telling
timerange
tmax
tokenization
visualizer
winregistrykey
wires
##3e
##ci
##den
##enabled
##hub
##now
##ram
##tx
033
126
4000
4pi
8443
alreadyexists
asd
attitude
bcc
browsers
canned
cif
closely
commented
cylinders
dataqualityflag
deployments
differentiate
displayname
distro
filterbank
flagvalues
fsm
funcname
gh
glance
hk
indeed
inds
initiates
isclose
ix
lats
literature
lua
lvl
neurokit
nipap
nz
objectivebank
parseable
persons
piecewise
preds
pruning
r16
rcparams
rdfvalue
scenes
seqrecord
shock
shots
sigmas
slider
spring
su
subdomains
subkeys
sufficiently
suggestion
tid
tplot
transparently
turi
uniqueid
unyt
webex
zeromq
##algorithm
##environment
##features
##led
##ley
##meter
##oint
##rray
##tep
##vent
##xception
1007
102
1m
ages
analyzes
animate
appointment
arbitary
argin
backslashes
bcbio
belief
bsd
cdna
colons
combobox
counterflow
crystal
december
dwavebinarycsp
enclave
exporter
field1
filesystems
furthermore
hd
httplib
hypotheses
identically
imgur
incrementally
indicies
ing
keyboardinterrupt
log2
loglikelihood
looping
magcol
mer
minimizes
mutates
nbytes
observers
oct4
permits
pkt
procopts
pump
qevent
react
remarks
rsync
sectors
september
stmtpassthrough
stories
strptime
tears
tofu
triplets
untested
venv
virustotal
windowed
znode
├──
##5e
##8e
##fd
##height
##hi
##norm
##ray
##start
##tle
1991
202
350
509
anyone
appearing
architectures
argspec
blueprints
cents
contentful
coordinator
crud
curtailment
daemons
declaring
deserialization
dilation
dts
encounter
exposes
factories
fees
fluents
focused
grades
gridded
halo
happening
injector
k8s
lems
loaders
modelling
myuser
neighbourhood
neurite
nones
occurence
postcode
pushing
realms
recompute
reordered
respects
ru
serializers
sftp
stan
summarized
synchronized
unixtime
uriref
va
vaporization
vo
welch
wilson
withdrawal
yi
young
##center
##condition
##dump
##extractor
##ges
##history
##iation
##iv
##join
003
130
1900
1h
700
acceptor
aircraft
assay
bayesianmodel
beforehand
ce
censoring
correlate
cts
cutting
data2
deformation
dice
emb
exchangers
exhale
explorer
extrema
filenotfounderror
fulltext
genre
gridfs
haproxy
hotkey
hsl
indicatoritem
introspection
kinetic
kpoint
logl
metaknowledge
mnt
monetary
nlp
owning
percolation
perf
planned
proceeds
prompted
qrs
quantize
queryable
rdataset
recalculate
renew
rewritten
samplerate
setpoint
skewness
society
spa
subdivision
subparser
ta
txid
utilization
warp
worked
##ain
##alignment
##bl
##curve
##ier
##lr
##plit
##sys
##torage
##ulate
aborts
activestate
artifactory
atmosphere
auth0
bat
bloop
ciminstance
cities
colin
curved
dags
datatable
dcnm
ddd
discriminator
dists
djadapter
dogs
elementwise
forth
freesurfer
government
grounding
hazelcast
heatmaps
hoc
hw
inertia
intern
iotexception
kdtree
lastname
lev
lifetimes
ligotimegps
limitation
longs
mdp
mercator
mjd
nmr
normalizing
nozzle
nuclear
outstanding
overloads
parallelization
parms
phi2
pic
positioned
promote
purged
q2
qiskiterror
qux
rankings
rasters
resultset
rtt
shells
signers
signup
sparkcontext
spawns
strata
strides
subvolume
teneto
thai
timers
todos
tutorials
tw
ucs
uploader
v2016
##ave
##axis
##button
##diff
##eed
##ites
##its
##low
##mann
##proc
##ser
##td
##term
##tions
##v1
##validator
approaches
argval
attaching
bookmarks
bools
cib
climate
ctype
data1
ddthh
dispatching
dumping
emulation
endif
firstname
hazmat
importable
informs
iss
leapfrog
lorem
minimizing
mute
mycontainer
myserver
node2
notimplemented
oo
optimum
patching
permute
poor
prepends
presets
protorpc
purview
readdatainstance
redirecting
reside
reversal
rois
sctg
sos
subsample
synapse
tee
tempdir
tfam
theoretical
tiled
timeframe
tpr
traversals
unfolding
vasprun
violations
walkers
websockets
xrange
##berg
##cells
##cols
##duration
##face
##ress
##rg
##site
##statement
##title
##ulated
##vs
##web
0x00
140
advertise
albedo
algebra
algebraic
aside
bitrate
bv
chemistry
chips
chocolatey
christopher
clearing
creamas
credible
dataflow
decoration
deserializer
diccionario
dtd
exons
faked
i3visio
imt
indefinite
jones
maxima
microsecond
mixtures
mrs
multiplicative
opennebula
parity
path2
polarity
polydata
positioning
proceedings
psutil
ptype
recency
regressors
relational
sale
sane
sass
spy
stringified
swaps
tabarray
une
unresolved
upgraded
useless
veto
vn
vsan
waveforms
wavefunction
wh
withdraw
xhtml
##4e
##b1
##ction
##di
##dos
##gh
##ology
##prop
##reg
##step
##ther
##tz
##xt
112
375
625
acker
announce
arrange
autocomplete
avoided
bayes
bluetooth
cbfun
changelist
cnt
cpp
cpython
crossflow
cubes
dangerous
devvarstringarray
distinguished
downsampling
ds9
embeds
exponentially
fcn
fittings
fpr
geographical
goodbye
gplt
grabs
gsi
imp
jboss
jsonrpc
legs
limix
mapfile
methodology
modular
motions
nfa
nrel
objectidentity
pathlike
playlists
proba
realization
regularized
relpath
rings
saltstack
seidel
sentiment
ses
slitlet
specfile
striplog
sunday
testsystems
transients
utilize
vg
welcome
wet
whitespaces
##bo
##cl
##fun
##ibility
##lc
##like
##note
##notfoundexception
##sh
##tch
##times
1980
1985
advancedtag
amt
arr1
arr2
aspirate
availabilityzone
bernoulli
blur
completing
compositions
depthimage
dynamical
ei
electronic
equivalents
explaining
fallen
gsshapy
haplotype
heroku
hexdump
inode
instantaneous
interpolating
jars
larry
maxresults
mfcc
minimise
modulation
mot
netmiko
neurites
nlm
normed
ntlm
oct
opcodes
phonon
photometry
plays
pointwise
prometheus
pytables
pytplot
recieved
reformat
reimplement
reloading
rlp
sax
shuffled
simultaneous
specificity
strange
subtracting
surf
thought
unc
var2
webpage
winner
workbook
xblock
xdr
##build
##cursor
##dr
##iles
##mag
##mesh
##mo
##ole
##pair
##ric
##ries
##rot
##settings
##sl
##vec
##о
106
absorption
advertised
afw
alphas
appdata
arcseconds
boldsymbol
borrowed
cartopy
circumstances
commandexecutionerror
dados
decisions
derives
divisible
dnx
dominant
durable
encoders
extinction
fade
fcsdata
fec
field2
freshness
fx
hardcoded
improperly
indels
isa
isolation
isrequired
kmskeyid
m2x
maf
makedirs
marathon
mascara
matrixxd
megabytes
mins
mni
nameservers
nmb
nullable
observatory
odoorpc
organisation
outs
photon
populating
precisely
preconditions
principle
profit
purely
registrations
repr4
responding
responsemessages
savefig
seeded
sequencing
sgraph
similarities
slugs
sslcontext
starred
sublist
sunset
suspended
testmodel
tmydata
ucsc
unstructured
vat
vni
wdl
wm
ydata
zi
##123
##ask
##au
##bus
##char
##des
##elector
##formatter
##ice
##ings
##seq
##ten
##ui
004
220
221
254
2b
accountid
acentric
alarmdecoder
annot
biased
bidirectional
bleu
classifications
commission
concise
conll
consistently
dashed
ddo
encounters
fairly
friend
fulfilled
galaxies
ifos
incrementing
inset
invalidated
lims
melting
migrated
optimisation
organic
oui
parenthesis
presumably
probable
psyplot
pyyaml
rack
rake
rdtype
recorder
relabel
replykeyboardmarkup
respected
socketio
sol
sought
structuring
targeting
terminals
themes
unlink
urlerror
usec
userwarning
vd
viz
vnic
war
webapp
##agent
##ao
##bb
##cao
##cf
##comp
##ctl
##dm
##fc
##iff
##interval
##izes
##king
##lists
##odel
##payload
##peed
##pipe
##sed
##star
##tp
##tracker
##uting
302
4x4
669270834329427
aberration
addrs
aggregator
argmin
arma
atcontenttype
audiosegment
autoscale
b6
backport
biological
bkg
brighter
cfgnode
chemicals
club
confirms
datos
deflection
dialing
disassemble
douglas
enhance
everest
fb
file2
flair
flood
forcibly
freedesktop
helix
hrv
ice
idl
imag
independencies
ish
jp
keyserver
latch
logentry
med
michael
neq
occupancy
omitting
orgs
pagerduty
panos
percentages
pickling
pillarenv
precondition
pydoc
pygame
reda
relguide
rg
rotational
satcfe
scansion
seven
shuts
somatic
splice
stackexchange
subprocesses
supervised
swf
touched
treenode
truncates
ultimately
unload
van
varargs
varint
vulnerability
xmlrpc
yahoo
##100
##bility
##cd
##ection
##fa
##ics
##ill
##km
##partition
##script
##stats
##ues
##ummary
12h
1e6
50000
5e
adequate
alts
amplification
athlete
authenticator
authoring
autoregressive
barrier
batching
broks
burst
cadence
caspo
casts
cfgstr
cftime
chirp
chose
cigar
d3
daterange
deeper
dispense
editors
endings
eventtype
facilitate
fcm
featuretype
fileset
fusion
ht
iaa
imagenet
improves
infoblox
involving
jlinkexception
joiner
jwks
kraus
lahnh
linearoperator
loose
mh
modal
msgid
msrestazure
multipolygon
normalisation
nrows
obvious
piped
preferredmaintenancewindow
promoted
pvlib
pyny
quart
redhat
rom
specifed
sprint
stating
statsmodels
subsystems
summation
tabledata
taskid
telethon
tesla
threatconnect
thtext
tileset
touching
tsne
worry
y3
##are
##browser
##ism
##pl
##rn
122
1500
abf
acknowledgement
adult
allocations
analysed
annealing
anomalies
answered
bams
barriers
basemodel
bike
boards
checkers
codename
committor
conditioned
couchdb
crontab
dateoffset
daylight
dfwinreg
dynamo
emitter
engineversion
epw
exceeding
finance
firecloud
flexibility
flushed
focal
foundation
framebuffer
france
getters
harvest
hl
humanize
hv
ide
instanceid
isochrone
jobfunctionwrappingjob
kaiser
kitchen
knowledgebase
landing
lh
libxml2
mass1
matters
meshgrid
mic
minkowski
nds2
nearly
netconf
nucmer
parallax
parsable
pcm
periodicity
ply
projectname
prov
publicly
queryparams
rmsd
rts
ruleset
rz
sharp
slip
students
supplies
taskpaper
tema
tica
translating
trims
unquoted
wos
##ada
##bins
##database
##dc
##dd
##dec
##domain
##driver
##gateway
##ivity
##lim
##mapper
##numbers
##pkg
##ple
##rank
##registry
##sa
##score
##sg
##ung
1234567890
124
15000
170
240
345
3f
4th
85rb
accurately
acting
anycast
backfill
boosted
boxlist
cirq
coincidence
contributors
cytometry
dashboards
dell
dof
dollar
dossier
downloader
elemental
fileentry
formatoptions
gbif
hexdigest
hostgroups
hurst
ibeis
icons
inequality
ja
jobstore
jsonpath
lightcurve
lights
loadbalancer
m2m
mets
modern
mrna
myzpool
natively
novel
observables
om
optimise
orderedset
participating
pictures
pillow
pipe2py
pysam
pytest
qcolor
qname
rational
retreive
scaffolds
sda
segm
shelf
solvent
spend
subgroup
symmetrized
tdb
thellier
timeoutexception
topk
truncating
tuned
volumetric
vs30
vswitch
watermark
wavenumber
winning
x01
xgboost
xnew
└──
##bool
##eb
##ens
##ew
##family
##iate
##ick
##istic
##layout
##nder
##ock
##ount
##parseerror
##rain
##ru
##ti
##trace
##ult
##umber
##write
1987
230
ace
alters
aluminum
approximations
attr1
b0
babel
biom
bitarray
blending
blurring
bom
buildout
calendaring
canvasapi
caps
carefully
cgroup
consolidate
dacl
db8
dbf
diagrams
discarding
disconnection
dup
ecs
emailaddress
errmsg
faq
featurecollection
feeding
fidelity
firing
formal
fst
gathers
gdsii
genesis
glm
globbing
gluonnlp
hall
hatemile
hertz
hides
highcut
highstate
hover
impacts
inspects
interpolator
ipmag
lago
lose
lowcut
marginalized
mass2
meshlab
metal
methodname
morphology
nid
occurences
pac
pgp
precip
preprint
pyquil
qsettings
qtmacsargumenterror
rarely
referent
reusables
reverses
ship
skimage
slugify
soco
sparsetensor
subtag
swipe
synthesized
sysctl
tailed
techniques
throwing
tkinter
turtle
uu
variates
victim
volatile
watson
wu
yarn
##backend
##changed
##constraint
##for
##izable
##links
##lon
##ture
##usage
##vd
1984
666
ambiguity
analyst
antenna
aspects
assessments
bootstrapping
branching
callb
capitalized
clicking
createelementfailed
dagger
determinant
dihedral
divides
e0
ease
entrance
ess
fieldarray
filesize
fin
frag
gases
germline
gi
healthcheck
homogenous
ig
imachine
impala
inception
inferencedata
instancetype
interrupts
kills
lclist
lifted
marshal
md5sum
millisecond
mimics
muc
multilevel
neon
nin
nw
office
ongoing
outlets
pen
perc
quotation
rebuilds
relate
rising
rouge
sha384
smiles
sole
splines
stemmer
subdivide
substituter
suds
suppression
textfile
timedelta64
uniq
unnamed
uplink
variadic
vsi
watches
watershed
web3
wed
xls
xslt
##0e
##cap
##change
##dl
##ead
##ement
##fo
##ifier
##lation
##member
##nit
##orted
##over
##users
##uth
##ux
6e
adder
adu
amr
antecedent
argparser
asof
bgen
bigchaindb
boss
broadcasts
bt
btrfs
catching
ceil
checkplotdict
clobber
clocks
comprehensive
comprised
correspondence
curses
deduced
dexteritycontenttype
disambiguate
discretization
diversity
dmatrix
doubles
dsc
duty
e4
eauth
eid
estnltk
ether
freed
gating
gaussians
generalization
geocoder
gis
gone
greatest
gridsearch
gsm
guidelines
habu
haplotypes
her
httplib2
iir
intents
intra
ipsum
killing
kpoints
labelsize
lmfit
lsb
medical
moderate
night
ols
omd
openssh
pbkdf2
postmark
qobject
radia
reactants
relating
resnet
retorna
revealed
ros
scrape
sdf
siam
sii
spc
specially
sticky
stone
strikes
sweeps
switchport
trash
traversed
typo
ufunc
unquote
v7
value3
vital
x10
zeroed
아이디
##ache
##af
##atable
##ber
##bi
##cing
##elect
##instances
##logger
##mon
##naoexisteerror
##ound
##ron
##s2
##t10
##truct
##v3
0f
1983
2fclass
30000
4326
adam
advices
america
arff
argumenterror
arima
arrived
asm
authn
boilerplate
brace
canada
castable
casted
compiling
confused
consequence
continent
cosmology
ctd
distinction
dividend
equilibria
escalation
evaluator
exponents
extraneous
fileinfo
foreignkey
fundamental
imgs
intercepted
isentropic
isotopes
kd
kinematic
knob
logentries
lowercased
mediatype
memoization
meteorpi
mpv
mro
ncv
negotiate
nets
oc
optim
optimizing
ordinate
painter
perplexity
pianoroll
pixmap
placeable
plans
plasma
pour
predicts
priorities
puzzle
resort
segyio
shlex
shortname
simplicial
simplifies
sourcetime
sse
stocks
subtracts
supercritical
thumbprint
unspent
venturi
volts
whitelisted
yearly
yt
zhang
##00000
##ae
##ang
##ened
##ents
##future
##lice
##listener
##loop
##maps
##ops
##python
##tone
##uring
##wrap
224
abinit
accidentally
affecting
amd64
angstroms
autostart
blanks
buildings
carriage
centering
conforming
confusing
countdown
cpds
dbinstance
descr
dynesty
eip
ek
exclusively
filething
fmax
gcrs
gettext
goo
greyscale
guides
hc
headings
hm
host1
img2
inferring
instructs
isothermal
jws
kim
lbrace
lnk
maas
magenta
manipulated
manufacturer
marbles
meeting
mlp
multipliers
ni
noe
od
openbabel
out1
pascal
pedalboard
poco
portable
premium
prerelease
rbenv
reachability
readwrite
sans
slit
staged
stick
storages
tend
tgz
timespan
topo
turnover
uns
unwrapped
urlparse
valida
valves
word2vec
writers
##actions
##ange
##cv
##decl
##font
##iness
##ong
##pa
##ph
##rf
##rules
##tensor
##│
00z
113
129
199
2x
afi
annotator
appeared
b64
bear
benefit
blk
chi2
coins
conc
consumersolution
contributing
dagcircuit
datadir
dataproc
dcictl
delorean
diffusivity
discards
djangoproject
dset
ea
elliptic
enqueued
fainter
finalized
gcc
geq
glances
gregorian
hanning
hvap
imdb
indptr
inspecting
invalidation
io1
ipv4network
isotropic
itemdatarole
jaro
jose
kronecker
labeledpoint
lagrangian
lesser
lineage
magics
manpage
menus
minhash
mnemonic
multiprocess
ncols
nests
networkid
nxm
octal
optimiser
orator
ouput
p300
pagerank
picard
promotion
provisioner
pyglet
refactor
retains
robots
salesforce
sb
scons
simulationstep
soma
sox
spacecraft
spk
spl
stagyydata
stdlib
subcategory
subreference
sup
synthesize
tapers
terraform
testsetup
tmin
tot
toward
traded
umbrella
updater
upwards
userinfo
wells
worse
xcorr
yhsm
##angle
##atch
##band
##cast
##columns
##els
##fi
##hip
##init
##ji
##lle
##lookup
##mass
##ory
##que
##soperations
114
accelerator
accelerometer
adwordsclient
ancillary
bipartite
bundled
centres
colorized
cookiejar
corrupt
cy
datasiftapiexception
digests
drug
emergency
exprs
f90
fbchatexception
flagfile
forcereply
foundations
geolocation
goodness
hemi
iban
intact
integrations
introduce
involve
ipsec
kid
l0
league
mfd
multiscale
myrepo
nchan
negotiated
novo
ob
opf
optparse
ourselves
outlined
overlaid
perfectly
perimeter
pexpr
pie
pitches
plunge
postgis
powershell
preferably
preparing
prepro
probabilistic
proposals
ptrm
pyasn1
qtype
rays
recommendation
recordcollection
regularizers
reponse
restarting
reviewer
rfi
riakobject
rmtree
saltutil
scf
scr
scriptable
secured
semver
simplicity
skyview
sma
snmpv2
snv
spinner
strains
syllabify
synthesis
text1
tolist
traced
tsfresh
umask
undocumented
unmapped
utilizes
voucher
washington
wif
wireless
xu
───
##256
##ai
##archive
##ash
##bf
##chars
##dim
##email
##eo
##equest
##html
##inate
##ines
##loc
##mail
##noise
##nv
##oot
##our
##rated
##rdd
##section
##sum
##ties
1989
3x1
5th
addressed
anchored
announcement
arg3
basemap
bf
bolt
bonded
bst
burlap
calibrate
canonicalize
catalan
cifar
cleansedlines
clinvar
comic
computers
conducted
cum
cval
devuelve
dippr
dois
doubling
dss
eax
engineers
fcp
ga4gh
gibbs
helicity
helpscout
heron
imply
importances
incorporated
intervalprod
jsonencoder
kvm
lemmas
magcols
maximizes
naturally
notif
numero
nurbs
oov
opj
optimizations
optionsforoperations
ovs
pathnames
pdfs
plone
poscar
powerful
professional
pss
pyenv
pythonpath
radiance
reflects
registries
regularly
respresentation
resulted
rolled
rolls
rtc
scorer
seat
securities
slaves
sourceforge
stated
strava
strokes
structtype
suggests
syncing
syscall
testsuite
tns
tomcat
twig
uc
unlikely
verbs
x5
xe
yu
##attrs
##chart
##deg
##dex
##dot
##exp
##fill
##hare
##itation
##nic
##ox
##pin
##rest
##serror
##tates
##vel
##xx
104
207
2mass
4e
aaaa
aleph
amz
apex
arista
artificial
asia
assetcontent
atr
bedtool
bessel
bfs
bic
bq
cafe
cam
canonic
cdd
chdir
compass
conservative
contextmanager
deemed
dem
deployer
deviceid
dies
distorted
dsk
dumb
eda
eig
eni
errorindex
exacttiming
extver
facilities
favorite
feb
fillvalue
fluorescence
forked
fq
hitting
hklm
horiz
igmp
il
inspiral
intensive
interleaved
iou
ipc
jsons
lacp
lightweight
linter
lldp
logg
lucene
lyapunov
mhc
minibatch
mining
mip
mq
myfunc
neuralnetworkbuilder
nhru
nicer
northern
nxos
pairing
pif
ppm
preliminary
procedures
profile1
qabstractitemmodel
rapidpy
requestexception
returner
roaming
roman
runners
sees
selectable
seqid
sfr
shortstr
shutting
sis
spell
statevector
subsampling
substitutes
subtoken
telegrambotrpcrequest
tg
unassigned
undone
unequal
usecols
usuario
visually
vtep
warns
wedge
##actor
##bag
##che
##codes
##comment
##counter
##cut
##depth
##ding0
##docs
##entifier
##hex
##jar
##ka
##lk
##lm
##md
##oy
##pc
##pot
##shape
##ters
##uate
##urs
##validationerror
##ware
##with
##yo
1111
1a
2n
802
abbr
abstractcompositenode
acct
alot
analyzing
astra
augmentation
awslimit
beef
benjamini
binby
ble
bo
breadcrumb
byteorder
cardinalityerror
cauldron
confirmations
coremltools
cpl
crops
dictresponse
differing
dlp
dominique
doxygen
dumper
e3
edm
eli5
emulator
evaporation
film
filterscript
fixing
food
forcefully
frank
gca
gross
hann
happy
infers
informational
intc
intercepts
ionic
irmc
jet
knowing
kwd
ladybug
luigi
manifests
marketplace
mysocket
napp
nav
navigate
niter
nodename
npfloat
nv
nx3
onboard
orientations
oxm
pathspecerror
paul
pgen
pragma
prefixlen
rc2
regard
relates
scaleio
sds
secgroup
shifting
sinusoidal
sla
slcli
speak
speedup
sport
sso
subfields
subgroups
sublime
subliminal
subpath
subtrees
thermostat
timevalue
tmpdir
transportation
tsig
unescape
untrusted
usearch61
v1beta2
vega
vendorspecific
vname
wcnf
worktree
xn
##b2
##category
##d2
##dic
##distribution
##err
##gr
##hat
##hs
##ield
##namespace
##own
##permissions
##ug
##vol
##ði
3333
451
ae
amongst
asterisk
atm
attr2
automaton
b3
balances
blit
bz
cacher
capitalize
captions
carries
catalogbrain
celestial
channelusername
chronological
clamped
cleaner
cloudflare
compensation
complementary
coupled
curated
currencies
dataql
dbconn
dcm
ddof
descend
dir1
docid
doctests
doctype
dwprocessid
edf
encapsulated
enumerating
example1
exterior
feeder
firmata
flare
forcefield
gg
hasproperties
heavily
html5
i18n
interpolates
interpretations
interpreting
isotope
japanese
kendall
key3
lowpass
lspinfo
magnification
mammal
manticore
medpy
mimic
mux
nonempty
normaly
obj2
oct1
oct2
oct3
ordererror
overloading
overpy
oversampling
parameterization
pbs
poi
qualify
randomness
redistribute
reinstall
rennels
resistor
rl
sanic
scott
seq1
serieslist
somehow
spancontext
specfiles
srm
sshd
stacktrace
storageentity
stratified
stype
subdivisions
substance
subtopic
takeoff
taps
tchannel
transliterate
tue
ves
wins
xmatch
zeroes
##200
##ats
##bio
##corr
##ensor
##enum
##force
##han
##ii
##ils
##ious
##itive
##iton
##ker
##meters
##orr
##ptr
##pts
##resolver
##sequence
##ses
##style
011
0th
151
1663
231
2xx
5d
adaptation
ampl
argsort
arguements
arns
associating
august
baseurl
biopax
bitstream
bla
bootloader
bootstraps
breeding
brightening
canonicalized
cited
commons
concentrations
costly
crashes
deeply
definitely
dvc
earthquake
enrolled
eoferror
erases
explode
extensionarray
falsey
feet
fieldmask
fignum
fnames
fore
geoplot
glove
gmres
gpiozero
gruneisen
hierarchies
histories
icc
impulse
incidents
inefficient
intelligently
iraf
joback
kp
latents
lbl
listdir
locality
louvain
maker
makowski
mirrored
monomer
mutagen
mz
netloc
nonexistent
obj1
oids
overlapped
parseresults
peps
perl
pidfile
praw
propagates
pyobject
pythonic
qaction
qual
recognised
regs
reraise
resolvers
ri
ringdown
rle
rollover
routingtableentry
sake
sales
scrapy
serviced
sight
spanish
stravalib
suffixed
syncs
tagger
timezones
topmost
totally
traits
tseries
ua
uncorrelated
urlencode
variable1
verts
vispy
voicing
warc
waves
wouldn
yz
zf
##ade
##amount
##bc
##c1
##ces
##cond
##constraints
##dor
##eval
##first
##ilter
##ips
##late
##local
##logs
##mean
##phase
##tables
##transform
##uated
##urn
##xis
##year
##zation
##у
409
4beta
aggregating
agnostic
aliasing
ambient
arduino
arrangement
authorizations
autoautosummary
autocommit
azureoperationpoller
biggest
brightenings
butter
bzip2
caveats
cbar
cent
chans
chen
clifford
codeblock
coffee
collate
colname
comparative
ctr
designate
detuning
dimming
dimmings
displacements
downsampled
eapi
ens
equalizer
errorresponseexception
eventhub
exercise
expanduser
factored
fri
geotiff
gpa
gpl
gtr
h0
hysteresis
i8
ia
incorporate
inlets
instrumentation
item1
jb
keeper
ket
keybindings
keyworded
leg
ltd
lying
makefile
mal
mcs
memm
mydomain
nagios
neuropythy
nih
ntu1
oscrypto
parameterize
pcolormesh
pep8
pods
proceeding
programmatically
projex
quaternions
rebase
recalculated
repair
resolutions
rets
rowsparsendarray
savepath
senders
servername
shopping
sigkill
slides
spanned
succeeding
supy
taus
tfa
thresholded
thu
trending
trunking
turbulence
u2
ucsd
umi
upward
usps
vpcid
winkler
xid
youku
##alt
##arch
##ball
##cls
##datetime
##fied
##ily
##ina
##old
##ormat
##phere
##print
##ural
##ᆫ
1200
301
abcdef
annotates
associative
astrometric
asyncore
axial
bigint
biomass
bytestrings
car
casa
cheese
cloning
committing
compressibility
configfile
cookiecutter
covs
cpuid
csphase
databasename
datasources
decorating
delegated
doubled
emitting
encapsulates
equatorial
errormessage
exobj
exts
fastqs
fds
featuring
firebase
floattensor
flowing
fov
funding
gdf
ginga
guidance
httpserver
hypercube
icontrol
imposed
inflow
instruct
intend
inverter
itemid
k3
lexicographically
london
magnetometer
millis
minified
mmax
molecularsystem
myfolder
nabla
ncfile
nextpagetoken
nfs
nov
nsteps
nyquist
o2
orbits
organize
osx
outermost
paged
parametererror
paramter
path2d
persists
pga
plotters
pooler
presents
projecting
projector
psz
pulsar
purple
qd
qpu
quantumchannel
quantumcircuit
reductions
referer
releasing
reproduce
responded
resumed
seekable
semimajor
servererror
shading
slowest
snowflake
stmr
superclasses
supplement
swo
tablet
tabulated
tan
textrm
theorem
thru
timeaxis
tobj
tukey
unescaped
unsaved
upnp
verkey
vgp
voidage
voting
vq
vrid
weldtype
wishes
wv
xticks
yakonfig
zorder
для
##any
##aries
##car
##com
##contact
##create
##egment
##ere
##ez
##fall
##graphic
##guide
##ht
##ined
##kg
##menu
##nc
##nch
##nes
##open
##opts
##rel
##relation
##t00
##wcs
##и
##─
000001
005
010
1993
1b
64bit
93000
abscissas
acronyms
adv
arabic
arviz
asyncresult
backward3x
ban
bboxes
behaviors
bell
bm
bx
callee
cancer
chown
cij
clouds
colorimage
como
constructors
contraction
crc32
crossings
curve2
demonstrates
dens
dhi
dicionario
dielectric
differentiable
dips
doesnt
doppler
draios
duck
encapsulating
energyplus
era
eudex
extrapolate
flights
frictionlessdata
goog
greek
greeting
helmholtz
icrs
imputed
indents
initializers
integrating
interception
irregular
iscsi
item2
jwe
k0
kerning
kullback
lat1
lateral
launcher
lisp
logicalid
lti
mate
mongoadapter
msi
multiaz
multidict
nir
normalizations
obfuscated
oembed
opertaion
optimizes
orcid
paramaters
payer
perez
photometric
poses
precede
prefered
pretend
pset
rar
rdfs
reals
recid
recurses
refreshing
reimplements
representable
reproducibility
restapi
reveal
rio
rivescript
rollup
routemap
rvm
saltant
san
sav
seal
searchable
seperate
setattr
sexagesimal
sharpe
simplices
sitetree
sourcepath
startdate
stimuli
subgraphs
synccopy
taxa
tcl
tends
thesis
thetvdb
trm
unconditionally
usages
usearch
valor
vanilla
vmadm
workbench
xmlinterface
yubihsm
##activity
##apierror
##arr
##capacity
##cb
##e3
##gas
##ibly
##ience
##lens
##login
##lp
##machine
##ord
##org
##pad
##pix
##play
##r1
##rp
##signature
##so
##ution
##vi
##т
##ы
2100
298
33333333
acquires
asp
assembler
assembles
ax1
barcodes
bark
bet
bim
bitbucket
bivariate
bonferroni
bpm
collapsing
configurationerror
continuum
corruption
datalabeling
decompression
deflate
demonstrate
discounts
dominiquemakowski
dracr
elliptical
emulates
ent
entropic
epsf
esri
evolve
fba
filetypes
finishing
flavors
fobj
frameworks
gains
gemini
genotypearray
gp2
greatly
gwf
hoboken
hydraulic
hyperedges
impedance
initiating
installations
intelligence
interchange
interleave
intraday
jac
jane
landsat
lg
lognormal
logon
lookuperror
lumi
lzma
machinery
macromodulations
marple
masters
matchers
maxval
mecab
messenger
minizinc
ndex
noop
npts
obsrvr
oleerrorinvalidarg
op1
out2
outpath
pdm
perry
phonopy
pong
pri
publiclyaccessible
pymc
qtdoc
quotas
radix
rainbow
rbrace
rectify
rem
remapped
restapiid
rethinkdb
rudder
sacred
savename
scraped
sda1
securitygroupids
shake
skype
sodium
sounds
spm
sre
sshexception
subclassed
substituting
subtask
supervisor
syllabifier
sysdig
tagset
thr
tiers
tiling
torque
treating
tribe
tricky
unlabeled
unsorted
utcnow
valu
vista
visualizing
wandb
wider
winners
wordlist
wua
wwpn
xnat
yaxil
##a1
##cfg
##child
##ederror
##k1
##kin
##ological
##onf
##pid
##plotter
##ranges
##storage
##tasks
##well
##xxx
##za
142
270
29000
accelerated
addons
angr
animals
apollo
atime
augeas
automate
baudrate
beneath
bss
cachedir
campos
cartoframes
ciphers
clientid
codepage
cohen
cohort
comb
commanderror
commutative
confs
contig1
conv2d
cosmic
creators
crosses
crypt
datapackage
dbapi
debye
defaulted
demonstration
destructive
dk
dut
edgelist
element2
emissions
errback
esi
european
exhaleroot
exitcode
extname
fingerprints
framer
gacc
gage
gib
gpuarray
graphite
gumbel
hang
homology
hpa
ies
ignorecase
iloc
ingestion
intentionally
iphone
j1
jackknife
kube
lexicographical
loopable
manta
mash
mdr
meanings
meetup
memoryview
modem
morph
msgs
multiplexed
n3
nameid
nics
ning
nmbzones
nobs
nulls
nvidia
openconfig
opportunity
optimizers
ordinates
parametrized
path1
pobj
pointcloud
preceeding
presumed
pvalue
pwkit
pyqt
qgsmaplayer
rbf
reassigned
recordset
reflecting
reshaped
reversing
searchproblem
shgrid
showcase
slabs
somebody
speaking
sqr
sucessful
synsets
table3
treeview
unambiguous
understands
unencrypted
unstack
unsure
untagged
vecs
watchdog
xmldoc
##air
##application
##attachment
##bd
##bject
##byte
##cent
##chat
##cion
##cm
##density
##eak
##efinition
##ek
##ept
##fix
##gb
##how
##ica
##identity
##lass
##move
##np
##rec
##receiver
##reply
##rus
##stack
##variables
##viewer
##ða
##───
01t00
11300
136
16xlarge
205
2222
257
440
5xx
aiche
airport
alteration
amg
ancestral
aoi
approximating
apr
authy
b04
badly
betas
bgr
brian2
bsp
cation
cauchy
check50
checklist
cie
clinical
colorspace
cornell
dan
datadog
deadlock
decreased
defects
delaunay
dir2
disallow
drainage
element1
elementary
elevated
employee
entirety
establishing
expparams
fastqc
feedforward
fixmat
flopy
foreman
fullpath
fuse
gcm
giraffez
guessing
hanging
holoviews
httpclient
index2
installrequirement
intersected
investigate
junk
ka
kern
kgk
labkey
lbracket
likewise
linesep
logx
mead
mechanical
mess
mev
microdrop
millimeters
minimizer
moe
msb
multigrid
multinomial
netbox
nrrd
nx4
offering
ooo
opentok
overpass
oxidation
paramref
pipfile
poa
ported
postprocess
pq
preload
psat
qimage
r4
rbracket
rediserror
relocated
reproducible
reservoir
rrggbb
rsql
ry
scapy
schemaobject
sdist
sdram
serialised
settle
sit
smoothness
sni
sphericity
sshkey
stachans
stemmed
stl
stolen
streamhandler
stridedinterval
sub1
successfull
suited
sur
taskinstance
throttled
timepoint
tolerate
topicpartition
transferring
treebank
trends
tweak
und
unmount
vboxerrorinvalidvmstate
vep
viterbi
warmup
workload
zebra
zmax
##ak
##arcsec
##cp
##decode
##detail
##dispatcher
##ength
##eps
##ered
##ery
##example
##fig
##har
##hell
##ided
##lf
##lot
##med
##observer
##oe
##osition
##oss
##phone
##put
##ratio
##reason
##rep
##sen
##symbol
##tol
##vg
##ython
##°
0d
0x01
107
135
2400000
5s
accommodate
aggressive
alloc
amazonaws
approximant
argname
augmentables
ax2
badconfigoption
balancers
baseeventloop
batchnorm
batchsize
bedfile
berlin
biomart
blurred
bridges
broadcasted
buffersize
chamber
changesets
clienterror
column2
combos
complexes
comprehension
contributor
conveying
ctime
ctl
databox
dereference
devicename
dialogs
dock
docstr
drf
dzn
emulated
enu
evi
expansions
fab
falsy
fat
fe80
fiber
filenode
flips
genl
haystack
hgvs
hier
hmtk
hpe
i4
iat
igraph
inertial
inhibition
iprogress
iscs
j2
jamo
javadoc
joystick
jsonp
kinesis
lenient
lod
losing
matmul
maxdepth
maximized
mdata
metamodel
miscellaneous
mocpy
modflow
mol2
mrc
muscle
myproject
nanoseconds
natsort
nifti1image
nmrstarlib
numobj
obo
orphandependents
oscillatory
outputted
parens
ped
pol
polypeptide
prj
purchases
qrcode
reasonably
relax
reliability
reservations
resumes
rsakey
sandman
saying
sbml
segmentlistdict
server1
skills
slepian
subscribes
successively
targ
tech
terminology
thereby
tokenizes
totp
u6570
unauthenticated
underneath
uni
urlopen
v1deleteoptions
visu
vp
walletstate
webdriverwrapper
wmi
##alue
##ars
##classes
##commit
##cope
##eer
##eration
##estimator
##executor
##filters
##frames
##fw
##hg
##hole
##icator
##icon
##import
##inated
##ios
##ith
##lly
##my
##notification
##oi
##ont
##plan
##plots
##po
##power
##rating
##roup
##segments
##sk
##thing
##timeouterror
##ura
##workers
065
1981
1mexamples
1mname
1msynopsis
304
321
32768
40000
406
66666667
aix
assignee
attrdict
aurora
autodetect
autoscaling
betweenness
bills
bitcoind
casing
comply
compressor
comput
configmanager
configmap
consequently
consolidated
continuationtoken
corpora
cpf
cq
crlf
crtomo
datagram
datapath
datastructures
decipher
delu
designspace
desire
dmp
drawdown
dropbox
ebm
egress
enddate
engagement
examining
explanatory
factorial
fai
friedman
frontends
fsa
gave
geopandas
graceful
graphcut
hf
hh24
hls
household
hsterms
id3
infra
ingredient
integrates
invoices
island
jaide
jdbc
jz
keycode
keyval
laplace
lighter
line2d
lockfile
lowrank
markovchain
matpower
messageinstance
metricparams
minion1
modulename
multiclass
mymodule
mytable
networkipv4
nms
ntime
omits
operationfuture
paco
pauliterm
pendulum
permissive
portals
prof
psm
pwr
pypetconstants
recoverable
registrar
reindexed
rekey
relying
retaining
reuses
revoc
rsem
seeks
segno
serie
servicename
sidebar
simplification
sniff
socks
solo
sortby
spacegroup
squash
st1
stuck
tableschema
tape
taudem
text2
threadpool
throttling
tic
tidy
todense
topologies
torito
trs
umlaut
unbind
unfiltered
user1
utilized
vap
vulnerabilities
vultr
w3c
wal
wing
wql
xk
xmpperror
zeta
zypper
##010
##abc
##ail
##ana
##bly
##e4
##editor
##fileentry
##find
##found
##functions
##game
##gate
##inseconds
##kl
##lect
##lit
##media
##nts
##ools
##phi
##regression
##resolution
##rid
##series
##sql
##sr
##ua
##versions
##ving
##words
##zing
##ет
##м
0x20
0xff
1979
1g
252
260
4xx
555
86400
abcs
abstractelement
accent
advice
aospy
arctic
arms
asn1
assessmenttaken
basilisp
bfile
blind
bloch
blockdevicemapping
blow
bonus
borrow
boxplot
campaigns
certifier
cfws
commenting
configurator
containment
crazyflie
csu
curve1
d4
dbscan
decrypting
dialogue
disambiguation
divisions
dockerhub
domino
drac
dynamicmap
edgecolor
encouraged
entitlement
etype
fang
featureset
featurize
feel
fence
ffffff
ffill
fgivenx
fifth
findall
flake8
gated
gbq
gctoo
geohash
glusterfs
gremlin
hands
hexagonal
hnzvc
hoge
host2
ifft
ifindex
iframe
ilocommandnotsupportederror
improvements
irq
issn
kamb
kargs
keytype
lagged
lbls
lime
linearized
locs
lon1
lookuplib
maintainer
martin
materialize
memlimit
merger
mllib
moltype
morse
mri
multisig
mybucket
nanops
navigator
ndx
notificationtype
notion
occuring
ocr
odata
ogr
opentrons
operated
optionnal
opus
palettes
peripheral
picklable
plex
pom
prepending
presently
privkey
pronunciation
prot
pwnypack
quarterly
qutip
qwe
rdp
rejects
relativepath
reloader
replykeyboardremove
resumable
rightarrow
rigidtransform
rmax
rrule
rtm
samcli
scraper
serverexception
shex
shop
solely
sparkle
srs
ssml
stems
swapping
symmetrize
thead
tincan
ufos
unzipped
urns
varcode
vdev
vehicles
vendored
vgroup
violated
workshift
xsi
##ah
##alias
##artifact
##channels
##convert
##cov
##dataframe
##devices
##encoding
##fish
##flux
##hold
##iated
##ida
##ko
##lar
##memory
##mf
##not
##ob
##pro
##product
##register
##right
##router
##sion
##timeseries
##ymbol
##zi
##ᅩ
015
025
1000000
119
2g
520
accounted
apidocs
applets
arise
believe
benchmarking
bgedge
blackbox
bokehjs
broad
cables
calendars
catchments
cellpy
cho
cnpj
coerces
column1
compensate
concerned
confirming
contactgroup
convective
cpuset
crude
decoders
dependant
devstring
dictates
dictonary
discovers
equiv
erroneous
excerpt
f8
follower
foot
fromrepo
fund
genomicrange
gnome
golden
googleapis
grafana
growing
gru
haversine
healpy
heightmap
hotttnesss
idx1
illumination
injecting
input1
internationalized
intron
isin
jsonl
jtag
keynames
keypress
lacks
laidouttensor
lambdas
latn
leibler
leverage
linearization
logp
love
magicc
marshaller
merchant
million
misses
mod1
modelparams
mustache
muted
namedtemporaryfile
nbits
networkipv6
oauth2client
objectname
ocrd
ode
ogg
oneof
openjpeg
orthology
osd
outname
padrao
palindrome
peewee
ppa
preferable
preparedrequest
programmer
prolongation
pybossa
pyfftw
qgrams
qpainter
qpoint
qty
recalled
recieve
refinement
requisites
reusable
rollout
sanitizer
searcher
segmentationimage
semaphore
sens
shebang
simbad
snmpdispatcher
sortable
spawning
srid
structprop
subarray
subpixels
symmetrical
tabix
tableexpr
tox
unqualified
userguide
uz
variate
vdi
whoosh
wid
windowsize
wordnet
workertype
x7
xff
zk
##adm
##behavior
##bel
##blob
##cli
##connectionerror
##copy
##delete
##ees
##ei
##ein
##enter
##envelope
##erviceclient
##gg
##gi
##hn
##ino
##ire
##lic
##lus
##many
##ncies
##onic
##packet
##plane
##progress
##references
##rop
##sm
##ssl
##uffix
##ume
##ush
##ves
##⋅r
103
108
1972
2500
293
30t16
320
370
503
9000
abstractdeviceadapter
accumulation
advised
agp
asts
asymptotic
autolab
axiom
backtracking
banned
basal
bcache
bcd
begun
benchmarks
bfill
binarytree
bitstrings
bmp
cadastrado
cardiac
chevron
chooser
clearsky
clusterer
coalesce
codex
collide
compresses
comprises
concerning
court
cow
cph
ctrlpts
cuilen
datastores
delimit
delphin
dewpoint
disassociate
discouraged
discoursedocumentgraph
docgraph
eeg
encodable
endfor
ensured
evidences
finger
freeenergy
geonames
geophysical
germany
ggplot
gmsh
goals
grapefruit
gv
hasattr
httpretty
icmpv6
idempotency
intention
interop
intervention
irrespective
isns
ivy
jack
jss
jumpkind
kr
labelling
leak
lenght
liquidacion
locates
locating
logu
maxlength
maxpoints
mfloat
minidom
mmap
mmi
modularity
monotonically
moon
mssql
mus
mutablemapping
namenode
nbd
nbestpeaks
negated
negation
nelder
nips
nix
nml
nonterminal
numina
numitermax
nvim
objectivebankid
opentracing
originated
outbox
outprefix
partir
paypal
pidstore
pillars
pks
plod
pooled
primes
privileged
procs
productspace
puppet
pybedtools
pyephem
pysb
qtmacs
quantitative
quarters
quotient
receivable
reconstructs
recreated
remind
renewal
seeing
sge
shaw
she
simstate
sinogram
smb
snmpengine
srt
ssm
t3
tapered
tbody
temps
thomas
tostring
trac
transitory
transports
tropo
typeid
unaltered
unbalanced
unparsed
usgs
waterlevel
waveset
wfn
wgts
workspaces
wrighttools
wva
yagocd
##500
##authentication
##bucket
##credential
##default
##dirs
##earchsession
##edge
##etic
##fx
##ham
##hot
##ich
##ight
##ignature
##inator
##jobs
##lace
##loss
##lu
##lude
##middleware
##mt
##ncy
##ney
##ove
##release
##resp
##scale
##sis
##upload
##x4
##ya
##ся
00000
012
0a
105
133
145
1x
acyclic
admm
advisor
aes256
aligning
alphabetic
animated
annualized
archivo
ats
attriubte
autominorversionupgrade
baselines
butterworth
bypasses
cinder
clearness
cloudsearch
clv
coherent
companion
composing
corenlp
counterclockwise
csf
cspf
dans
dap
deviance
dictlist
digitalocean
doapierror
doctree
dollars
drill
edge01
editions
eijnden
ekmmeters
elf
encipher
enterprisecustomer
enumerates
erg
errorindication
errorstatus
fedmsg
fftw
finders
flipping
formatkey
forums
fpkm
fulfillment
funcao
fwd
gapic
graphkeys
graphml
group1
gutenberg
hans
i0
in1
innermost
invited
iosequence
jerry
ji
jit
keepdims
king
klout
kth
lat2
ler
lgpo
lifting
line1
living
localpath
logically
lookahead
lyrics
mediation
modelform
mom
multinest
nanopub
ndb
ner
nj
notch
nuisance
numexpr
odict
openmath
outflow
pam
percussive
planetary
planning
pls
plunger
powerup
prettytable
principles
progression
prompting
province
pyamf
refseq
reopen
resembles
reshapes
sac
schedula
screenshots
seebeck
seismicity
semantically
serious
setups
shaded
shuffling
silhouette
skosprovider
sld
smoothly
spoken
stagpy
stanzas
stereonet
straightforward
subdirs
subshell
subst
substr
sugar
symmetrically
templated
theoretically
tikz
tmpfile
tomorrow
torrents
trajs
treeiter
tween
unabletoparsefile
unaffected
unittests
unmatched
unprocessed
unrelated
upsample
vanden
viable
viewbox
virial
voc
wan
warping
weir
whilst
wickert
wolfe
xa
yticks
возвращает
##128
##ables
##ann
##annotation
##atic
##audio
##c2
##children
##con
##d1
##era
##eta
##feed
##fmt
##fold
##ground
##ining
##ision
##iy
##keyerror
##lag
##lla
##lls
##merge
##ming
##monitor
##refs
##review
##scan
##slice
##t12
##t23
##ulator
##ules
##ures
##v4
##wt
##ytes
##시
1029
1x1
212
239
242
720
aesthetic
agol
alternately
analyser
annulus
anyconfig
apples
asn1value
assessmentpart
astronomical
attributed
aud
authenticationerror
b2handle
bamfile
baseinitializer
bmc
breakdown
bruce
bu
burnin
cand1
cand2
capillary
ccw
certainly
childs
chr2
clearly
clickable
cogent
comps
consulta
continuing
convolved
crate
cutoffs
dampening
datacenters
dataloader
datamodel
deduce
deploying
deregister
destructor
differentiation
dnf
downward
dpd
driving
eacute
eds
efron
encountering
flatmap
foreach
fptr
frameset
frametype
freeform
fvar
gcloud
gigabitethernet
gin
gmqldataset
gotten
gravatar
groupings
grows
gsim
h5file
hangul
hant
healthstate
him
hochberg
holm
hooked
hostedzone
hotp
imagename
imm
interim
intersectionclassification
iobase
iosystem
itemlist
junctions
kingdom
kui
lfilter
lid
limb
listdict
lpar
lsctables
malicious
maskedarray
mathematically
mercurial
milestones
mk
modjk
nas
nash
netcdftools
nextflow
noted
nproc
nxd
occurance
op2
oqparam
orf
osgeo
outputfile
package1
parallelized
paramater
parsestring
parties
physically
ploidy
postprocessing
postscript
pulp
pykechain
pytypes
qtreewidgetitem
qz
randomization
rc4
rddl2tf
reconfigure
reddening
regexobject
reverts
rmag
road
robin
rosetta
rpcs
rytov
sapm
school
sco
seeding
seq2
severe
shcoeffs
shelve
signifies
sino
sir
skipna
slight
smt
snt
soa
solute
sregistry
starttls
statistically
stdio
stringify
subcomponent
subdivided
subfunction
subname
subresource
tapering
tethne
textwrap
tfds
tlv
tok
tracebacks
treemodel
truly
tws
uncorrected
unexpectedly
unfinished
uniques
unk
unsupervised
vcpu
versionid
vpcconfig
vpcs
vtkactor
wallets
warren
wit
xiande
xl
##004
##after
##ans
##bound
##br
##catalog
##cert
##clause
##ctor
##ecs
##ering
##esc
##fasta
##fe
##hen
##home
##imal
##ises
##ivities
##kw
##limits
##matcher
##math
##modifier
##ndex
##nfo
##normal
##nte
##photo
##rame
##rint
##samples
##signal
##struct
##templates
##tile
##transport
##urface
##used
##x3
##zen
##ᆼ
0000000000000000
123456789
16384
210
2pi
aad
accesstoken
acessar
acoustic
ait
apical
appengine
arity
attendee
audits
ave
basics
ber
binarized
brian
cameras
cfgname
cgroups
chainable
cnv
cohp
columndatasource
communitydata
composes
computationally
ctenode
cwa
dangle
darker
deciding
deserializing
difficulty
donald
downgrade
earthquakes
ecliptic
economic
el6
ellipsoids
ensembles
environmenterror
eqdata
errata
establishes
featurizer
feh
floatingip
frees
fuel
geoid
gerar
gerrit
giphy
gobject
gradebookcolumn
granting
guideline
headline
hey
ical
imbalance
inefficiency
interceptor
interp1d
irm
isdir
iso9660
itemsize
keyjar
keypath
lasso
libsvm
lifelines
lilypond
lmn
logtype
mailto
markersize
maven
messageelement
mhz
miter
mmm
mocked
mod2
multiplex
mwtab
mydataset
mydb
myinstance
nullspace
odps
ont
operationtimeout
optics
pagetoken
parmed
parseresult
pianorolls
pmids
point1
point2
predecessors
predictors
pref
prone
protos
pyqt4
pythran
pyx
retourne
retrive
rope
rtmp
rvalue
schur
scoping
scripting
securitygroup
sensations
settlement
shunt
sk8
snappy
solaris
squeezed
ssid
stacklevel
stid
stobject
str1
stretching
subquery
subview
synopsis
taint
talking
taylor
tester
tle
tmlib
tones
toolchain
torus
tpt
traceroute
treewidth
treshold
trough
unifac
unroll
ur
ux
v2015
valence
vbox
visualproperty
vocabularies
vss
winrepo
xtick
##102
##3a
##abel
##align
##buf
##checker
##clustering
##connect
##das
##dt
##dtype
##egments
##exists
##gin
##graphy
##head
##here
##ices
##ignal
##inputs
##kernel
##l2
##lied
##logic
##long
##maker
##models
##most
##next
##parts
##pus
##registration
##ren
##tage
##tl
##tu
##usb
##vision
##yn
##zed
12345678
137
146
147
164
179
6th
abstracts
acgt
aide
aldb
analysisservice
appium
arnoldi
asdict
asserted
assure
atexit
attribution
automl
autonomous
awsclient
b58
backtest
basepath
beams
braf
bursting
capacities
cheap
choosen
clarity
clm
cmax
cmu
cognito
condensation
condon
conveniently
cps
crazy
curdir
dangling
datasetid
debugged
decent
dendrite
depended
destino
detrend
devs
dirint
disallowed
distributor
divisao
dml
dragging
dtime
easiest
electrical
enhancement
er7
erased
errcols
eventlog
examines
excessive
extraterrestrial
filed
filelike
firewalld
fractal
freshly
gathering
genbank
gffutils
handleexceptions
hankel
hashtag
headless
highway
holdout
htpasswd
hx
ida
ill
independence
index1
inducing
initials
introspect
iota
itr
jco
jp2
keyfunc
lambert
lcformatdir
lda
linker
listify
liu
liveform
loadtxt
locators
lossless
m0
markets
mathematics
metodo
miles
mkt
moderator
multitaper
mykey
nameerror
nargs
neighbouring
nodetype
noon
ogc
oom
opan
openmp
orthonormal
ovf
palantir
parrot
participation
pastml
periodbase
personalization
pimms
pluralize
pname
poorly
postprocessor
previews
prolate
propname
propose
prover
pyrrole
pyside
pyvmomi
qlist
qp
queueserver
rakes
rawtext
reassign
redefined
refactored
reliably
reqs
retorno
reverting
rewrites
rez
rowkey
s3transfer
sap
scopus
sfc
shim
spinmob
stabilization
stata
streamsx
subpixel
summarizing
swiftly
tenancy
thousand
timecols
tmuxp
toctree
touches
translit
trc
ubyte
udptransporttarget
unlocks
uuid4
vectorizer
venn3
vin
waittime
webelementwrapper
widgetobj
xfs
yscale
zonal
##66667
##ably
##active
##addresses
##ancy
##asset
##aw
##b0
##bt
##complete
##e6
##ecret
##een
##ely
##ett
##etting
##eys
##factors
##foo
##glyph
##groupname
##heta
##iable
##ibute
##iro
##light
##measure
##missing
##nel
##nm
##ome
##ose
##pairs
##partitions
##problem
##prompt
##publickey
##rator
##renderer
##requesterror
##required
##rgs
##route
##san
##tal
##tance
##tf
##tolerance
##typeid
##u0
##uer
##uncertainty
##worker
##ения
##⎥
0⎥
132
1506
175
434000
511
6379
a5
accesserror
adopted
advancing
anomalous
apache2
aptly
argumentgroup
attrname
bak
beds
beep
binance
bitmath
biz
blockstack
bpmndiagramgraph
brains
breadcrumbs
categoricals
cimclass
cmin
colnames
combinatorial
complextype
containg
contourf
cronjob
damage
das
datadotworld
dataitem
deap
dequeue
devip
dex
dfdatetime
dig
disconnecting
droplets
dummies
e5
eb
eemeter
empymod
endogenous
equivalently
everytime
evt
example2
exscript
f5
facecolor
familiarity
federated
fibonacci
finer
forking
foursquare
fpf
fxn
gaf
genres
geodatabase
georaster
gigabytes
gitignore
gitrepo
grabbed
gre
guests
hacky
hartnett
headway
hermite
holdings
homedir
hyperlink
id3v2
image2
indeces
ip4
iqr
justified
keysequence
kfac
kmer
ktensor
l4
lasts
lee
listings
loom
lowpkg
lsr
lut
meaningless
mike
minify
minmax
mkdtemp
mongoengine
motd
multihash
nbestperiods
nodal
northeast
ntrials
organizer
pagesize
paginating
pain
park
penaltymodel
pheno
pointplot
poling
positively
preloaded
psp
pymc3
pysimplevalidate
pytablereader
qref
rabbit
radec
rdap
rdchem
rebuilt
refraction
regenerated
relaxed
rk
ruler
ruptures
ryu
saturday
seawater
sensorgraph
slh
smbus
snapper
southeast
spandata
spdxvalueerror
specialize
spf
splunklib
spmatrix
ssc
standardization
steel
storagetype
str2
subsegment
subtypes
suppresses
surround
systemmetadata
tds
tees
teh
timecol
timeformat
toeplitz
tonicdns
troposphere
u3
unicodedecodeerror
unitless
unusable
upto
vboxerrorinvalidobjectstate
vf
vfs
viewset
workitems
xaxis
##ados
##apiexception
##assets
##binding
##city
##close
##compiler
##dx
##ense
##errors
##erse
##ever
##fr
##framework
##hy
##images
##ject
##lb
##lement
##members
##modes
##nal
##ook
##ost
##pages
##parent
##post
##queryset
##rant
##regressor
##rolearn
##roto
##ster
##stic
##timestamp
##urls
##variant
##video
##wait
##walker
##week
##win
##yr
##zy
161
169
1l
222
249
311
450
480
5432
5min
8e
accompanying
accomplished
allocating
ant
assessmentoffered
assetlist
aut
autoencoder
avail
barnes
barycenter
blackbody
boston
cancelling
china
chromagram
clamping
cleverhans
co2
colorscale
combiner
comid
concerns
cte
cu
cumsum
d65
decimation
delivers
denom
deposits
diacritics
discrepancy
discretelp
diseases
distributes
drone
dtm
dword
earnings
ecb
eliminated
emailmessage
epilog
equator
evolutionary
exhaustive
expressing
extraparams
f3
fileservice
filespec
flds
flex
fupper
g3
generative
gesture
getlogger
grandparent
groupy
harris
i386
illegalargumenterror
inclinations
inhibitory
inspire
intermediary
invertible
issubclass
jimage
jobgraph
kruskal
kwh
lake
listlist
lived
logico
magseries
mast
maya
metres
mindmap
modelid
multifile
mxn
mygroup
myself
nation
newname
nomadproject
normalizer
nparray
nspawn
odds
operationfailure
optinal
orca
outage
outlines
outputting
package2
paris
partitionkey
passband
peformed
pipers
planck
pngs
preamble
pressing
prototxt
pserc
ptad
ptrie
pu
pyhsm
raspberry
recognizes
redendering
resamples
resend
reviewers
riemann
rip
sanitizes
sciences
scss
simulating
spd
sra
stackscript
standardised
stickers
strictredis
submitter
subversion
synchronizes
syntactically
tablereference
taxonomic
tcex
telescope
tentative
testcleanup
texsoup
tfile
tops
tsk
twist
unchecked
underflow
updateelementfailed
urwid
usefull
uvw
uw
vbm
voigt
walltime
webview
whitening
wikicode
wily
windowing
wrote
xdoctest
xval
회원
##800
##ach
##aper
##cube
##drive
##elta
##enc
##erence
##frac
##hierarchysession
##ically
##ication
##ifed
##ilde
##itor
##iz
##jd
##lite
##lux
##pars
##pecification
##pose
##prep
##rb
##requests
##seconds
##serviceclient
##t11
##tablewriter
##tamp
##ticks
##tim
##ubscription
##und
##upgrade
##upport
##username
##utation
##walk
##wd
##ws
0900
115
1600
184
30s
359
502
abcde
absolutely
accum
adjustable
annualization
apidoc
ashrae
asyncpg
attendees
australia
awaited
backupretentionperiod
bdry
beanstalk
begining
benzene
bgcolor
bicubic
birthday
bisection
blackman
bnode
bother
bowa
bracketing
branch1
browsing
bucketing
bufsize
california
capitalization
capped
cartocontext
chop
chromium
coercion
collaborators
complain
conduct
conical
cons
counterparts
crime
crossmatch
dad
dbsubnetgroupname
deepest
designs
disaggregation
discovering
distant
dlogl
dpart
dpss
edns
education
einstein
elev
eloquent
empyrical
encapsulate
errcol
eur
excepthook
fieldsets
filler
fluss
fmu
fontsizes
footnote
freebsd
fsnative
funcion
gluon
goto
granular
gx
hellman
horse
howto
hydrocarbons
hyperbolic
hypothetical
ibstring
idiosyncrasies
idx2
illustrates
inflation
ingested
isoformat
journals
jsmith
kdf
kvlayer
leases
leftover
level1
libref
liste
lite
localspace
lon2
luminance
mahalanobis
map2k1
marcxml
materialized
metar
mice
mocks
modeladmin
mood
msft
mutating
myimage
mylist
mypackage
namecheap
nanosecond
neo4j
netid
nfreq
nhwc
nps
numer
obeys
originates
outward
oxygen
paga
panes
paren
partials
participantinstance
pelican
penn
percolator
periodindex
perturbed
pim
pnl
poster
ppc
prerequisites
programerror
prolongator
proteinabundance
purviews
pydot
pygbif
pysal
qm
rain
rels
remembered
repeatable
representer
retruns
rvs
sankey
sbi
scattered
schemata
seeder
seeking
sif
sne
southern
spatially
spdx
srgb
staticmethod
stoichiometry
stretched
stronger
strongoldnorseverb
subcategories
subsequences
sumo
swiftclient
symfit
taskfile
tectonic
textarea
thereafter
timesheet
timings
tshark
ttrajs
tts
uefi
uninstalled
unsatisfiable
vacuum
varchar
virtualchain
visualizations
vtype
wang
wbresponse
wigner
wings
x6
xep
xmm
yaxis
zc
──
##2array
##ari
##arns
##aster
##bing
##boot
##cer
##configs
##corpus
##del
##dn
##ear
##ening
##fitter
##ford
##gm
##gn
##igma
##indexer
##mation
##mem
##messages
##nation
##nds
##nge
##olver
##paths
##permission
##ption
##rable
##random
##roles
##servererror
##tests
##txt
##ude
##uit
##ulating
##ured
##utc
##xn
##zero
##я
12000
144
148
189
206
adgroup
adiabatic
affiliations
altogether
amqpconnectionerror
amsl
ancestry
ang
aniso
apifailure
approximates
armed
assemblies
asymmetry
autograd
avr
awaiting
backprop
badconfigobject
bail
banco
basenomadexception
bdf
bending
bika
binaryreader
borrowing
capybara
certified
chemcoord
clazz
codebook
codemirror
codestream
colinear
collapses
complex64
connectionpool
continuity
coreference
coroutinefunction
corrects
cosmos
crossed
cufflinks
dataarrays
databricks
dataiter
datamat
datetimelike
dbapi2
dec1
dia
diffed
differencing
differentiated
distortions
documenting
eagerly
edna
elekta
eliot
elongation
empties
enlarge
epic
exclusions
explains
filelink
finalizes
fortygigabitethernet
fstab
funcoessat
functionname
furthest
gam
gamma0
geocentric
geomagnetic
george
getmore
ghost
gluster
guids
guinier
gy
hawk
historics
hsm
imagine
inaccurate
informed
insensitively
instrumental
interactivebrokers
introns
irimage
jj
jms
jsonapi
juniper
keyvalue
kilometers
lat0
limiter
lis
logins
mails
marching
maxweight
mgtkey
minlength
minval
mmd
modality
modulespec
nds
networkfailure
networkwatchersoperations
noreply
npix
numap
nws
occ
onlyif
openstreetmap
orderby
otus
overrided
pageelement
panda
parametres
peltak
periodical
phoneme
phosphorylation
photlam
picker
pileup
pings
piping
polylines
poof
precursor
prefactor
presmoother
printf
probing
prolog
pvlan
pygsp
qjoints
qtm
quadrant
querysets
qval
reality
rebound
recycle
redownload
refactoring
reraised
resolvable
rewind
sata
scatterplot
scrollbar
selectively
sem
semilogy
sensory
seps
shtools
sighash
singletons
skydir
snpeff
snvs
som
sparsevector
spherepy
stopwords
stringtype
struct1
subnetid
subsampled
summarizes
summer
switcheo
tarinfo
teal
tensorlayer
tess
tg001
tg001a
tms
toggled
toolkits
toolset
trailer
tram
transfered
transits
trapezoid
treeitem
unacknowledged
uncaught
unpublished
ups
varbind
vessel
vpcsecuritygroupids
watertight
weakref
wich
wms
wn
workflowconfigparser
wtf
x0b
xtc
xxxxy
ytick
zonefiles
zonetype
처리결과
##103
##2010
##8000
##999
##ality
##analyzer
##atrix
##axes
##bias
##clienterror
##contents
##declaration
##deriv
##eet
##elements
##ene
##exec
##extend
##fac
##ho
##ifying
##ively
##izar
##lane
##locator
##master
##mes
##mn
##nate
##owner
##padding
##patch
##quality
##ransform
##ret
##rofile
##rth
##ruct
##sec
##side
##tabs
##tain
##tra
##ued
##wap
##ye
##ðr
##ка
##ᅦ
##ᅵ
045
100185
10th
165
174
2822
2j
390
3m
4200
4a
6000
978
a95
accesspolicy
actuation
aim
albersequalarea
allowance
amf
amsaddr
androguard
animations
anneal
appauthor
appl
arpack
atype
autogen
backlog
backspace
backtrack
baidu
bartlett
base32
bioinformatics
blanket
blastn
blogs
bookkeeping
boxed
brownian
bundling
bursty
buyer
capitainsctspassage
colums
commonsense
conditioning
configspec
consecutively
converges
cryptographically
csd
csrndarray
ctor
cudnn
daemonize
dateint
decremented
demag
dev1
dipoles
dusty
eap
elementnotfound
emacs
enforcing
enroll
eod
equipments
errorresult
estimations
evict
experiences
exptime
faa
father
filetime
filterquery
frontmatter
frr
fullscreen
gandi
gateways
gelf
getcwd
gpflow
graphistry
hba
het
hl7
hms
holderprover
hsp
illustrate
image1
img1
indico
inlined
input2
intervalset
introduces
inverts
ions
isobaric
kbps
kilobytes
kit
laid
learners
levenberg
llc
lsqfit
mailing
mdrun
membrane
moleculegraph
moma
morning
multiplexer
mutator
nddata
newrelic
nodeids
nrm
nsigma
nucleus
okcupyd
openfisca
oper
optiongroupname
orderings
orthographic
osquery
ott
outcar
parallels
passwordless
pathogen
peter
pickup
placements
plant
plos
pmap
pmc
pmt
poes
polish
popularity
pres
procname
quest
quicker
quietly
ra1
rapiddataset
rated
rearrange
recommends
recursing
recver
refused
remotepath
reshaping
retuns
revokes
rohsenow
run1
safari
scrub
seasonalann
secant
separable
sequencevariant
settable
sextractor
sfile
sha2
shipped
shortley
signify
simulants
sleeps
snip
snmplabs
snrdb
sourcetype
splash
sqla
ssecustomeralgorithm
styled
sub0
subelements
subtasks
synth
tally
ternary
textit
therm
thousands
threadtype
told
transliteration
trouble
tuesday
txtorcon
uh
unclaimed
uncommitted
unflatten
upgrading
vdp
venn2
virus
wechat
weren
winter
wipe
wo
word1
xout
xterm
zier
zombie
zscore
##000000
##0101
##012
##2b
##ants
##ark
##arse
##async
##community
##csv
##definitions
##dp
##eerror
##effect
##ender
##esh
##eter
##etric
##float
##fragment
##git
##hard
##hart
##holder
##inal
##invalid
##ited
##ivo
##lang
##lex
##marker
##mic
##mine
##mu
##olar
##optimizer
##ote
##ou
##par
##pdf
##pecs
##pipeline
##player
##potential
##ran
##registered
##resources
##t09
##tors
##tric
##uts
##webhookconfiguration
##weights
##wing
##yer
##ypes
##zip
0xffff
101325
118
193
209
22t10
2m
308
389
5678
5m
725
7d
9a
abscissa
acks
acm
acorn
actionconfig
activating
aims
ams
analogy
anatomical
anchore
aov
arg0
assist
atleast
atrm
bean
bert
binsize
biosample
blastfile
bloom
booted
brush
bse
buildbot
buildconfiguration
century
certvalidator
cfgjob
cftimeindex
chron
cik
cliente
clouderror
cmdln
coalesced
coco
codebase
colr
columnname
committee
comparisonoperator
conductance
conns
conservation
convergent
convolutions
corp
covalent
curse
daf
datetimerange
dbinstanceclass
dbsnp
dealt
defualt
destroying
destruction
dropdown
drum
economy
editex
emd
emojis
encompass
epsilonp
equities
erf
errored
este
exchanged
explicitely
extensible
extensive
f000
faults
firstly
flower
fns
fonction
formato
framerate
func1
func2
funtion
gadgets
geostruct
glat
gmod
gns3
gos
graphcollection
grass
gridspec
gsea
gunicorn
hbar
heterozygosity
hexstr
highpass
hpx
httpadapter
httpresponseerror
huisnummer
hydroshare
inconsistencies
internalerror
invariants
ipv4address
isi
isoform
khz
ki
kinetics
krylov
kser
lk
llake
lon0
loses
mah
mappable
mappyfile
matthews
maximization
messagetype
metaphone
micros
miliseconds
minoccurs
modattr
moduletype
moran
msh
msmtools
msun
mutant
n0
negatively
nemo
nnew
normalformgame
nrml
nworkers
nx2
obey
openpyxl
orfs
packer
paleo
pasted
physiobank
police
polyhedron
port1
precedes
preconditioner
prefs
prio
prn
protocolerror
psamm
purchased
pvals
pypy
qiniu
qtl
qualities
raiden
rationale
raxml
rayleigh
reactionner
realized
receipts
rectgrid
redditor
referents
regulargrid
reinforce
rewriting
rhel
rowid
sailthru
scaler
schedulers
schemaerror
securitycenter
sedimentation
seismic
sendable
signaling
siicontainer
slurm
solidity
soundfile
sparser
spheroidal
splitext
ste
swallow
tac
tbd
teamcontext
tempogram
termdocmatrix
testset
thermodynamics
thinning
thrust
tickerid
timeinterval
tomo
tomodir
torchnlp
traveled
triplestore
tspan
tu
twiml
txns
u0
uint160
uint256
umn
unaligned
unconditional
unencoded
upcast
upsampling
upserted
urandom
vec2
vera
versionable
violate
voltages
vsctl
wa
wanting
wechatclient
wolfram
xmlschema
xsdwriter
yelp
ypoints
zappa
zmin
zobjects
##0001
##111
##9a
##actionsinstance
##aj
##alignments
##allowed
##ando
##ape
##assembly
##books
##bundle
##c3
##chisq
##clip
##cn
##css
##cycle
##e5
##ending
##ends
##f0
##ffffff
##fies
##fir
##fits
##formaterror
##gap
##gene
##help
##hl
##hr
##iant
##iating
##ional
##ius
##ken
##kill
##language
##lateral
##lint
##los
##ntly
##oding
##ola
##onds
##oord
##ources
##outs
##pca
##pect
##permissioninstance
##policies
##pub
##q1
##rap
##ris
##ros
##rypt
##sc
##sdk
##speed
##sq
##station
##tein
##tis
##trategy
##uare
##uent
##vectors
##vl
##vo
##workflow
##zz
##정보
1234z
162
181
264
299
2x3
315
384
4f
60000
7e
875
abandoned
abcdefg
abstractnode
accents
adapts
admin1
affinities
agrees
agrega
altering
anchorhub
anim
annoying
applyimmediately
argb
argstring
arraylike
ary
astr
bandicoot
baselib
bass
baud
billy
bitwidth
bmi
boroughs
bradley
bullet
bye
cada
cdate
certify
cfn
charfield
charms
checkmodulations
cimc
ckeditor
cleartext
clip3
cnvkit
col3
conduit
contextdata
coordinated
cor
correcting
countrycode
crps
d8
daniel
datacats
datalist
deactivates
decimate
decomposes
decorations
defaultvalue
deform
deploys
deriving
destdir
devvoid
diffuser
direc
discounted
dive
dockermod
domainname
dpm
driven
dxfile
ecell4
eflags
employ
employees
errorbar
eventloop
excitatory
expander
expressionattributenames
faithful
five9
folium
friday
frustum
fts
fused
gecko
genera
gifs
gists
gradesystem
graphdef
guestfs
guilds
hager
hair
halted
hds
hear
heartbeats
hess
heterozygous
hexagons
hiding
hstream
htilde
ib
icalendar
icinga2
iden
idiom
impactreport
impose
imputation
incorporating
induce
infeasible
informacion
initialises
inputhook
insolation
instagram
interference
intrinsics
intuitive
invalidates
iodp
ipaddr
ipfsapi
ipopo
irreversible
islands
issuecomment
issuers
ist
itunes
joblib
johnson
jumped
keyvault
knapsack
kws
lagrange
lama
latching
latools
leaks
learnable
lewis
libc
lifespan
liked
localfile
localtime
logbook
longrunning
longtensor
m8
mangle
marginals
masteruserpassword
maxx
mcp3008
mechanics
menuitem
mep
metricname
mimetypes
mirroring
mmcif
monero
moreover
mpia
name3
naxis1
nbr
neu
newpath
nexson
nni
notably
noting
ntree
numpartitions
obfuscate
odf
ohms
oidc
oil
opcao
opensignals
opereto
orderable
osa
overflowerror
pacific
participate
partly
patients
pcre
pdbe
permissible
perturb
pha
phones
planets
podcast
porter
predictable
premis
privateipaddress
promises
prs
pyarrow
qpi
quadtree
rdds
recovers
redshifts
refrigerant
regards
rejester
relationshiplist
remapping
remoteci
resourcerecordset
rolearn
runbook
sandia
satoshi
sciobj
seasons
segid
segwit
semitone
seperator
seqres
sera
serialise
showed
shrinkage
sleeping
soc
somefile
sourcemap
sprockets
stitch
stix
streamlet
string1
subgacc
subscripts
successes
tableaux
tabwidget
targetname
tas
taskmanager
taxonkey
taylorf2
tdl
textbf
timedeltaindex
times10
toarray
topn
tradeoff
translatable
trapping
triad
trilegal
tstoretest
ttf
ttree
typevar
u8
ucd
ungrouped
unhashable
unhealthy
unitcell
universally
untl
urlnotfoundnomadexception
urlsafe
usermacro
v20
v2beta1
vcfs
vectorize
verifications
violates
viridis
volumetype
wealth
wgs
whitepoint
wireframe
wkid
word2
x12
xscale
yc
zmat
zooming
##1a
##8c
##ags
##ampler
##ani
##beat
##blocks
##conditions
##delta
##erm
##escriptor
##essage
##ete
##eted
##evel
##ght
##gon
##gos
##ido
##indexes
##ini
##kaku
##keyname
##lay
##mismatch
##napshot
##nput
##nx
##obs
##ocation
##onfiguration
##ora
##pg
##ppy
##products
##ream
##regex
##s1
##sat
##try
##uation
##uous
##utes
##wiki
##wizard
##xist
##yl
0002
000z
190
1982
1moptions
215
245
24h
261
3n
405
44100
840
abstraction
academic
acquiring
acronym
advertisement
advisable
adwords
africa
amax
ambrose
amperes
amplifier
amsterdam
andrew
androiddevice
antennas
apiconnectionerror
as2
asg
autogenerated
autoreload
award
b4
b5
backenderror
badrequest
banded
becoming
bee
bench
bernstein
biosppy
block1
boiler
booking
bossresource
bps
buildroot
ceiling
celldataframe
certfile
cgmlst
chap
chebi
chempot
choi
choked
cis
clever
cloudtrail
complies
crabpy
curation
cygwin
decodeerror
deprecationwarning
detailing
developing
director
discretize
diverging
divider
dmenu
dsm
ecmwf
elasticluster
elm
enclaves
enqueues
ete3
executemany
expressroutecrossconnectionpeeringsoperations
fabsetup
fair
farthest
feff
filesys
fixations
folia
framed
fsaverage
funciton
gcd
geocodertimedout
geometrical
geopoint
glacier
gpy
groupids
helices
hpd
hrus
htk
http404
hudson
hvac
hwhm
hypersearch
identicon
idrac
igrf
imedium
implications
improving
indice
induces
infinitely
inflated
influences
inforom
inital
injectable
integrityerror
interceptors
interfere
invading
ioctl
irods
joints
jun
justify
k4
keyset
kik
kimchy
kinship
knittingpattern
kron
largely
ldap3
leastsq
lfs
lightness
linguistic
linke
loudness
manipulating
mappers
markovmodel
matchobject
mathjax
maxsat
mediafire
mesos
metafile
metpy
mf
mfe
mgi
middlewares
minsize
miranda
mistakes
mme
modelname
modopt
mule
multigraph
multimap
mynet
nats
nbestlspvals
neccessary
negates
nfw
node3
nonzeros
notifier
npred
oauth2session
observational
occasionally
openbsd
opinion
opponent
ordereddicts
p4p
package3
paddings
pageid
paleodata
paleomagnetic
parsimonious
pda
pecan
permuted
pfp
phred
pook
porosity
pos1
posargs
postorder
prescribed
printout
psnr
pt1
ptb
pygenclean
qstring
querycompiler
querydict
radian
ramon
ratelimit
rawdata
rcsb
rects
referral
refuse
replayed
restricting
retina
revoking
rforce
richard
rolename
rootfs
rootpy
russian
s3utils
sceneid
sect
setlang
sha224
sift4
sio
skin
skplt
skyfield
sons
sorter
sourced
spin1z
spin2z
spreadsheets
sqlcontext
start1
stepper
sting
stoichiometric
stonith
storable
substrate
subtokens
sunos
supergroups
superior
synteny
tagvalue
teff
temple
textnormal
tfvc
tibshirani
tilted
timesince
toks
trustee
tupple
turbidity
uci
unbuffered
uncertain
uncomment
unknowns
unpackexception
unpaired
unreleased
unserialize
utcoffset
vargs
vb
vboxerrorobjectnotfound
vmag
volt
vrt
warped
watchlist
wheter
wi
wil
willing
winds
wirevectors
wr
yn
yp
zap
zinc
zzz
팝빌
##101
##2k
##345
##735
##activation
##aid
##ake
##alpha
##arget
##arguments
##arm
##assignmentsession
##availabilityzone
##calc
##chunk
##click
##colors
##commands
##cor
##d3
##delay
##dialog
##dictionary
##eader
##econd
##ectory
##elt
##fail
##fast
##fg
##filled
##gw
##hello
##house
##ike
##iso
##kp
##last
##new
##nks
##ographic
##olor
##onal
##onse
##osh
##pectrum
##pf
##plex
##qp
##quant
##ras
##redirect
##rio
##roll
##sample
##select
##self
##share
##sv
##tatic
##temp
##tly
##topic
##uns
##usr
##val1
##ven
##vr
##wa
##x1
##xy
0017
109
1337
167
178
1975
1q
1x2
30m
3x
70710678
8am
9am
ac1
addressing
admonition
adw
allocatedstorage
amin
apparently
applicant
arglist
assessmentsection
assignees
assistants
availabilityzones
balls
baton
bds
beamline
became
bestfit
bfloat16
bibliography
bif
bijector
billed
bipole
blosc
bower
brd
bufferedtile
c5
cacheable
caltrack
cdx
checkresult
cheetah
chemlab
cherrypy
choropleth
claripy
colocation
colspan
comms
companies
composites
connectivities
contacted
coursier
cplat
crispy
ctm
cup
currentdir
cve
dbt
deduplicate
deduplication
deprecate
descendent
dihedrals
dilated
disassembly
dismax
dmax
dmin
dockerflow
docsetid
docsettarget
downwards
dussurget
dvq
eci
einsum
eliminating
end1
endless
epdsmooth
escalations
eventhandler
expiring
exploring
fackler
factorset
featuredb
fff
fichier
filedescriptor
filehandler
fillna
filterable
fout
geis
geodata
geography
getargspec
getupdates
glsl
golay
graftm
gridsize
gtanalysis
gyroscope
hal
haplotypearray
hdl
highcharts
honor
hope
hostid
httpconnection
httpmethod
huber
ibmseti
icao
ideas
imageattach
imagej
inchi
incorporates
industry
informado
initialiser
intake
integertype
interacts
invitations
iplist
itemgetter
iupac
jt
keyerr
keytab
kib
landscape
latlon
launchpad
lavalink
layer2
lcfile
lcl
leaders
logw
lol
lx
mach
maxobjectcount
maxrecords
maxtimeout
mesa
metadatos
mgf
mgt
mhci
microcanonical
minx
mkstemp
mobility
modelchain
modis
mounting
mut
nexttoken
nframes
notices
num2
numeration
oaep
oasis
odbc
odeint
onwards
openjp2
opentype
operationalerror
optlang
oranges
orchestrate
outlook
overallrc
overflows
paho
parametrization
paramname
periodograms
pink
pmll
pocket
pocoo
pois
polledtimeout
portage
powerflow
preconditioned
preferring
prefixing
preprocessors
probas
propagating
protofeed
psds
pso
pycon
pyctd
quads
queuing
quiz
qv
rat
raylet
rbac
rbox
rdclass
recordlinkage
redefine
refit
reformatted
refpkg
regulatory
relativedelta
renewed
representatives
resolwe
responsebot
restclients
riakbucket
safer
saml2
samplers
sarrays
scala
scandir
scanline
scrolled
sec14
segmentlists
setters
sherlock
shz
sieve
slippage
spectator
ssh2
stepping
struct2
stubs
subelement
subsections
supernova
supp
swp
tableservice
tag1
talkback
tariff
taskwarrior
thermofluid
tnc
topologically
toroidal
trapezoidal
treasury
triggerinstance
twomass
unblock
undesirable
unicorn
unidown
uninstalls
unite
unreliable
valuetype
varphi
vcap
vex
vnc
warned
western
wishlist
wonambi
wood
worlds
wref
xpoints
xxxxxx
yerr
zoomed
##1111
##9d
##9f
##abs
##ama
##anager
##baz
##bles
##branch
##cheduler
##cies
##cker
##closed
##contextinstance
##cos
##current
##delegate
##dk
##earchresult
##econds
##eds
##exceptions
##existserror
##fffffff
##fication
##has
##hierarchydesignsession
##ides
##ieve
##inant
##interfaceid
##interpreted
##iple
##iting
##itions
##ito
##labs
##las
##leaf1
##mult
##nl
##o2
##oa
##oded
##oes
##ond
##online
##priority
##quad
##rack
##rder
##replace
##requirement
##rgb
##sd
##socket
##stein
##structure
##ubject
##ved
##wg
##wn
##years
##yz
##°c
##ᅮ
00001
0°c
1023
134
143
1950
1988
219
235
236
253
326
3h
422
550
567
623
640
8859
999999
ac2
adaptor
adobe
afterward
agb
aileron
apiresponse
appprofile
aqueous
asdf
assessing
attlist
augmenting
authoritative
authorizer
autosave
betfair
bigram
bloomberg
brier
busybox
c965f79c4f864eaaa9c3b41904e67082
cab
calibrator
canceling
canonicaldistribution
casrns
cdh
cffi
challenges
channelpack
charles
cifar10
ckpt
classed
cnfine
codecoptions
codepoint
codepoints
colalign
commercial
constantly
constitute
consumedcapacity
contrary
crra
d2r
damp
datamanager
dbinstanceidentifier
dbref
dbsession
dec2
deleteontermination
deviate
died
dim1
dla
drawable
dstore
dynaconf
e6
eat
elapse
eliminates
elsevier
emperical
emphasis
ems
enableiamdatabaseauthentication
endp
equidistant
equivalencies
erasemethod
erasures
eric
errorhandler
ese
evm
expansibility
fallbacks
fernet
fierz
flaky
flashing
flightdata
floc
fmap
formsets
frictional
frmt
fsentry
fulfilling
functiontype
gaussiandistribution
gecos
gelman
geodesy
glorot
gn
grand
grantee
graphlet
gridding0
hb
headlines
helloworld
hippo
hmet
hostport
houses
hubs
humid
hyperplane
ifconfig
improperlyconfigured
incar
ind1
inet6
inferior
ingredients
int64index
interactivebase
invalidfield
ip6
ipset
iso3
jdk
jsonpatch
kcal
kk
knee
knotvector
lastly
lastmodified
leafs
legends
lfp
ligands
lighting
linearspaceelement
linkoftrust
literally
lo0
longitudinal
lsa
luce
magnet
maj
mangled
marquardt
mbed
medians
metainfo
metastable
methcoro
mhcii
moisture
mor
mpr
msr
munin
mydict
myhost
mymachine
mypassword
mytopic
nbest
needorder
ness
normpath
nphasebins
nugget
octaves
offerings
oob
opc
openmm
optimistic
orderid
ore
orifices
originals
originator
overplot
overtone
p00001
parametername
parseexception
patt
pcan
permalink
pexdoc
pgn
pkgname
placemark
plm
pmagpy
pnas
pneumatic
port2
posteriors
potcar
precipitable
preferredbackupwindow
prepick
presigned
projectid
psql
psu
ptp
publishers
punct
pycoin
qlabel
quirks
rackspace
ramdisk
ras
reception
rectified
reducers
regexps
registeredprofile
releasetype
renaud
requeue
reseller
respostasat
rfft
rhop
rnd
rnns
rsassa
rtl
satisfiable
sbin
sc1
scci
se2
semester
sensation
sequencemanager
serviceid
set2
severities
shadowed
signaturerequest
simpletr64
simprocedure
sinusoid
snaps
spatialreference
specificed
spurious
sshclient
start0
startp
statentry
stc
stds
stokes
sublists
subpackage
subpackages
subreddits
substances
succesful
suites
supplemental
swob
tablespace
tesseract
test3
textid
tissue
tlist
tmserver
touchworksmagicconstants
transitfeed
transmits
trits
trunc
tsonopoulos
txin
u4eba
uncovered
uno
unpickle
unpickled
unsets
usageoperations
v1arch
vcpus
verse
vescalc
vips
vlrs
vmss
vtu
waiter
weakly
webbrowser
xgb
xnode
xpaths
yamcs
yx
zika
zoneinfo
zops
zotero
##1234
##2000
##2015
##2py
##667
##a2
##abilities
##add
##ale
##ames
##ample
##aperture
##aram
##ault
##basis
##bg
##bj
##changes
##cheme
##coeffs
##consumer
##coords
##cr
##cts
##cular
##ddress
##decoder
##e1
##eded
##epoch
##eport
##fer
##fieldname
##fly
##gt
##hu
##ields
##ifiable
##impl
##inc
##ionary
##ired
##khz
##lan
##lating
##leaf2
##lining
##lip
##lons
##luster
##matches
##mit
##mq
##nam
##nameerror
##nik
##nos
##notes
##null
##oft
##ogy
##olution
##parametergroupname
##payment
##pen
##pop
##props
##remoterelease
##rier
##rx
##segment
##selection
##shell
##snapshot
##tail
##transformer
##trigger
##trip
##ula
##ument
##unction
##verse
##vin
##witch
##yntaxerror
##yre
##zar
##zoom
##ðinn
##ает
##к
##ки
##н
##ь
00000000e
024
1123
139
141
156
1800
185
1973
1978
1ab
1e3
1e9
22050
227
241
244
330
366
431
4567
4818
647
777
8760x1
aabb
actuator
agenttype
aggr
altimetry
amqpchannelerror
announced
announcements
antialiased
apireference
apiv2
applicationname
armr
ascent
astro
ativada
aversion
b8
bakery
bandstructure
baseparser
bcrypt
began
bidslayout
bifurcation
binlog
bisect
bitvec
bravado
brings
bts
bytestream
cage
calcul
calculators
catalogues
categorize
cccsum
cclib
ccu
cdrom
chainoftrust
chatroom
checkplots
chessboard
chunker
ciscoconfparse
clamp
classfile
clientjobsdao
codepipeline
collinear
comprise
compulsory
concentrated
configloader
consonants
constantine
contamination
cooldown
cough
crab
crashed
cson
csvs
datafeed
datafs
date1
datefmt
datetimevalues
dav
dayofyear
dbclusteridentifier
debit
deconvolution
defaut
defense
deregisters
designating
dialects
discoverable
dism
dlf
dname
doubt
dylib
dyn
eighth
ekf
ensemblesampler
entitlements
enviroment
enzyme
equipamentonaoexisteerror
equipamentos
eups
evalue
excl
existance
expr2
extractors
extrapolated
factorize
fam
fever
fileitem
finalidade
fishbase
fluorine
fn1
forecasted
forecasting
formally
fringe
fro
funct
functionals
gator
gffile
ghostscript
gml
goea
grabbing
graining
guided
header1
hg19
historic
hn
hom
hood
hops
hyperparametertuner
illumina
im1
ind2
indenting
infrared
instancename
interpreters
invest
ironic
irreducible
joyent
keygen
keysym
kf
khayyam
kiloparsecs
labellist
latitudinal
lean
level2
levinson
lexicographic
lfn
line2
linearspace
lmm
loans
logpdf
loosely
lpc
lsf
macaddress
macdev
mainloop
mergepatch
midpoints
mint
mismatched
mmol
monomial
mountpoints
mph
multireddit
mxit
mysqldb
namedstruct
nbl
ndrive
neighborhoods
nftables
nlive
nmf
nnn
nnz
nonspeech
nowait
nrow
nyawc
obslist
onyx
optimised
option1
orderlineitem
otsu
ought
p4
pageviews
pal
parametro
partitioner
partname
pbar
pcca
pgpkey
postpone
preprocesses
primers
propensity
prunes
ps1
puppetdb
pyads
pymbar
pyopenssl
pyserial
qapplication
qicon
qrect
qtmacsapplet
quark
queueing
r17v42t4pk
rapidly
realpath
reassembly
referrer
reflectance
regarded
rendition
reordering
replicaset
reqid
responsecard
retweet
rhos
rmsprop
rossi
rowcount
rpcendpoint
rpt
runcontrol
sbo
scraping
selective
sendgrid
sensorimotor
set1
shakemap
sidereal
signifying
signum
simplygithub
skiprows
slicer
smoothie
snapshotid
spades
spare
sparsearray
sparsify
stabilized
steamid
stomp
strategicmergepatch
streets
suit
symb
sysdescr
tarjan
tasmin
tdo
texto
thi
timerit
tmpl
tomographic
trailers
transpile
truepath
tunnels
uaa
ubridge
ultimate
unacceptable
undoc
unseen
unspents
unzips
updaterecord
utilizing
vari
vast
vers
vertex1
vhd
visualizes
vsys
wavefront
web1
weekend
wip
x03
xpos
zeq
zmatrix
확인
##amples
##bars
##bunch
##calendar
##calls
##cam
##configurations
##connections
##coordinates
##direction
##disk
##dns
##doesnotexist
##dom
##e7
##eff
##embedding
##ension
##entitlement
##environments
##erent
##ese
##etch
##failederror
##fully
##getter
##gl
##gp
##groupid
##guard
##hift
##high
##hp
##icts
##ifies
##imes
##img
##inct
##indices
##infos
##just
##learning
##left
##llo
##mc
##mente
##mers
##mix
##month
##nto
##ollection
##onst
##ota
##pay
##pkl
##ports
##predictor
##privatekey
##push
##qc
##qual
##r2
##rat
##rates
##remotedischarge
##requesthandler
##revision
##rst
##scene
##sible
##sort
##stone
##tablefileloader
##tatement
##tatisticsinstance
##tie
##tos
##trans
##true
##tte
##tuples
##uating
##ube
##uc
##ulus
##ump
##urate
##uuid
##we
##written
##xi
008
0100
10000000
10m
1126
117
157
1607
1905
1c
1e4
208
223
280
2fa
3339
525
615
65536
667
754
aces
addressable
aesthetics
afile
agentml
aides
aio
alex
aml
apiquery
apns
armor
audiomate
augments
autoclass
baremetal
baseclass
benchbuild
bib
binarywriter
blade
bowtie
bracketed
breach
breaker
brick
brozzler
bundleexception
cacert
cambridge
cartogram
cbm
cbs
challonge
clade
clan
closeness
cmake
cmd2
cnst
collateral
collective
committors
complemented
conceptually
considerations
continous
continuousfactor
correspondingly
crowd
csi
cuboid
cxn
cyrillic
danger
dangles
dataqualitydict
dbal
dbpath
dcc
decompresses
defintion
delegation
demote
den
depot
dereferenced
designates
detaches
developerguide
devicecloud
diaspora
dicoms
dictated
din
disruption
distribuciones
distributing
dolby
drafts
dsub
eagle
ebi
ebsoptimized
echoed
effector
emp
enclose
enforcement
enode
eth1
eve
exempt
expense
expnum
expressionattributevalues
fbp
feats
fftlength
fixref
flac
flange
fom
foo2
footnotes
frm
frontiers
gdp
geovector
getpass
grch37
grown
grub
gti
hail
hashers
hashtags
heavier
holders
hotel
ica
identifer
ifname
ijheatmasstransfer
inferences
influxdb08
inputdata
inspiration
investigated
ipastring
isfc
iteritems
iw
jbossadm
jsonify
justification
jvms
ko
kubeconfig
kusto
latched
liftover
linearity
liststore
llvm
logspace
lomb
lookupmib
m3u8
macaroons
magiccdata
magnesium
magnetization
maildir
manga
mantissa
mapobject
markable
marketorder
maximizing
mchirp
mems
meridian
mfpt
mined
modulations
moore
mrl
multithermmodel
nack
naively
nautilus
nbar
negligible
netcdfvariabledeep
netstat
neumann
neutronng
newvalue
nine
nlmp
nobody
noiselevel
nombre
normality
nstar
nuc
nvarchar
onerror
operatorsymbol
orthonormalized
p2sh
param3
parsemode
paying
pdag
pepper
phonemes
phot
photocurrent
piano
pii
pinv
pixy
pkcs12
playground
pointcut
porous
portrait
powder
preconfigured
precursors
prefers
principals
privatekeyinfo
progenitor
progressive
progressively
protobufs
pserver
psfs
pushover
pyedflib
pyflakes
python27
qu
quh
ra2
rabbitmqctl
rater
reconnection
refspec
regularisation
regularize
regulation
reportcomponentsmetadata
reproduced
reqheader
requestpayer
resampler
reschedule
resnum
restapiexception
returnstring
returnvalues
reusing
rice
rsapublickey
rval
saltation
scatterer
scwrl
sequenced
sharded
sharedfile
shellcode
shm
sidak
simplejson
simulationmanager
singles
skorch
smearing
smoothers
sobre
sobrepoe
sparkline
spheroid
spitzer
spp
sqlquery
ssecustomerkeymd5
ssim
sss
stackdriver
starpopulation
statemachine
stewart
string2
subcomponents
subgrid
subobjects
substructure
subtotal
supercells
supertype
svr
symmop
syncmap
synoname
tagcollection
tangential
tempi
tenants
term1
testdata
textgroup
tfrecord
tibiadata
tinydb
titled
tolerated
tradeable
traveling
tsquery
ttr
tunable
ud
unpredictable
unregularized
unwraps
usergroup
utr
v2af
v3beta1
valleys
valuable
vapour
vgg
victims
vlanid
vnetwork
vorbis
voxelspacing
vpnv4
vrfs
vts
waf
waituntilcomplete
walked
wasserstein
watts
weave
weber
webservice
wei
whereby
widely
wikitext
wildcarded
wkhtmltopdf
worksheets
writeto
wrongformatter
xc
xmlsec
yacc
yarg
трансдукции
문서관리번호
##000001
##137
##4d
##7a
##ages
##aml
##animation
##arams
##asing
##atetime
##bank
##binary
##blue
##bp
##changedevent
##cky
##commanderror
##console
##crypto
##cted
##d0
##dataerror
##desk
##dpi
##elli
##erable
##erating
##eri
##ero
##errorexception
##founderror
##gue
##icle
##iel
##inates
##insights
##ists
##itle
##ivate
##ivated
##lds
##lica
##lication
##listed
##logy
##lue
##mage
##magic
##mal
##multiple
##nan
##oin
##oints
##ologies
##ols
##ontext
##overlap
##patherror
##pod
##population
##pper
##projects
##q0
##rance
##rect
##ression
##rich
##rocessor
##room
##roxy
##secret
##sitory
##solve
##sphere
##stemmer
##t16
##teps
##tex
##tm
##uite
##ulates
##ups
##usd
##y2
##но
##ᅩᆨ
##ᅮᆫ
##ᅳ
000000z
0000e
032
0l
10s
1192
131
18004
1960
198
216
2h
2s
347
392
41421356
7000
8192
99999
abstracted
abstractjobstore
accross
acesso
acoh
activitylist
adict
adjective
agpfile
aguaclara
ak
aladdin
alti
altitudes
analogue
apiclient
apispec
arcrest
armv7operand
aromatic
arthur
attend
atts
bac
badges
bearings
berkeley
bexpr
bigwig
biology
bitvector
blockade
boltarrayspark
bounces
braininfo
braintreegateway
branchset
brew
cachethq
capacitance
cartoexception
categorized
cavity
cc1
censor
centric
cerberus
cermine
chaine
checkpointing
chemked
classifying
cmyk
cognitive
colorama
coloured
condor
conduction
consec
contextlib
cooked
courseid
covert
crawled
crd
creditcardpayment
cti
customizing
cyvcf2
deliberately
dendropy
designer
desk
dissimilarity
dividends
divmod
dominated
downloadable
doy
dsp0004
duplicating
ein
el7
elegant
emphasize
enrichr
equalities
etf
eventdata
ewma
facilitates
fastavro
fastly
fhir
fileformat
financial
flist
flushing
fmtstr
folderitems
formattermediator
functiondef
fur
fv
gax
glass
gocd
grammars
grrmessage
hacker
hashstr
header2
helping
heterogeneous
hexbin
hovered
hstack
hstore
html5lib
hyp
hyperlinks
ike
imagetype
inappropriate
inframe
intelligent
intervalindex
invites
inzp
ipv6address
ipyclient
iso8859
jids
joker
jsonld
katakana
kdeplot
kickstart
kmag
kucoin
kurtosis
layer1
legion
lendingclub
libnacl
linecollection
lisa
loadings
loo
ltauxe
macvm
magmom
mapr
mariadb
memberinstance
messageid
metabolicmodel
metropolis
mincount
mises
mixer
miz
moderngl
mov
mps
msmbuilder
msruncontainer
mst
multipleinvalid
mygeotab
myplex
myqueue
myservice
nam
nbunch
netflux
netscaler
nonroot
nornir
npixels
num5
objtype
obsm
ohlc
omp
onion
optionable
orchestrator
ortholog
osc
oscillation
owlmixin
painting
pasa
paulisum
paymentcard
persona
pickleable
pipenv
pkcs1
pmatrix
polymorphic
powerups
ppp
preferentially
producers
productions
propertyname
protobuffer
provisional
pycodestyle
pycrypto
pycuda
pynspect
pyqt5
qmax
qpixmap
qtable
qtextcursor
quantification
queryengine
radar
rainfall
rangeset
readlines
rebin
recalibration
recognising
recs
recursed
redy
relabeled
reminders
renewable
reorders
replicationcontroller
reprint
respecth
restoration
rfile
rgb24
rkey
rmin
rnf
roh
roundtrip
rsid
rtdcbase
rtsp
runge
runtimes
satoshis
schemafield
scrypt
sdd
sdmx
server2
servermanager
servicegroups
sgf
shareid
silicon
slim
spindle
splitlines
startkey
stochastics
storageclass
storecreditpayment
strelka
strm
submenu
supervisord
sws
sxbase
tablerateshipping
talks
tall
taxrate
tci
textiowrapper
tiger
tilepyramid
tmdb
tnet
transferfuture
txaioetcd
type2
uberridesclient
umbra
unclear
uncommon
unmixed
untracked
unusual
upd
urgent
urlconf
userena
v2019
variable2
vertex2
voted
w0
waiters
wcsname
wcxf
webapi
wfs
wget
william
wlan
x02
x64
xml4h
xview
yellowbrick
из
관리번호
파트너
##003
##020
##2c
##3000
##321
##5b
##9b
##abe
##alized
##aps
##av
##backup
##banksession
##berger
##breakpoint
##byid
##ception
##collector
##connectionsoperations
##creen
##ctrl
##dag
##dj
##dms
##e2
##eam
##earchresults
##ecord
##election
##ente
##ented
##entropy
##epr
##erator
##eth
##exceeded
##experiment
##expired
##extent
##fault
##ffle
##filt
##fp
##gc
##grp
##gui
##hint
##hood
##hter
##httpexception
##hw
##ias
##igs
##inary
##instruction
##ission
##issue
##ital
##iver
##kind
##kwargs
##lier
##literal
##ln
##mar
##men
##mock
##ndar
##nf
##nment
##notificationsession
##ood
##ounds
##p1
##pd
##prob
##qualifier
##raw
##ready
##return
##rial
##rit
##save
##searchsession
##seqs
##sequences
##serializer
##slist
##solution
##sson
##surface
##sy
##sync
##t20
##terms
##through
##tick
##tract
##transfer
##treenode
##uf
##umn
##unt
##uration
##utive
##water
##workflowexecution
##xes
##xref
##yerror
##го
##ение
##ты
##자
176
188
1963
1986
1f
1min
200000
217
243
262
2°
310
3306
333333
412
432
501
6d
8bit
9e
abund
aca
accented
accessors
aft
aggop
alchemy
aligner
ambry
amq
anderson
apertures
arrayorder
aspn
ativacao
attribs
auction
audiences
autobw
avl
ay
batman
behold
bifreader
bigdl
blended
bowel
branding
bspline
cec
cfdecoder
ch1
ch2
chantime
chol
cibname
ckm
clk
clublog
cns
coils
color1
commited
commonlib
compatability
compilers
complex128
conduits
connectable
connectionfailure
contactgroups
converging
cprofile
cran
crawling
crpix1
cruel
ctable
cvx
d2a
dataerror
dataobject
datatypedefinitionsregistry
dbundle
decays
delegating
dereplicated
despiked
dictrdd
diffie
diploid
direntry
disaggregated
disco
disregarded
doctor
doesnotexist
doit
dwthreadid
dxid
eee
eidos
ekey
electromagnetic
ellis
elmo
encourage
endkey
endog
ensuredir
epublication
eqs
exceedance
expr1
extern
fakefile
favicon
feedbackinstance
feedin
filterexpression
filterquerylanguage
filterset
filtfilt
fk5
flanking
fleetspeak
flowspec
forensic
formerly
frags
freebayes
fruit
fstype
fugacity
gcal2jd
geoaxessubplot
gq
greenlets
greet
group2
grph
halting
harvard
hdbscan
hdf5storage
honeypot
hostheader
hstwcs
hybridization
hyperloglog
idna
imageid
imresize
inclined
incomedstn
initiation
inliner
inputreader
interlaced
interlex
inverting
iostream
isogeo
italy
itemize
jmag
jsp
kernel32
keypad
kmol
leadership
lion
listitem
lit
loadbalancer1
logicalnetwork
lowering
ltc
lwin
macs
magmoms
marketing
marquee
marshalled
masterusername
mcd
meanshift
micropython
module2
monomials
multihead
multipath
multiphase
multivariatenormaldiag
nameop
napps
ndigits
netcdfvariablebase
nfk
nmap
notifying
nsx
nt2
ntlmv2
numcachenodes
numerapi
nwin
nxml
oath
oci
odp
oem
officially
ofs
ohm
ooxml
optargs
overcome
packagename
parcellation
parselet
pascals
pathlist
penalized
penman
photovoltaic
piv
plugged
plugs
plvl
pmbb
pmh
polygonal
polytropic
popping
powell
practices
precession
prioritized
profiled
prom
proprietary
pstats
pud
pyesedb
pythons
qcombobox
qmed
qualitative
quantumstate
qword
rasterize
ravel
recvwindow
refundtransaction
reg8
relativize
reproject
reprojected
reserves
restaurant
restrictive
restructured
resuming
rfc4918
ritz
routefilterrulesoperations
row2
rsi
rsr
runway
rural
sai
sampleid
sanger
satisfaction
savedmodel
scanners
schuette
secretbox
sedes
selectorquery
semicolons
sessionid
shadowing
shrinking
shrunk
sic
simkit
sitecollection
sj
sngl
sobol
sophisticated
specfied
spending
spinning
spots
squeezenet
sspi
starter
stm
stoptime
storageexception
storageforbiddenexception
storagenotfoundexception
streamflow
stressed
sub2
subjectinfo
subpopulation
subword
superficial
supersedes
swin
swth
synchronizer
synphoterror
sysfs
system32
table4
taskmaster
taxi
tdict
testcases
therein
tibia
timeslice
tmva
tolerances
toot
topography
torequests
tours
towers
trafficserver
transcribed
tricks
tversky
tweaks
twimg
typecast
unif
unify
unlinked
untyped
upstart
valeur
valgrind
versionrange
vif
wagtail
webhookinstance
webpages
wham
wiotp
witch
witnesses
wont
x22
xrefs
yout
yql
yule
yumpkg
yun
yyyymmddhhmmss
zeroth
zfin
zimbra
zips
배열
번호
⎢0
────
##00001
##014
##125
##456
##625
##690
##754
##7d
##acl
##ader
##afe
##aion
##ald
##alization
##anol
##arent
##autherror
##az
##bee
##cated
##chemenvstrategy
##clusterid
##compute
##days
##dent
##detector
##digits
##door
##double
##durationinseconds
##ected
##ele
##enable
##eon
##erate
##erf
##eus
##f2
##gent
##gger
##graphs
##gun
##hist
##iar
##ibilities
##ingerror
##iology
##ipe
##izado
##lated
##layers
##learn
##lies
##lihood
##ludes
##nded
##oke
##otron
##ova
##override
##oxide
##paginator
##pak
##percent
##place
##pn
##protocolerror
##pu
##queries
##radius
##repr
##reset
##ription
##rium
##rq
##sic
##suite
##targets
##tars
##ths
##tokens
##translator
##typing
##uared
##uing
##ust
##utable
##uto
##views
##vor
##wer
##west
##zn
##ов
##ᆨ
007
035
1048576
1093
10j
1400
154
1966
1971
2345
25000
277
2r
361
3b
425
429
436
444
5167
5555
5a
6181
6f
822
90000
aab
abstractstimuluscomponent
accidental
accpars
acknowledges
actively
actualremoterelieve
adimensional
adopt
afferent
aggplot
aimed
ais
alertsmanagement
allcells
allennlp
als
alterations
amen
amis
ani
annular
anytree
apicallexception
apiservice
armpolling
arraylist
aspera
atlassian
authorities
authorizing
backpage
bas
basket
bedtools
bgvertex
bignoreexceptions
binascii
block2
bogus
boots
brevity
briefs
bumpableversion
bypassing
canceloperation
cand
cashondeliverypayment
catan
categorylist
ccs
cdpp
centimeters
centralized
ceres
certificatesigningrequest
cfgopt
chgcar
chname
cibfile
cliques
cmaevolutionstrategy
codewords
coiled
cole
commanded
comp0
compartments
compensated
condensing
confocal
confound
connectedness
conserved
consoles
constrains
contacttype
contextualize
continually
copytree
correctionhandling
coterror
countriesgeozone
cpkl
cpts
crimes
crm
ctsreference
currents
customergroup
cvi
cypher
dao
dataclass
datastructure
ddb
decrements
deepdish
dent
deposited
dev2
digitalobject
diphthong
dirnames
discountcoupon
discountpromotion
distrib
dlog
dockercfg
doubly
dqbits
duplex
durability
dyngraph
ean
editorstack
eject
elasticity
ellipsoidal
encloses
encompasses
entrypoints
epc
eqb
esa
essay
etags
eulxml
existant
extant
extractions
faceted
ffts
fillcolor
fista
fixedrateshipping
fld
foldered
folderpath
forwardref
fpga
fql
framecpp
frange
freeitemcoupon
freeshipping
freeshippingcoupon
freeshippingpromotion
fspace
gae
gcgraph
gconf
gear
genmodel
genshi
globe
grasp
gray8
gridplot
hcp
helium
hogehoge
hq
idb
iiif
importlib
incompatibility
infs
inhibitors
inits
inning
interpolations
ipwhois
ipyparallel
isnull
isotopic
ito
japan
jenks
jensen
jm
jolokia
jssobject
judge
jul
kcs
kent
keybundle
keyrange
keystrokes
keyvals
kmax
laboratory
lamp
lastevaluatedkey
layered
lcp
leaking
leaky
linenos
logan
logstash
lropoller
ltsv
m2coordinate
maltparser
marshall
mathworld
maxwell
mbps
medial
meme
mft
mhd
mintransitduration
mlx
mne
morgan
movements
muse
myelb
mypolicy
natsorted
networkmanager
neuroimage
nevertheless
nightly
nilearn
niterations
nitrogen
nkor1
nlattr
nlpir
notifiers
nvals
nwsfirezone
objectivelist
obsoletes
occupation
occupy
oclarray
omdict
omnicanvas
opslimit
optimally
optionset
optionvalue
overfitting
overlaying
oversampled
overtones
paramlist
parseresponseexception
partners
paymenttoken
paymenttransaction
persisting
phasedlc
plctype
pld
pollster
postconditions
postsmoother
pql
presenter
prettified
prioritize
proj4
projexui
proton
prototypes
pseudorandom
pullrequest
pybitcointools
pyinfra
pyoutlook
pypot
pyqode
pywindow
pz
qg
qik
qinfer
qiskit
qry
queuenetwork
quotechar
radiative
rdfvalues
rebuilding
refpt
refrigeration
regressed
regularity
relocation
resourcelist
respiratory
responseexception
returnlineitem
returnoperation
richardson
riv
rpms
sacrud
saltdev
sao
savestate
screens
sdm
sectional
segmentations
segmenter
seismogenic
semidefinite
semitones
sendline
sensf
sensitivities
servicecontrol
servicerolearn
sessionmaker
setdefault
shipment
shortcodeinstance
simplifications
sinc
slopes
sniffer
snowball
sortorder
sourcescannode
speakers
specialization
specifics
spelled
spliced
squad
statesgeozone
stdnet
storecredit
storecredittransaction
strictness
stripegateway
structfield
subnetwork
subsamples
substantially
sudoku
suews
superoperator
surrogates
tableraterule
tag2
taxclass
tcs
teaching
tempodb
teste
testnet
textures
tho
til
time1
toa
tooling
tooltips
tpf
trackers
trails
transliterated
trt
tsp
twos
typos
uda
undelete
unloaded
unmanaged
unrolled
unstacked
urljoin
urlpatterns
user2
v1alpha2
valley
valores
vboxerroriprterror
vec1
ver1
virtualenvs
vislcg3
vlc
voq
vospace
vouchers
vv
vxvv
wage
watchers
weekdays
whiten
wsc
wxpython
xoffset
xsrf
yo
zenodo
zipcodesgeozone
zsh
##0k
##302
##678
##acao
##aces
##agg
##aging
##aly
##ances
##arity
##atus
##authorization
##avg
##b6
##b8
##bor
##bury
##cellular
##choice
##chor
##cmap
##cookie
##coordinate
##datawrapper
##dden
##dens
##dicts
##direct
##div
##du
##eal
##ector
##eid
##eight
##enberg
##ences
##encies
##ensemble
##entities
##ersion
##erty
##ervices
##essed
##fier
##forward
##frequency
##gal
##gle
##gu
##hadow
##hing
##ickle
##idate
##ignore
##ilt
##inating
##inn
##instancepaths
##inter
##itch
##itic
##iza
##je
##lda
##lish
##lity
##mata
##met
##modifiedsince
##mond
##nac
##nb
##nberg
##ndo
##nest
##oad
##ories
##origin
##pacing
##pdb
##phot
##press
##producer
##quest
##race
##raph
##requested
##rim
##roid
##rolebinding
##sent
##ship
##shop
##sources
##strategy
##sub
##t14
##tarttoclosetimeout
##team
##the
##tia
##tible
##tils
##ubset
##uted
##uw
##vc
##world
##wp
##xyz
##yaml
##ycle
##yte
##ии
##х
##ᅡ
022
048
0xffffffff
14159
1590
194
1967
213
233
248
251
2616
275
27s
288
2c
2k
32767
3l
420
504
514
accumulates
adsorbate
aerofiles
airtable
amqpinvalidargument
anaconda
anatomy
annals
anntools
answering
antialias
apdu
apirequest
applicationgatewaysoperations
appropiate
arial
arin
arrs
ars
asa
asr
attentions
attributecontainer
autorange
axe
bandpasses
baseauth
bead
beautiful
bhmm
binarize
blevins
blocklistregexes
blockquote
bluemix
blues
bookkeeper
botfather
boxcar
bpf
bra
bsm
buid
buried
bypassed
c32checkencode
callble
callinstance
cands
caso
catalogos
ccle
cdt
centred
cer
cern
certification
cet
cgs
chatmember
checkid
chemicalsystem
chimeras
ckdtree
clay
clienttoken
clitool
cltk
clubs
clusterspec
cmy
cnot
coach
coinc
coincide
columnar
combustion
commentlist
comp1
compressing
concluded
confident
configman
confined
confuse
contriarea
contributes
couplers
cox
credentialinstance
crf
crmod
cse
cursebox
cvxeda
cw
darwin
datakey
datalab
datestring
davresource
dbi
debt
debut
decider
definitive
degc
delimiting
descripcion
devel
dial
dijkstra
dismiss
distributedroc
dokanfileinfo
dphi
drawings
dsp0207
dti
dtraj
dtram
dublin
dupes
dups
dwsize
edfsignal
effsize
eigs
elevations
elseif
emboss
emptied
ephem
equip
euclidian
eventprocessorhost
evil
evolving
ew
exac
exploit
expresses
farray
favour
fbeta
fct
fdsn
feather
feminine
fido
fileno
fixation
flatpages
flavour
float128
focusing
forests
freely
freezing
freqmin
frobenius
fuction
fullyqualifieddomainname
functionally
functioncode
fut
fuzz
gemeente
giraffe
gringo
grounded
guacamole
gulf
gulp
homogeneity
households
housing
hpss
hyd
hyperbahn
hypergraphs
ico
illuminant
inconsistency
incur
indentifier
infix
inflate
infoarray
infohash
infomation
inlines
integrand
intial
invalidvalueerror
ioinfo
isr
isvalid
k0p
kbs
kconfig
keyids
kicks
kmc
krb5
kucoinapiexception
kucoinresponseexception
lammps
lapse
lbaas
ldate
lecture
levelu
libpysal
licensed
listened
lits
logsumexp
lovely
lowered
lpaddress
lsh
luhn
macrolanguage
macroname
maxit
maxvalue
memmap
messy
mesures
metals
migrating
mim
miny
missense
mistake
mlt
mobi
modelo
moduli
monomers
morlet
mpeg
muller
multichannel
multicopters
multiqc
mvn
myfunction
nac
naccess
nestcheck
netcdf3
nied
nipapxmlrpc
nlat
nlpia
nofile
nonparametric
notconfigured
notebooknode
nsqd
nss
ntubes
obervation
objecttools
obs1
oedb
og
oidcmsg
opencl
openshift
orderbook
oxd
ozone
pacman
parameterensemble
paramtype
parental
path3d
patterson
pawn
pdc
pdef
penalties
personality
pfx
pgroup
phy
pills
pivoting
pluck
plummer
pnm
postmortem
ppf
ppt
preexisting
preproc
preprocessfail
projectnode
propositional
purges
pvalues
pypiper
pyqtgraph
pyrem
qam
qe
ql
qui
rachford
rangeindex
rap
rax
rdbms
reactant
rearranged
receptive
recomputed
redist
regionone
relocate
removals
remover
represenation
requiredremoterelease
resourcecontainer
resumption
returners
rlz
rml
rootdir
row1
rsaprivatekey
rtk
runid
runoff
sad
salary
salinity
scheduleditem
sdl
sdrs
searchstring
seqno
serializationerror
servicereference
servicetype
sfcf
sframes
shaping
shas
simconfig
slant
smarter
smf
snooping
softplus
sop
sortedindex
spacer
spout
ssn
ssz
standart
stanzastream
steve
stopband
stupid
subjunctive
subordinate
subsetting
subwords
sudoers
summarization
symprec
sysmeta
tablebase
tabletype
tasmax
tdms
tei
telephone
texttospeech
tha
thick
threadsafe
thunk
tidypy
tombstone
tos
tprs
transpositions
tsobject
twittersearchexception
uber
unconnected
unnorm
unrecoverable
unsatisfied
unscaled
useragent
userids
utxos
vacancy
variantcollection
variantsequence
varnames
watchman
webm
whitened
wilcoxon
xbmc
xkcd
xmlstream
xom
xrd
yoffset
zenity
zing
zooms
##008
##105
##143
##152
##2014
##234
##3b
##3f
##520
##600
##654
##666
##893
##acion
##aria
##ariance
##atives
##atoms
##aus
##based
##bayes
##bh
##bn
##bra
##central
##comments
##completion
##composite
##conv
##convention
##coord
##cost
##d8
##datatype
##deployment
##dge
##display
##elf
##emble
##encode
##ency
##ener
##ensive
##esource
##estimate
##eters
##f1
##fl
##fty
##full
##gan
##gel
##hdr
##httperror
##icated
##icited
##ider
##iding
##ients
##ilation
##iobase
##itude
##kd
##ller
##loat
##lty
##minutes
##mma
##modification
##msm
##nish
##nps
##ocus
##oker
##olate
##ommand
##oms
##panel
##pickle
##preset
##pter
##publisher
##qt
##rary
##real
##rocess
##rous
##running
##scores
##sid
##subject
##summary
##sz
##t15
##tivity
##tomer
##uction
##uctor
##uency
##uk
##unch
##updates
##ury
##utre
##variance
##vlan
##vote
##wc
##wo
##x2
##yed
##та
##ᅩ드
##──
016
020
0x02
10x
123456789012
159
16bit
182
191
1976
232
258
272
307
3310
334
499
4s
8888
9310
absl
accomodate
adyen
aforementioned
agenda
aikif
alertapi30
alerting
aliyun
altair
amazons3
amber
amps
anytime
approvals
aq
argstr
atan2
autodetected
autosummary
bandwidths
baseprovider
bashrc
batchwise
batter
bdist
begsam
bibliographic
bidict
blame
borocnstart
bresenham
bro
broader
buggy
byaxis
c32checkdecode
cachekey
cadquery
cals10k
cao
capirca
capping
cfunc
cgit
chardet
chm
chromecast
cin
civil
cm2
coercing
coilmq
coinid
collaborator
collectors
color2
compositor
condense
confidential
conic
consequences
constellation
containerregistry
contendo
conv1
copula
correspondent
createdat
crits
cspmatrix
cutadapt
cvm
datafiles
datastreams
datestr
dcs
ddk
declarativemeta
degraded
demagnetization
dena
deref
detaching
dfdx
difflib
diffusive
directionality
displaced
dispose
divergences
djstripe
dnssec
documentreference
domain1
dose
dparam
dragged
dropzone
efermi
efs
ehlo
elbow
elbv2
emotion
emperor
encryptednumber
end0
endsam
engineer
envelopes
eqi1
evicted
exhaust
faker
famous
fileglob
finalization
findpath
finfo
flashed
flickering
foos
fpath1
frameon
frameshift
framing
functor
gan
gast
gdk
gears
gene1
generate2
generics
gensim
getopt
gexf
gf
ggr
gini
gitpython
glc
glon
gradually
grashof
gripper
gtfspy
halton
halts
harm
hearing
heater
hellosign
hetatm
heterogeneity
hoho
housekeeping
hpcb
hu
hydrogens
iamdataframe
idelchik
iline
influenced
inputerror
insist
instantly
internaldata
invalidating
ip2long
ipv6network
irrational
isosurface
itotalizer
jason
jgd
jmespath
jr6
jsonmodel
kev
keystroke
koefficients
kpa
kutta
label1
ladder
latlong
layoutdom
ldetsave
leverages
lexers
line2argv
liq
listview
lloyd
lobpcg
logrotate
logscale
logtail
lowtri
lrr
lvalue
mackup
mapsource
marginalize
masculine
massive
mattermost
maxy
mcc
melt
memoizes
mers
metzner
mgf1
milli
mknod
mls
mmff94
moderation
modifiable
modularityvertexpartition
mojo
mongos
monotone
moo
mouseevent
mptt
msec
multilink
multithread
muparser
myapi
mycert
myfield
myvar
n1ql
nchw
ncol
neuralnetwork
neuter
nids
nipy
nla
nmin
nocheck
notations
np2
nsampl
nsample
ntfs
nwalkers
objectids
omegaphi
omegar
omegaz
ong
onshape
openvswitch
operatingsystem
opsgenie
orbfit
ordinals
organizacion
overlayed
overridable
pairings
parametrize
parentid
pays
pears
peg
peng3d
periphery
perp
phase1
physiological
pizza
platecarree
pmisc
pnp
pobs
polled
positionally
ppo
prausnitz
preceeded
predix
prevented
primed
priori
probed
propertylist
provisionerid
pseudoinverse
pshp
psms
punctuations
push1
pwmled
py4j
pyhamtools
pymds
pyshop
qnet
quadword
quantumcomputer
querycompound
queryoptions
races
radiotap
rash
reachprocessor
realname
reboots
recaptcha
recur
redeem
refobject
reformats
reinforcement
rejecting
rejoin
remanence
remembers
remnant
remoting
rent
representacion
resubmit
riskinput
robustly
royal
ruamel
run2
scargle
sclk
scn
scrubbed
sdssg
seash
sentinelhub
serialisation
serversideencryption
serviceendpoint
servlet
shepp
sigma2
sinusoids
skel
snapshotretentionlimit
sonar
songpal
sparseseries
srcpath
ssafile
ssekmskeyid
standing
starmodel
step1
stetson
stimulusmodel
stobjects
storageargumentexception
stresses
strongest
suffixarray
superscript
suspension
svdcut
swimlane
t3n
tabula
tendencies
tenetobids
testcode
theno
thetas
timecourse
timedeltas
timeofday
tiprack
tnr
tokenizing
tophat
torsion
tough
transact
tridiagonal
tril
truths
trytes
twenty
typevars
uncompleted
uncompress
undeclared
undetermined
unfolded
unions
unitregistry
unkown
updateitem
uqbar
vagrantfile
varfeatures
vdf
vicky
vlos
vw
waited
watchpoint
westus
whl
windturbine
wiod
wkb
workgroup
wtforms
wulff
xd
xnor
yours
zadd
zijderveld
если
##009
##1000
##2dict
##2p
##320
##3333
##3k
##545
##700
##905
##917
##990
##996
##aggregate
##ained
##alc
##aling
##ano
##arser
##ater
##available
##b3
##b4
##bind
##blog
##border
##bounds
##byname
##capabilities
##cel
##coldesc
##collections
##credentialserror
##cribed
##ctivity
##d5
##dat
##dependencies
##dependency
##diag
##edfile
##efaults
##egistry
##encoded
##ention
##ern
##etion
##f3
##ference
##flash
##gaps
##heck
##hes
##hh
##iates
##iciencies
##iest
##igating
##iki
##ima
##iser
##isk
##ival
##k2
##key2
##kins
##ku
##lable
##lbl
##lets
##lia
##liquid
##locks
##m2
##macro
##mgr
##mps
##nner
##ntation
##nter
##oder
##ointer
##oll
##orb
##ower
##p2
##peaks
##percentage
##poll
##ponding
##processing
##pv
##question
##quota
##quote
##raints
##realtimestatisticsinstance
##responseexception
##resultset
##rie
##rse
##ructure
##send
##states
##tatistics
##ticket
##tings
##tories
##tory
##tours
##tries
##trs
##tructure
##tuning
##ubtype
##uccess
##uda
##uence
##uff
##ull
##uml
##unique
##uo
##uple
##uses
##validation
##versioninstance
##vj
##vlr
##wallet
##wards
##watch
##ways
##wb
##xer
##ying
##ðir
##ного
##⎟
##────
006
100k
113635
1150
138
1965
2181
226
271
286
303
364
369
424
460
466
505
507
540
635
6h
7401
8c
975
abbreviate
absorb
abuse
acmg
acquaintance
additionalproperties
administer
adpcm
adr
advisory
aerosol
aff
afshin
agentcount
agentversion
aids
akaike
alb
algor
allowlistregexes
alto
ambiguities
ammonia
analytically
apphook
applthermaleng
archiving
armored
astar
atropos
attacker
authorizes
authtype
autodiscover
autologin
auxs
axisymmetric
b62e76fbeeff4e8fb77073f591cf211e
backtrace
bandit
bandstructuresymmline
base58check
baseband
baseexception
basescript
basicproperties
bedding
beider
bets
binaryimage
blockdevicemappings
bol
bone
borough
boundingboxesonimage
braintree
breathe
brillouin
bucketname
bunqresponseint
calib
callstack
canadian
cbpdn
cdelt1
cdrouter
cellpydata
cfgdict
chances
charactersetname
chartsettings
checkerboard
chianti
chksum
cimname
clampings
clang
clark
clashes
claves
clickhouse
cloudshell
coarsen
cod
columnnameofcorruptrecord
comprehensions
concave
conformant
connectors
contai
conversely
convertable
convinience
cram
critically
crtf
crval1
cryptoerror
cryptographicalgorithm
customizations
cycling
cytomine
daisy
dallinger
datafailureexception
dataspec
datecreated
datetimestring
db1
dc1
ddoc
deallocated
decayed
decimated
dedup
defers
deflector
delims
deltaf
denoise
densevector
departments
deprel
depricate
depuis
deselect
designator
desiredcount
devicetype
dht
di2
diagonals
diamonds
dif
disambiguated
discfac
discharged
disclaimer
discussed
disorder
distinguishing
dnamd
donors
duckduckgo
duo
dynetx
eaf
ecdsakey
eco
elevate
encapsulation
entitytype
ents
environmentvipnotfounderror
eqarea
equinox
erd
esta
establishment
execstr
exiobase
expandvars
exportable
extention
extmod
falco
farther
fas
fasttext
favourite
filecollection
filecontent
fillchar
fixnum
flag1
fleaker
floppy
fog
footpoint
formulae
foundry
freqmax
funckw
gcf
geostrophic
gfile
glfwwindow
gmx
gql
grapheme
gtc
guards
hacks
heir
hexlify
highlighter
hollow
hospital
huang
hugoniot
id0
ideone
idref
igmps
ijrefrig
ik
improper
imread
ineichen
initprob
inputtemplate
instructor
interable
interruption
introducing
invalido
inversions
iotilereading
iprange
isfile
itemtype
ithm
iuiautomationtextrange
iz
jagged
jberg
jboss7
jcvi
jderobottypes
jgif
jo
jpath
jsonable
jsonpatchoperation
jth
jurgen
kaggle
karma
kechain
keybinding
keyinstance
keynotincontexterror
kombu
koopman
label2
labs
lap
launchctl
layername
lesson
licensemodel
lightning
linebreak
livetime
llama
loadable
logicle
logz
lrsresponse
lsid
lvs
macvlan
mars
marshallers
mech
melted
memoizing
metavar
minimally
minio
modelled
mortem
mrz
multithreaded
mvc
n4
nbes
nbt
ncclient
netcdfvariableagg
networkerror
niimg
nit
nlon
nominally
notecontainer
nport
nthreads
nul
numerics
numtype
nuts
oam
objectclass
oecd
offending
opcional
openpgp
operationid
optionals
origination
oscillations
ours
outuh
packager
packmol
par2
parabolic
partitioners
paula
pausing
pdata
peephole
pefile
pfs
pgfplots
phantomjs
picklist
pileupcollection
pinch
plackett
plotvar
plunges
pmra
poe
policyname
pololu
polychord
powerlaw
powtec
prange
prd
precompute
preformatted
presenting
primality
productive
proficiencylist
progeny
programmed
pureposixpath
pyca
pyfolio
pymol
pyomo
pystan
pythonhosted
qdgz
qid
qsub
quantify
queryiterable
range1
ransac
recalculates
recno
reconstructing
recreates
reed
reflections
refval
reg1
reindexing
requiredrelease
resident
resistivity
resourcecommandcontext
resourcepath
responsive
retentionpolicy
retract
revenue
rootname
rosen
routingtree
rti
rtree
saddle
safesearch
sanders
sark
savitsky
scrim
sdcclient
secretstream
securely
segfile
semileptonic
sequencematcher
serially
servos
sexegesimal
sharex
shexj
shiftschema
sighup
silly
simbasedir
simul
sitting
sizeof
slitlets
slowly
smp
snapped
snat
solids
sorry
sortinghat
spellcheck
spendable
spiral
spr
spx
srcdir
st2
storageencrypted
stranded
streamcorpus
subarrays
subscribing
superop
superposition
supplier
suspect
sw1
t1w
tablenotfounderror
tabulator
tamil
tanimoto
tasklet
tcpdump
telesign
tenths
terry
testindex
tetrahedron
textgrid
textsize
tfidf
tfm
thenat
thinks
timemoc
timewrapper
tmy3
tqbf
transitively
transmitting
transmute
transpiled
transposes
treetime
trello
tripledes
troubleshooting
trustdb
tst
tun
u2f
u6587
ubound
ufloat
unconfirmed
undershoot
undoes
unfold
uniqueify
unmarshalled
unmask
unneeded
unpacker
unprotected
untargeted
upnpctl
upnpservice
upsampled
userprofile
v28
vaisala
vardict
venn
vibration
violin
virtualdevicespec
virtualization
vmname
vmotion
voices
votable
wamp
websites
wic
withdrawn
wizardstep
workhorse
workstation
wss
x33
xapian
xenial
xshe
xtce
xvals
xvg
yacms
yeilds
yekutieli
zerodivisionerror
znodes
значение
목록
─────
##011
##013
##071
##110
##1x
##2016
##343
##677
##7890
##850
##ached
##acity
##acted
##addonextensioninstance
##addoninstance
##arc
##assign
##author
##balancing
##bankassignmentsession
##batches
##bels
##bench
##bia
##bling
##bola
##bridge
##bu
##c0
##candidates
##canvas
##capture
##cas
##categories
##cept
##chains
##chan
##channelinstance
##cket
##cks
##codec
##conflict
##constants
##createtime
##cti
##ctive
##cus
##datastore
##decorator
##deny
##destination
##det
##dna
##e0
##eated
##eau
##eder
##egion
##eis
##encing
##eneration
##entary
##equal
##equipamentonaoexisteerror
##erencing
##etcher
##eventtype
##export
##fb
##filepath
##forms
##free
##gaussian
##gy
##hared
##ien
##ility
##ilty
##imination
##ims
##imum
##integer
##ionerror
##istent
##istry
##ives
##jt
##kes
##key3
##lent
##listing
##logical
##lugin
##m1
##median
##mfd
##mme
##mplo
##mtp
##netgroup
##ntic
##ntry
##nym
##ocate
##oh
##olved
##omb
##ompile
##omputing
##onnection
##oor
##other
##overwrite
##patterns
##peak
##pes
##pixels
##probe
##prod
##program
##pulse
##rade
##raint
##rce
##recordtypes
##rek
##remove
##replication
##rors
##round
##runs
##second
##shed
##sim
##specification
##split
##streams
##sts
##theta
##tics
##timeerror
##trees
##ttr
##ubnetgroupname
##uel
##uld
##uler
##una
##uncing
##upply
##usive
##uter
##uz
##uð
##val2
##warp
##wen
##widgetitem
##wr
##xa
##xp
##yle
##yy
##z2
##zes
##ить
##од
##한
##ᅦ금계산서
##ᅧᆼ식
##ᅳᆫ
00000001
021
02d
0b
100mb
10320
1115
1219
1235
195
197
2047
228
278
333333333333
3333333333333333
3447
3986
3g
3s
45000
453
523
530
5b
622
650
85a3
8xfh8ybzrpjqmnyzzgotqb
915
987
a6
a8
accompany
accomplish
actionangle
actualrelease
adev
adress
afip
aioftp
ali
allelic
amend
annotating
antivirus
anystr
anyvaluemap
apicontext
apidb
arai
arca
argumento
arpa
artifactdefinition
assembling
asserting
assignable
atari
authc
authz
automagically
avm
awareness
axes3d
bable
bacon
bags
basenames
basicconfig
bces
bcp
beautify
benchexec
bestperiod
betting
binom
bitdepth
bk
blaze
blindly
blockcypher
bmin
boltzmann
boo
bootable
breed
brought
buckettype
bunq
c00
c84d653b9ec92c6cbac41c706593e66f567a7fa4
cacheentry
cacheparametergroupname
cafile
cannon
carpet
cars
casesensitive
ccm
cdcid
cdcversion
cellular
cfexampleapi
champion
channel1
channelinstance
chodera
chr3
chrondata
cimv2
clarify
cldr
climb
clr
cm3
coe
collaboration
comics
commodity
compaction
compillation
conferenceinstance
conformal
conformance
contingency
contributed
conu
copper
corporate
correlates
custodian
cxflow
cyl
dagrun
darkening
dataframemodel
datajson
dawn
dbms
dconf
ddelta
dds
debconf
decomposing
decoy
definitionreadererror
demean
designdocument
detunings
devera
dfr
di1
diagnose
diccionarios
dictreader
dimensioned
directorynode
disappear
discontinuity
dish
distinguishes
dolor
downside
dramatically
drawpoints
dsid
dspam
durbin
dwavesampler
dxapp
dxf
dynts
eccentric
economics
ecx
elapses
elasticapm
embd
ensime
entails
enumerations
eph
erosion
ert
estrutura
eventsource
exactsolver
exceptional
exosite
ext4
extendable
fac
fading
familiar
fdata
fetchall
fibre
fileobject
filesstoreid
flag2
flapping
focussed
foo1
foosa
footprints
forgery
forgotten
formdata
fragile
fragmented
freezer
fromfile
fromhex
fsp
functionspace
funder
g0
gained
ganglia
gbm
gemset
gencode
generalize
genomics
gentoo
geoms
geos
germanet
getresponse
gherkin
gimbal
gkeepapi
gls
gmm
gmql
golomb
governing
gradeentry
gro
groupxs
gyration
halves
handleerror
hansen
harakiri
hashcode
haskell
hasprops
hedges
henry
hhmm
highscores
hkcu
hough
houston
hsepd
htfa
hydroerr
ics
identifiability
identifiable
imf
importers
imts
inequalities
inexact
influxdbclient
inited
initialinstancecount
inkscape
inlier
innovation
inorganic
insn
intertemporal
inverses
invested
ipix
ipv
item3
ivorn
jabber
jsnuffy
jsonified
jsonresponse
kafkaconsumer
kicked
knx
lay
leakage
learns
licensing
lindblad
linebreaks
linkno
logy
lts
magbin
manipulates
markus
matchquery
matured
maxcount
maxdt
maxobjects
mba
md5s
mdl
meanwhile
mergesort
metatab
mfs
mhg
miner
minvalue
misleading
mitdb
mnemonics
modelrunhandle
moist
montage
mountain
movable
mqttfixedheader
mrf
mts1
multicore
muscular
mutagenerror
mydata
n50
namespaceuri
narrower
nbf
ndtr
netcdfvariableflat
netrc
nobr
noin
nonsense
nonsmooth
nos
nosuchelementexception
notset
nsq
ntest
nuclei
numeral
numerous
obmol
openioc
operandsize
orchestration
origen
osfs
outsr
paints
pathsep
pformat
pgmsascdc
phonenumberinstance
pipermail
playbooks
polarizations
pollers
polyplot
portantier
possess
pourbaix
pout
poweroff
prefilter
prematurely
prettify
prettyprinter
printoptions
procoda
programatically
pt2
purl
putitem
pyeeg
pyobj
pyof
pypirc
pysparkling
pyswagger
pytango
pyvex
qargs
qasm
qb
qcow2
qquad
qrectf
qtls
quartets
raiseonfail
randomforest
randomforestclassifier
ranged
rdfurn
reagent
realistic
recalculating
recognise
recordinginstance
redact
redacted
redraws
reducible
referente
removable
reorient
repack
repr3
rescales
residentmario
resids
resnums
responsedict
retail
retracted
reverb
rlzs
roads
rowspan
rpeaks
rpi
rssi
rtp
runtimeconfiguration
saad
savefile
sbj
sbp
schematic
schematics
sdpa
sealedbox
sectionsfileparser
seisan
select2
selling
seqio
serovar
sgr
sharepoint
sharpness
shepherd
sidea
sideb
sig1
sigmay
signingkey
sigwinch
silenced
simsuccessors
skull
slackware
slc
slop
smtplib
sniffing
socks5
soilmoisture
sourcestring
sparingly
sprites
spt
srepr
ssecustomerkey
stalled
startat
startpos
statefulset
step2
streamline
strlist
styler
subitems
subnetids
suffices
suggesting
suitably
sung
surrogateescape
synclistiteminstance
synonymous
synthdiag
tacacs
tagastab
taskspec
taxid
telegramclient
templ
temporally
tensorproto
tessellation
theanets
time2
timespec
tinymce
tinyrpc
topographic
topoplot
transitdepth
transitioning
transverse
traversable
trepan
trigonometric
truetype
tsdb
tubing
tuids
twistedmatrix
typecheck
uav
uca
udo
underestimated
underlined
unifrac
unigram
unlocking
unobserved
unpickling
unpublish
unreadable
unreal
unreferenced
unscoped
unseal
unsplash
upperbound
upscale
urban
usmuserdata
ut1
uy
varepoch
variantset
vest
vizier
vj
vl
vod
vrs
vsoch
vtool
wanna
warsaw
wash
webspace
wednesday
weibull
werobot
windivert
wio
worklog
writeback
wsgidav
ww
x80
xerr
xgmml
xib
xj
xmlbif
xmlobject
xmltodict
xmltools
xtol
xxxxxxxx
yandex
yourls
zoning
zpk
список
유형
───w
───────
##00000001
##002
##007367
##1988
##1b
##2004
##2a
##2index
##2s
##432
##4a
##527
##623
##663
##9999
##a7
##abcdef
##ableerror
##aks
##aligned
##alize
##alues
##ancies
##arsed
##artition
##assignmentsoperations
##ators
##authority
##authorized
##before
##ben
##bic
##brain
##bx
##caler
##cation
##certificate
##characters
##chi
##citation
##clinic
##clusters
##connected
##containers
##contextcontext
##controllers
##cores
##degrees
##deploy
##dimension
##draft
##ech
##echo
##efine
##emnt
##esion
##essionid
##eventloop
##explorer
##extract
##faultsource
##fileconfigdetail
##filehandler
##gid
##gren
##griddistrictding0
##groupby
##h3
##halation
##iary
##icity
##ident
##idos
##ific
##insert
##integration
##inv
##ipv6
##irreducibilityanalysis
##ison
##ked
##keyid
##l1
##laim
##lid
##life
##linear
##lockexpired
##lots
##manifest
##meric
##metry
##mmm
##n1
##namelist
##ncia
##neighbors
##nodeid
##ogin
##olve
##para
##person
##pixel
##png
##precision
##prime
##qs
##ract
##rams
##rch
##reads
##received
##rectangle
##rev
##rice
##rise
##rol
##rtc
##sampling
##scanner
##sets
##setup
##sign
##spectrum
##spy
##src
##strings
##subscription
##t03
##tabletextloader
##tau
##tenant
##theme
##tical
##tmt
##tn
##tokenizer
##tom
##topicarn
##tty
##tus
##uator
##ulous
##union
##urity
##utions
##vable
##versioncontext
##versionerror
##vert
##visual
##where
##while
##wit
##x8
##xq
##yan
##zones
##zza
##ðar
##ðu
##нии
##ти
##яет
##ᅧ부
##ᅩᆼ
##ᅳᆯ
023
027
0500
0j
1100
1109
1125
16000
166
180e
1962
1964
1s3
22000
237
259
2l
313
415
4242
5c
60534
680
7005208343554686
702
755
866
998
9chbp54c8n
a7
aarm
abandon
accessions
accompanied
accumulating
acked
acr
acted
activecolumns
adams
adsorption
aggfunc
agl
aioredis
allan
allitems
allowedremoterelieve
alternates
ampersands
amplicon
andreas
angled
anion
anisotropic
anyways
apiparam
apm
apppool
ara
arangodb
archlinux
argh
arraytype
asap
asgd
asgi
ash
assertequal
assetlookupsession
astronomy
atmost
auditpol
authdata
autocovariance
avatars
avi
awslimitchecker
b1950
b7
backpropagation
batchprediction
believed
ben
bip32
blc
blends
blogname
boxleastsquares
boyd
br0
braket
bricks
brightest
builderror
bulbs
bytes32
cachenodetype
caffemodel
canon
capacityunits
cape
cares
carray
catched
cautious
cdfs
cdots
cdw
celcius
chaincode
cl1
clash
classnames
cmfr
cnames
cnxml
coaster
codebuild
colebrook
collided
colliding
colum
comet
communicates
commutator
compromised
conclusion
conditionaloperator
conformations
considerably
consulted
containerport
contenthandler
contextservice
coor
coordsys
copytagstosnapshot
corticalioexception
cpt
cpu0
crucial
crunchyroll
cryptoconfig
cryst
css3
ctio
cudnntensordescriptor
cxx
daq
dashtable
datastruct
datatransfer
date2
dave
decls
deformed
demeaned
demonstrated
departures
deregistered
detrended
devassistant
dff
dghpcyb0zxh0iglzigjhc2u2nc1lbmnvzgvk
dictionnaries
dim2
dimer
dinf
dingo
disordered
displayable
dominance
dotfile
dpkg
dropin
drs
ds1
dsp0201
dt1
dta
dupe
dutch
efforts
empirically
employer
endofprdvp
enrichments
entityid
epoll
ergodic
ethernet1
etsug
eulfedora
ewrapper
excmsg
ey
ez
facetsearchrequestcontainer
fakeid
fastboot
faulting
fauxhistory
fftn
fht
fieldset
filestack
filestorage
findings
findspec
fiscal
flg
fluctuation
fn2
foci
formating
fqn
framewise
fruits
fy
gatk4
gctx
gems
generically
geoff
geowithin
getall
getatt
getvalue
gga
ghajar
globalmedian
glow
gltf
gmf
gmpe
governor
graphically
gurobi
han
handwrittendata
harder
hdfstore
hdus
heirarchy
heure
highf
histogram2d
hmag
homely
homo
hostedzoneid
hotspot
hql
hues
hug
humanized
hydrological
hyperopt
id3v1
idaho
idsave
ifs
igor
ilake
ilx
imls
importantly
includequalifiers
incongruent
initializations
inlinequeryresult
interconnects
interna
intify
intuitively
isfcs
isl
isos
issuance
johndoe
jointly
jsondecodeerror
kbreak
keycloak
keymap
keypointsonimage
keyrings
lamb
lanes
legislator
ligacao
lincs
loaderplugin
lob
localname
logarithmized
logser
losc
lowf
luminoso
lwm2m
lz4
mafft
mapconfigid
mapd
mat2
matchmaker
maximally
measurementid
memories
mendelian
merit
metoffer
mfccs
mibs
microphone
migrator
minimisation
minlen
mixes
mlbam
mlipns
mlr
mlvl
mmbiz
mnstorage
mocking
modelproto
moderators
moin
monitoringinterval
monitoringrolearn
mothur
mso
mugshot
mujoco
multipoint
myobject
mytag
nbviewer
ncn
neglected
nep
nicks
nion
nmbsubsteps
nmi
nonpolar
nonstandard
normalizers
nouns
nq
nstep
numa
nxk
oauth2credentials
objectpath
obs2
ole
olecf
ontologies
openhumans
openvpn
operatorname
oq
orients
oses
oslo
outmaps
outputdir
overdue
overplotted
p5
pageobject
pandasudftype
pantsbuild
paperwork
paramvalue
parker
parsererror
parsley
passant
passthru
pathtoisatabfile
patsy
pck
pcolor
pdbs
pdeque
pdt
perceel
perforce
periodarray
perseus
pertinent
perturbations
peyotl
phylip
phylogenetic
piegl
pkcs7
pkg1
pkg2
pkgutil
planner
plants
plotxlim
pm1
poke
pokemon
porod
posteriori
ppn
pragmas
prefixe
prerequisite
prescription
prioritary
productivity
prohibit
proportionally
protects
proteindb
prove
pubchem
publickeyinfo
pvsyst
pymysql
pyo
pypa
pypinyin
pyproj
pysnmperror
pyuv
q3
qbb
qml
qpsphere
quadrat
quadrupole
quantfigure
quantifies
queuemessage
rabin
raiser
rally
rao
rdy
reactionners
read1
rebind
recarrays
recreating
rectpartition
redir
reified
relaxng
relayed
remotefile
renormalization
reponame
reporte
reproduces
requestid
reroot
resid
retrosheet
rfc822
riakclient
richter
ronald
rtdc
rwx
s530
saliency
sampfrom
satpy
sch
scriptsig
sealed
seller
sentencepiece
serialblock
serverdensity
sessioninstance
shah
shapelets
shore
shrinks
sideload
signalled
simplistic
smacof
smarts
smcli
smooths
smsmessage
sockeye
solrclient
solubility
sonify
sourcedir
sp1
sp2
sphinxcontrib
splittable
sqlserver
srk
staleness
startindex
stashed
stationsapi30
stiel
straat
stratum
striped
stsci
subid
submatrix
subpopulations
succ
suffice
summands
summoner
superseded
supervisorctl
supress
suptitle
survive
symmetrization
symposium
synaptic
synchronizing
syncitem
taql
targetpath
tasklogger
taskname
telluric
terrestrial
tfi
thinking
tika
tikhonov
tiller
timelimit
timelines
timestamped
tmoc
tojson
tomdroid
totalizer
tpot
trainset
tranform
transcribe
transpiler
transporttarget
traverser
trivially
turk
txout
u25vd3k
u3vubnk
udfs
udp6transporttarget
umfpbnk
uname
unattach
unbox
unprefixed
unsubscribed
usermodel
v12
validationpath
varepsilon
vdw
vect
vector2
vectorxd
venues
ver2
vertexes
vfsstat
viewid
volumesize
vqe
vsg
vstack
walls
wbemsubscriptionmanager
websso
wiener
wine
wright
x13
x23
x8
xacc
xmlmap
xres
xss
yres
z3
zerofield
zeroing
zimmerman
zlabel
zope
zscale
명세서
접수번호
정보
##0d
##123456
##136
##218
##2222
##375
##440
##4f
##548
##567
##648
##816
##875
##8a
##931
##9k
##adas
##adjustment
##aft
##alendar
##appinstance
##ara
##aton
##attempt
##authenticationerror
##ays
##b5
##blah
##bm
##bon
##calar
##cales
##caller
##cats
##challengeresponse
##chem
##clock
##cmp
##configparser
##contract
##convolve
##country
##cpd
##created
##crypt
##ctory
##cumulativestatisticsinstance
##detect
##documents
##eaks
##effort
##ego
##emp
##emps
##empty
##ernal
##erp
##esa
##finished
##gable
##gd
##glob
##gment
##gradevalue
##hdu
##hibit
##hic
##hite
##hresh
##hypergraph
##ij
##inf
##ingly
##instanceidentifier
##ipaddress
##isted
##ister
##ita
##itan
##iteration
##jects
##junk
##k3
##key1
##keypair
##kh
##kip
##latitude
##lease
##levels
##llow
##luent
##lute
##lx
##nas
##nets
##nko
##nse
##nu
##nums
##nz
##ocks
##oked
##operationerror
##opy
##ormed
##otation
##oto
##ows
##paces
##platform
##posed
##pubkey
##pw
##rado
##rar
##relaxation
##requirements
##responseerror
##ride
##ructor
##rupt
##sampler
##services
##seterror
##shi
##sn
##svc
##tains
##tane
##tas
##tc
##tfile
##tip
##titude
##tization
##tk
##tud
##tune
##uable
##uck
##uct
##ucture
##urf
##uris
##vailable
##volts
##vz
##wang
##wski
##ww
##x100
##xxxx
##еи
##ер
##ра
##ции
##ю
##로
##일
##ᅧᆼ
##ᅮᆫ자
##ᆸ
0011
00700
0x04
100m
100ms
10k
1129
128m
12pm
153
155
158
15min
177
1mb
269
294
297
3072
30t00
312
331
355
373
4506
484
486
583
5f
6500
773
801
816
90135
abnf
acad
addressbook
adhoc
adml
advantages
afk
agraph
amazondynamodb
amulet
analysismediator
anc
anded
andes
announcing
annualizing
antibody
apn
appveyor
ar1
argflag
arrivals
asctime
assessed
asterisks
attested
attri
autoscaler
ax3
axon
azim
b11
backfile
backpressure
backupname
bake
basebackend
basisofrecord
bbg
bencoded
bingham
blockhash
blotter
bos
bought
bpp
brewer
broadinstitute
bugfix
bulletin
bumped
bumpversion
cad
cadc
cameraintrinsics
carddavobject
caret
castling
castro
castrodata
cci
cdir
cek
celeba
cep
cflags
channellist
charging
chi1
chill
chordal
cic
cimproperty
classid
cldf
clientsecrets
cloudgenix
clusteridentifier
codetype
colat
collated
coltype
commanddict
componenttype
conceptual
confidences
confusionmatrix
conover
contentitem
counties
coupler
cpenv
crispr
cset
cue
customizable
cxy
cyg
d2phi
daemonset
datasetkey
dataswim
daylong
dayproc
dca
dclab
ddns
deallocate
debuggee
decomp
decompressing
decor
deduplicated
definer
degreed
deliminator
delineated
dendrites
densely
descendents
devicetr64
dictgraph
dilution
disjunctive
distros
dives
divisors
divs
dladsc
dmt
dolar
dotfiles
downcast
drifts
drugs
dstpath
dtoolcore
dxdv
dyndigraph
ecp
eintr
embeded
employs
emu
enlarged
equates
erc20
errores
escpos
especifica
essence
evalmetric
eventid
evr
example0
ext3
eyes
fabfile
faceting
fahrenheit
failsafe
featurization
featurized
fftshift
fielddata
figuring
filer
fips
fitinfo
fitsfile
fitslc
fixed8
flagname
flightradar24
flocculator
forcefetch
ford
formalized
forwarder
foyer
framers
frog
fsi
fulfills
funcreg
functionalities
funny
gadget
gait
gbp
gct
genty
genuine
geomdlexception
gesellschaft
getaddrinfo
getdata
getinfo
getlist
glfw
grandchild
grating
grch38
greengrass
gsfc
guardian
h5features
haha
hamster
handing
hangouts
har
heatmapsonimage
hexbytes
hext
ho
hobart
hodograph
honeycomb
hong
householder
hte
hypocentral
i3status
idn
ignite
ijk
imageobject
imagestate
imperial
in2
incomming
incompatibilities
increasingly
incs
indexedredismodel
indexname
indirection
inout
insignificant
instability
interbase
interferometer
interpolators
iocs
ionevent
iqn
isambard
isession
itf
ivm
jamfile
javase
jicimagelib
jk
jpeg2000
kc
kindly
kinect
knitting
kwonly
l5
lacking
lala
laliberte
landmark
landweber
launchd
lbfgs
lcd
ldm
leased
leeway
legislation
legit
lego
lenses
letting
levelname
lfl
lifter
linkedin
livprb
lms
localised
locname
logadm
logisticregression
logistics
looped
looseversion
lorenz
lstrip
luke
lunr
machinecontroller
mae
maidenhair
mailman
mapperspec
marca
masterkey
mathworks
md2
md4
memote
memtrack
metatags
meteor
mgrid
missingness
mississippi
modelids
monospace
monzo
moveout
moy
moyenne
msgtype
mtx
mudawar
mutex
myca
mydir
myresult
mzn
nand
ndi
ndvi
nes
neuralnet
nevow
nexts
nicknames
nodc
nomenclature
nominative
nonterminals
nop
notsupportederror
novaclient
novos
nrn
nrql
nse
nsim
ntc
numpix
nysiis
obscure
occurances
odo
oleerrornotimpl
opkg
oplog
option2
osrframework
ossos
ostream
otherws
overshoot
p44
paas
pag
pagure
palo
parler
parsedsoap
partitionid
passsed
pathogenic
paved
pdftotext
pecl
pelix
penultimate
performant
pgpy
phasespaceposition
phi3
philips
placequery
pmut
polytomies
pooch
popitem
postion
postmessage
ppl
preassembler
prettier
profanity
programmers
proleptic
provisions
publishable
pubs
purr
pvol
pylas
pymap
pyos
pytable
pyxmpp
qfont
qi
qiime
qj
qpoints
qualifierlist
qualname
quantumregister
queryablelist
questionable
quokka
quot
quotations
raba
rbns2s
readily
readpreference
rear
receiptnum
recieves
recovering
redelivered
reg2
regioninfo
regressions
reimplementation
renormalize
repaint
reparameterized
replied
rescan
reservationinstance
resourcenotfound
resourceview
responsecontainer
restype
retire
reversibility
rex
rgb32
rgname
rhat
risklib
rolloff
romberg
ron
rop
rtf
runlevel
rust
s10
s4
samplesheet
savez
sc2
scc
schedulerid
sdlerror
searchresult
searchresults
searchs
seclist
secondly
seguinte
semanage
senaite
sendmessage
sensing
seqnum
serialversion
serif
serversession
serviceworker
servicing
setname
setparseaction
setpoints
setstate
sevenbridges
ships
shutitsendspec
sigs
simplekv
skewed
slen
slows
somaticsniper
someclass
spit
spooler
sta
stackid
stanzabase
stashes
stemming
stimfunction
stochastically
stopthr
storagewriter
strat
stringfield
stringification
subexpression
subpaths
subvolumes
succesfully
suffixe
suids
superfluous
swedish
symm
synchronised
tableclass
tagcommanderror
tailored
taskqueueinstance
tco
telepot
temporalmemory
term2
textbox
textos
theboss
thursday
tim
timefactor
tonnetz
trafo
transcoding
transgened
tray
trg
trn
tss
twilight
txs
udunits
uifile
uiobjectproxy
unanswered
undeploy
uniforminitializer
uniformity
unmarshal
unprojected
unversioned
unwrapping
upserts
usernotauthorizederror
valeurs
valuemap
vamp
vao
verlag
vincenty
virtualname
visualizers
vlines
vmx
vout
vpnv6
vrrpe
vtable
vuln
vulnerable
waverange
weatherlab
wechatpy
wheniwork
wiggle
wl
workerinstance
wye
wz
x04
x509v3
xex
xf
xmltextreader
xmp
xnatauth
xray
xvi
xviewwidget
xxxyyy
ya
yieldable
ykman
ypos
zerg
zforce
не
전송
##0000000
##018
##0b
##10000
##140
##1z
##2hex
##403
##434
##442
##443
##4n
##977
##abundance
##agereadcount
##agereaduser
##agrams
##alg
##alreadyexists
##aneous
##annulus
##arate
##arf
##argparser
##around
##ases
##assignment
##ativity
##average
##bal
##balancer
##bes
##between
##boost
##bute
##c8
##cher
##circle
##clients
##closederror
##colormap
##confidence
##const
##ctr
##cutoff
##datasource
##delimiter
##doerror
##eans
##edtree
##eek
##egator
##eiro
##ela
##eng
##erior
##essing
##esta
##esults
##evice
##exporter
##failedexception
##ffff
##flows
##formats
##funcwrapper
##gma
##heet
##hem
##hit
##hk
##iak
##icates
##icies
##iderror
##ifiers
##igh
##imezone
##inbytes
##inminutes
##install
##invaliderror
##issa
##itches
##itting
##kerning
##ket
##keyidentifier
##kshelf
##lify
##loaded
##lstm
##marks
##mble
##mined
##modified
##morphic
##nard
##ndi
##nen
##nested
##ngo
##nii
##nity
##o1
##o3
##ocated
##odes
##omatic
##once
##onding
##ope
##orders
##orms
##oth
##otic
##oud
##ously
##overlaps
##overlay
##party
##peer
##pet
##plate
##plug
##polygon
##problems
##ptor
##pty
##pullrequest
##putrequest
##qa
##qq
##rby
##rds
##reases
##recommender
##rectangles
##reduce
##replica
##requesttoken
##rix
##rization
##rize
##rolename
##rsa
##rust
##screen
##seed
##seg
##serial
##sian
##sition
##solver
##some
##sure
##t01
##t2
##tatisticslist
##terminal
##tizing
##treams
##tted
##tto
##tub
##tuff
##typ
##tzinfo
##uch
##uh
##umed
##unce
##unicode
##uniform
##userid
##usion
##uu
##uven
##value1
##value2
##vey
##vt
##wi
##wide
##widgets
##x5
##xc
##zable
##zier
##ать
##нои
013
051
0x7fe967d64490
1065
10xlarge
1103
1440
149
14e
163
171
1977
2000000
2000q
26t00
279
289
290
295
2t
305
354
380
3c
4217
4505
496
4x
537
5mb
642
644
645
649
65000
994
a440
abcdefghijklmnopqrstuvwxyz
abnormal
abstain
acceptlanguage
acknowledgment
acp
actionstatus
activitylog
admx
adsabs
adversary
agi
ahmadi
akin
alist
allauth
allreduce
alphanumerics
amendment
amet
angeles
answerkey
apenas
apic
apierrorexception
archs
arcidispatch
arranges
array2
arrayrdd
arriving
asin
assetid
asynchttpclient
atomicity
atributos
attr0
attributestoget
audiofile
autofixture
autogenerate
autoscaled
autoscalinggroupname
backs
banners
barati
barh
barometric
barset
baseinstance
bath
bay
bbmap
behaved
billable
binwidth
bioc
bitscore
bjm01
blockblobservice
bnf
bohr
bootstrapscript
boxscores
bregman
broadbandmodel
bruno
brunt
bubbles
burstness
bursts
c32encode
candlestick
cannotcoerceerror
cant
cantidad
carrying
cba
cde
cdist
cell1
cell2
cheby2
checkpointed
chembl
chuang
ci95
claiming
clap
clim
climbing
cloudsight
clustergraph
cmadatalogger
cmdmod
coercible
colorful
colourettu
combinator
commerce
compromise
conditionals
configurationmanager
conformity
constraining
constraintparameter
consumable
containermap
continuations
continueonerror
conver
convolving
coordsystem
cope
cosines
coursera
craft
ctab
ctcp
cublas
curv
customdistribution
cytoband
d3d3
dac
daemonized
darksky
dataio
dataiterator
dataset1
datasetreference
datatypedefinition
datetimearray
dbl
dbm
dcd
dci
decompressor
delimeter
delj
deltav
depicting
depreciated
descs
df3
dictalchemy
dictconfig
dictupperbound
dilate
dimacs
directedhypergraph
disassembled
discordant
disqus
dissect
distinguisher
djangosnippets
dmarc
dongle
dotdict
dotenv
doublings
drizzle
ds054
ds2
dson
dttm
dutycycle
dxy
ebook
ec2connection
ecus
edt
ekb
elevator
ellipticity
emerge
emulating
enciphered
endurance
engage
enginecommandfailed
england
enoslib
environmentfile
eplus
epsilons
errorvalue
escrita
esd
evpo
exemple
expenditure
expenses
expon
facetssearchrequestcontainer
faldo
fastqfile
fbo
fcontext
febrl
federal
fetchable
fetchers
feval
ff0000
ffi
fhru
filefield
fiona
firstorder
fist
fitmags
fitnesses
fitshdr
flammability
floyd
fluctuations
followings
followlinks
football
fp32
fragmentation
froude
galprop
gdac
generatorcontainer
geometrically
gitlabgeterror
gmap
gnupghome
gopath
gordon
grabdata
greenhouse
greenwich
grfn
gspread
gsr
gtype
guo
gvcf
hangups
harness
harvesting
headed
heliocentric
hero
hetero
heuristically
hexameter
hierarchically
hinting
histogram1d
hitlayoutid
hku
horizontalpodautoscaler
hostednumberorderinstance
hostile
hparam
hsl2rgb
httponly
hubvirtualnetworkconnectionsoperations
hundreds
hwnd
hy
hydrate
i3bar
icheatmasstransfer
idat
iguestsession
ilines
imagemagick
imposes
includeclassorigin
incurring
india
indications
indicoio
infered
infinitesimal
infohashes
inj
ino
intentional
intermediates
invaded
invalidcontent
invasion
investment
investopedia
ipv4addr
ireq
isoelastics
javaobject
jellyfish
jitted
jointprobabilitydistribution
joncrall
jwplatform
kabsch
karyotype
kenneth
kh
[...]
